DEPTH = 4096;
WIDTH = 16;
ADDRESS_RADIX = DEC;
DATA_RADIX = HEX;
CONTENT BEGIN
  0 : 003E;
  1 : 0014;
  2 : FFE7;
  3 : FFE9;
  4 : 0023;
  5 : 003D;
  6 : 003B;
  7 : 002B;
  8 : 0016;
  9 : FFC0;
  10 : FFCC;
  11 : 003D;
  12 : 0010;
  13 : FFB5;
  14 : FFC3;
  15 : 0019;
  16 : FFB4;
  17 : FFCC;
  18 : 0007;
  19 : 001D;
  20 : 0017;
  21 : FFD6;
  22 : 0021;
  23 : FFD8;
  24 : FFE5;
  25 : 0026;
  26 : 0017;
  27 : 0036;
  28 : 0018;
  29 : 000A;
  30 : FFC2;
  31 : FFEC;
  32 : FFDC;
  33 : FFD9;
  34 : 0049;
  35 : FFF0;
  36 : 003C;
  37 : 0014;
  38 : 002D;
  39 : 0000;
  40 : 000C;
  41 : FFFF;
  42 : FFD1;
  43 : 0022;
  44 : FFDE;
  45 : FFB7;
  46 : 0016;
  47 : FFCE;
  48 : 0044;
  49 : 0046;
  50 : 0040;
  51 : FFEC;
  52 : FFB6;
  53 : 0042;
  54 : FFF5;
  55 : 0048;
  56 : 0047;
  57 : 0036;
  58 : FFE0;
  59 : FFEE;
  60 : 0036;
  61 : FFE4;
  62 : FFCD;
  63 : 0009;
  64 : 0043;
  65 : 001E;
  66 : 000B;
  67 : FFC2;
  68 : 0012;
  69 : 004B;
  70 : FFC9;
  71 : 0003;
  72 : 003A;
  73 : 0025;
  74 : 001E;
  75 : 001F;
  76 : FFEA;
  77 : FFE0;
  78 : 0030;
  79 : 0030;
  80 : 0038;
  81 : 003F;
  82 : 0002;
  83 : 0000;
  84 : 002E;
  85 : 0017;
  86 : 001F;
  87 : 002D;
  88 : 003C;
  89 : FFE7;
  90 : FFED;
  91 : FFC2;
  92 : 000C;
  93 : FFB9;
  94 : FFFB;
  95 : 0007;
  96 : FFDF;
  97 : 000E;
  98 : FFB8;
  99 : FFB9;
  100 : 0032;
  101 : FFEB;
  102 : FFC7;
  103 : 0003;
  104 : 0029;
  105 : FFD4;
  106 : 0013;
  107 : FFC0;
  108 : FFBB;
  109 : 0005;
  110 : 0006;
  111 : 0015;
  112 : 0023;
  113 : 0049;
  114 : 0003;
  115 : FFE5;
  116 : 002D;
  117 : FFDD;
  118 : FFF7;
  119 : FFBF;
  120 : FFB7;
  121 : 0047;
  122 : 0034;
  123 : 001E;
  124 : FFF2;
  125 : FFCE;
  126 : FFCB;
  127 : FFDA;
  128 : 0008;
  129 : 0021;
  130 : 0019;
  131 : FFDE;
  132 : 0046;
  133 : 0025;
  134 : 0008;
  135 : 0011;
  136 : FFF4;
  137 : FFD9;
  138 : FFEA;
  139 : 0028;
  140 : FFB5;
  141 : FFC5;
  142 : FFBA;
  143 : FFB9;
  144 : 0037;
  145 : 001F;
  146 : FFFC;
  147 : FFC2;
  148 : FFFF;
  149 : FFFC;
  150 : FFCE;
  151 : FFF6;
  152 : FFF0;
  153 : 0012;
  154 : 0015;
  155 : FFBA;
  156 : FFED;
  157 : 0013;
  158 : 0000;
  159 : 0037;
  160 : 0018;
  161 : FFCC;
  162 : FFBE;
  163 : 0016;
  164 : FFB7;
  165 : 000D;
  166 : 0044;
  167 : 000C;
  168 : FFEF;
  169 : 0016;
  170 : FFFA;
  171 : 0007;
  172 : 0044;
  173 : FFEF;
  174 : 0047;
  175 : 003E;
  176 : FFD1;
  177 : FFBE;
  178 : FFC3;
  179 : FFB6;
  180 : FFC2;
  181 : 001C;
  182 : FFBE;
  183 : FFE4;
  184 : 0035;
  185 : FFB7;
  186 : 0030;
  187 : FFDE;
  188 : FFC5;
  189 : 001E;
  190 : 0014;
  191 : 003A;
  192 : 0024;
  193 : 002F;
  194 : FFDF;
  195 : FFCE;
  196 : 0026;
  197 : 002F;
  198 : 004B;
  199 : FFF3;
  200 : FFEC;
  201 : 002A;
  202 : FFE8;
  203 : 0042;
  204 : 0037;
  205 : FFF5;
  206 : 0027;
  207 : 0027;
  208 : FFC3;
  209 : 003E;
  210 : 0001;
  211 : 0032;
  212 : FFE4;
  213 : 003D;
  214 : FFEF;
  215 : FFB5;
  216 : 003E;
  217 : FFC1;
  218 : FFE4;
  219 : 0045;
  220 : 0045;
  221 : 000B;
  222 : 0014;
  223 : FFF8;
  224 : FFE0;
  225 : FFE6;
  226 : 001A;
  227 : 0027;
  228 : 002D;
  229 : 002C;
  230 : FFC1;
  231 : FFFF;
  232 : FFBC;
  233 : 0008;
  234 : FFF7;
  235 : 003C;
  236 : FFE9;
  237 : FFC5;
  238 : FFC9;
  239 : 0028;
  240 : 0012;
  241 : FFC3;
  242 : FFC0;
  243 : 001F;
  244 : FFBE;
  245 : 0031;
  246 : 0020;
  247 : FFC0;
  248 : FFC0;
  249 : 004B;
  250 : FFED;
  251 : FFEC;
  252 : 0030;
  253 : 0045;
  254 : 004B;
  255 : 0027;
  256 : FFED;
  257 : FFC0;
  258 : 002B;
  259 : 0009;
  260 : FFF4;
  261 : 003E;
  262 : FFC4;
  263 : FFFF;
  264 : FFB5;
  265 : FFFB;
  266 : FFBC;
  267 : FFC5;
  268 : FFC5;
  269 : 0017;
  270 : 0026;
  271 : 000D;
  272 : 0047;
  273 : FFED;
  274 : FFDF;
  275 : 0039;
  276 : FFD6;
  277 : 0047;
  278 : FFB5;
  279 : 0048;
  280 : FFBA;
  281 : 003C;
  282 : 0004;
  283 : 004C;
  284 : FFBF;
  285 : 0008;
  286 : 0048;
  287 : 0004;
  288 : 0014;
  289 : 001E;
  290 : FFF9;
  291 : 0014;
  292 : 000D;
  293 : 003E;
  294 : FFBA;
  295 : FFDE;
  296 : 0045;
  297 : 003C;
  298 : FFF9;
  299 : 0012;
  300 : FFDE;
  301 : FFD0;
  302 : FFFA;
  303 : FFE9;
  304 : 000D;
  305 : FFBF;
  306 : 0049;
  307 : 004B;
  308 : 001E;
  309 : 0006;
  310 : FFE3;
  311 : 0030;
  312 : 001C;
  313 : FFCC;
  314 : 003F;
  315 : 0032;
  316 : 0045;
  317 : 0023;
  318 : 0011;
  319 : FFF3;
  320 : 0042;
  321 : 0038;
  322 : FFBA;
  323 : FFB7;
  324 : FFED;
  325 : 0030;
  326 : 004B;
  327 : FFCA;
  328 : 000E;
  329 : FFEE;
  330 : 0048;
  331 : 0035;
  332 : 0034;
  333 : FFFB;
  334 : FFF3;
  335 : FFDD;
  336 : FFBC;
  337 : 0038;
  338 : 0030;
  339 : 004D;
  340 : 004C;
  341 : 0009;
  342 : 0029;
  343 : 0044;
  344 : 0036;
  345 : FFD9;
  346 : FFF8;
  347 : FFC7;
  348 : 0046;
  349 : 0010;
  350 : FFD6;
  351 : 001A;
  352 : 0012;
  353 : FFEA;
  354 : FFC5;
  355 : 001A;
  356 : 0003;
  357 : 002A;
  358 : 0003;
  359 : 0036;
  360 : 0008;
  361 : 0009;
  362 : 003A;
  363 : FFF1;
  364 : FFC8;
  365 : FFB8;
  366 : 0027;
  367 : 0012;
  368 : 001F;
  369 : FFD4;
  370 : FFC8;
  371 : FFB5;
  372 : FFE9;
  373 : 000E;
  374 : FFEF;
  375 : FFF6;
  376 : 003E;
  377 : FFE9;
  378 : 0002;
  379 : 002C;
  380 : FFF0;
  381 : 0013;
  382 : 0038;
  383 : 0045;
  384 : FFCA;
  385 : 0042;
  386 : FFFF;
  387 : FFDB;
  388 : FFFA;
  389 : 004A;
  390 : FFFF;
  391 : FFE6;
  392 : 0014;
  393 : FFD8;
  394 : FFBF;
  395 : FFC7;
  396 : FFC7;
  397 : FFCB;
  398 : FFC9;
  399 : 0016;
  400 : FFCF;
  401 : FFE8;
  402 : 003D;
  403 : FFFC;
  404 : 001A;
  405 : FFCE;
  406 : FFD1;
  407 : FFB9;
  408 : FFCD;
  409 : FFDE;
  410 : FFCE;
  411 : FFC1;
  412 : FFC6;
  413 : FFFA;
  414 : FFD3;
  415 : FFEB;
  416 : 0001;
  417 : 001D;
  418 : FFB9;
  419 : 002E;
  420 : 0014;
  421 : FFC0;
  422 : 0039;
  423 : 0041;
  424 : FFBD;
  425 : FFDE;
  426 : 002F;
  427 : 0026;
  428 : FFD0;
  429 : FFD3;
  430 : FFEC;
  431 : FFFE;
  432 : 0012;
  433 : FFEC;
  434 : FFFA;
  435 : 0026;
  436 : FFB9;
  437 : FFDA;
  438 : 0021;
  439 : 003D;
  440 : 0002;
  441 : 0005;
  442 : FFC4;
  443 : FFF8;
  444 : 0005;
  445 : FFD8;
  446 : FFDD;
  447 : FFED;
  448 : FFB6;
  449 : FFE5;
  450 : FFD4;
  451 : FFE6;
  452 : FFC6;
  453 : 003C;
  454 : 000E;
  455 : 001C;
  456 : 002C;
  457 : 0000;
  458 : FFC1;
  459 : 0006;
  460 : 000D;
  461 : 0026;
  462 : FFF6;
  463 : FFC7;
  464 : FFDF;
  465 : FFEB;
  466 : 0016;
  467 : 000B;
  468 : FFEA;
  469 : 004B;
  470 : 0010;
  471 : FFD8;
  472 : FFC3;
  473 : FFCB;
  474 : FFD9;
  475 : FFCC;
  476 : FFD0;
  477 : FFDF;
  478 : FFCE;
  479 : 003D;
  480 : FFC0;
  481 : 0004;
  482 : FFF2;
  483 : 004A;
  484 : FFC4;
  485 : FFF0;
  486 : 0048;
  487 : 0038;
  488 : 0031;
  489 : FFDB;
  490 : FFCD;
  491 : 001A;
  492 : 0042;
  493 : 0009;
  494 : 000B;
  495 : FFDE;
  496 : 0029;
  497 : FFD0;
  498 : FFE5;
  499 : FFF5;
  500 : 0001;
  501 : FFD8;
  502 : FFC5;
  503 : 0011;
  504 : FFE0;
  505 : 000C;
  506 : FFCB;
  507 : FFFD;
  508 : 0005;
  509 : FFBB;
  510 : FFE7;
  511 : FFC8;
  512 : FFBD;
  513 : 004B;
  514 : FFE5;
  515 : 0030;
  516 : FFDA;
  517 : 001C;
  518 : 0028;
  519 : 000F;
  520 : FFFC;
  521 : FFF2;
  522 : FFE9;
  523 : 0042;
  524 : 0033;
  525 : 0047;
  526 : FFC6;
  527 : 0023;
  528 : 0043;
  529 : FFCF;
  530 : FFBD;
  531 : 0025;
  532 : 000B;
  533 : 0035;
  534 : FFC9;
  535 : 002D;
  536 : FFD2;
  537 : FFCC;
  538 : FFCC;
  539 : 0030;
  540 : 0019;
  541 : 0004;
  542 : FFEA;
  543 : 003A;
  544 : FFEF;
  545 : 0031;
  546 : FFF7;
  547 : FFED;
  548 : FFFA;
  549 : FFE1;
  550 : 0026;
  551 : 0000;
  552 : FFD7;
  553 : 003D;
  554 : FFEE;
  555 : 0007;
  556 : 003E;
  557 : 0013;
  558 : FFC5;
  559 : 0044;
  560 : 0014;
  561 : FFE7;
  562 : FFC9;
  563 : 002D;
  564 : 0012;
  565 : 0005;
  566 : 003D;
  567 : 002C;
  568 : FFCA;
  569 : FFE3;
  570 : FFD9;
  571 : 0025;
  572 : FFB8;
  573 : 000B;
  574 : 0028;
  575 : 003A;
  576 : FFE8;
  577 : 0031;
  578 : FFC4;
  579 : 0035;
  580 : FFC7;
  581 : FFF0;
  582 : 002E;
  583 : FFCA;
  584 : FFD6;
  585 : 0022;
  586 : 0022;
  587 : 0016;
  588 : 001E;
  589 : 0007;
  590 : FFDA;
  591 : FFE8;
  592 : FFCF;
  593 : 003F;
  594 : 000D;
  595 : FFF1;
  596 : FFFA;
  597 : 0045;
  598 : FFCB;
  599 : 000D;
  600 : 0001;
  601 : 0011;
  602 : FFB6;
  603 : 0039;
  604 : 0042;
  605 : 000A;
  606 : 001E;
  607 : 0041;
  608 : 0020;
  609 : FFCB;
  610 : 000C;
  611 : 0010;
  612 : FFF4;
  613 : 0024;
  614 : 0043;
  615 : 0041;
  616 : FFF8;
  617 : FFC5;
  618 : 004A;
  619 : 0034;
  620 : FFC6;
  621 : 0041;
  622 : 0039;
  623 : 0003;
  624 : 000E;
  625 : FFF0;
  626 : FFBC;
  627 : FFE7;
  628 : 002F;
  629 : FFB4;
  630 : FFE6;
  631 : FFF0;
  632 : 0006;
  633 : 0040;
  634 : FFE8;
  635 : FFE8;
  636 : 0024;
  637 : FFF9;
  638 : FFD6;
  639 : FFF9;
  640 : FFC9;
  641 : FFCE;
  642 : 0000;
  643 : FFF4;
  644 : 0040;
  645 : FFEB;
  646 : 000C;
  647 : 0014;
  648 : FFB5;
  649 : 0019;
  650 : FFCF;
  651 : 0047;
  652 : FFCA;
  653 : FFF3;
  654 : FFC0;
  655 : 004C;
  656 : 0000;
  657 : 000F;
  658 : FFBE;
  659 : 0026;
  660 : FFD3;
  661 : 003D;
  662 : FFD3;
  663 : FFD0;
  664 : FFB9;
  665 : FFFC;
  666 : 000A;
  667 : FFBD;
  668 : 002A;
  669 : FFF9;
  670 : 0004;
  671 : FFF7;
  672 : FFF1;
  673 : 0009;
  674 : FFCB;
  675 : FFCF;
  676 : 0038;
  677 : 0045;
  678 : FFED;
  679 : FFDD;
  680 : 0016;
  681 : FFF2;
  682 : FFB7;
  683 : FFCB;
  684 : 0021;
  685 : 0018;
  686 : FFB7;
  687 : FFD5;
  688 : FFD7;
  689 : 001A;
  690 : FFB6;
  691 : FFC3;
  692 : 002E;
  693 : FFCF;
  694 : 0017;
  695 : FFD8;
  696 : FFC2;
  697 : FFD9;
  698 : 0022;
  699 : 0037;
  700 : 0033;
  701 : FFF0;
  702 : 001A;
  703 : FFD3;
  704 : FFE0;
  705 : 003D;
  706 : FFB5;
  707 : FFC0;
  708 : FFD3;
  709 : FFB7;
  710 : FFCF;
  711 : 000D;
  712 : FFF4;
  713 : 003C;
  714 : 0031;
  715 : FFE8;
  716 : FFDB;
  717 : FFEE;
  718 : 000E;
  719 : FFDC;
  720 : 0013;
  721 : FFF2;
  722 : 0008;
  723 : FFF6;
  724 : FFE0;
  725 : 0045;
  726 : 0028;
  727 : FFC9;
  728 : 0039;
  729 : FFFE;
  730 : 003D;
  731 : 002E;
  732 : FFF5;
  733 : FFB7;
  734 : FFDC;
  735 : 0006;
  736 : 0015;
  737 : FFDB;
  738 : FFC9;
  739 : 0033;
  740 : 004A;
  741 : 0004;
  742 : FFCE;
  743 : FFDD;
  744 : FFB6;
  745 : 0040;
  746 : FFC5;
  747 : 000C;
  748 : FFDD;
  749 : 0008;
  750 : 0017;
  751 : 0033;
  752 : FFD3;
  753 : FFB5;
  754 : FFC8;
  755 : 003D;
  756 : 0039;
  757 : 000F;
  758 : 000F;
  759 : 0019;
  760 : FFCE;
  761 : 0040;
  762 : FFF4;
  763 : FFEE;
  764 : 0003;
  765 : FFBA;
  766 : FFCD;
  767 : 0025;
  768 : FFC0;
  769 : 0010;
  770 : FFD9;
  771 : FFEF;
  772 : FFE0;
  773 : FFEA;
  774 : 0022;
  775 : FFE1;
  776 : 000A;
  777 : FFFC;
  778 : 0019;
  779 : 0043;
  780 : 0024;
  781 : FFD4;
  782 : FFB8;
  783 : FFDB;
  784 : 000F;
  785 : FFBB;
  786 : FFFF;
  787 : 000F;
  788 : FFE7;
  789 : 002A;
  790 : FFC4;
  791 : FFBF;
  792 : 0023;
  793 : FFFF;
  794 : 001D;
  795 : FFF6;
  796 : FFD9;
  797 : 0031;
  798 : 002E;
  799 : 001E;
  800 : FFDD;
  801 : 000E;
  802 : FFEB;
  803 : FFC1;
  804 : 0040;
  805 : FFC8;
  806 : 0045;
  807 : FFF8;
  808 : FFD0;
  809 : 0006;
  810 : 0039;
  811 : 0024;
  812 : 002F;
  813 : 0018;
  814 : 001E;
  815 : 0036;
  816 : FFDA;
  817 : FFFE;
  818 : FFD5;
  819 : 004B;
  820 : 0044;
  821 : FFB9;
  822 : 0020;
  823 : 0041;
  824 : FFCF;
  825 : 000A;
  826 : 0040;
  827 : FFB8;
  828 : 001E;
  829 : FFE1;
  830 : 0041;
  831 : 0048;
  832 : 0044;
  833 : FFFC;
  834 : 0038;
  835 : 0035;
  836 : FFE4;
  837 : 0033;
  838 : FFB9;
  839 : 000F;
  840 : FFD7;
  841 : FFC6;
  842 : FFBF;
  843 : 001E;
  844 : FFE7;
  845 : 0023;
  846 : FFBD;
  847 : FFE4;
  848 : 0006;
  849 : 002D;
  850 : FFE4;
  851 : 0013;
  852 : 003B;
  853 : 0012;
  854 : FFD7;
  855 : FFB7;
  856 : 0039;
  857 : FFB6;
  858 : 003A;
  859 : 0004;
  860 : 0043;
  861 : 002E;
  862 : 004C;
  863 : FFE9;
  864 : 0029;
  865 : FFF1;
  866 : FFFD;
  867 : 0014;
  868 : 0039;
  869 : 004A;
  870 : 0029;
  871 : FFF3;
  872 : FFF4;
  873 : 0024;
  874 : FFD8;
  875 : FFC4;
  876 : FFEA;
  877 : FFDF;
  878 : FFE1;
  879 : FFD7;
  880 : FFBA;
  881 : FFB6;
  882 : 004B;
  883 : FFF5;
  884 : FFEE;
  885 : 001C;
  886 : FFD5;
  887 : 0045;
  888 : 002C;
  889 : FFC1;
  890 : FFF3;
  891 : 003A;
  892 : 0044;
  893 : FFFB;
  894 : 0011;
  895 : FFCD;
  896 : 004B;
  897 : FFD7;
  898 : 0044;
  899 : 0017;
  900 : 0011;
  901 : 0002;
  902 : FFD7;
  903 : FFCE;
  904 : FFD5;
  905 : FFD0;
  906 : 002B;
  907 : FFE9;
  908 : FFBC;
  909 : 0048;
  910 : 003B;
  911 : 0042;
  912 : 004C;
  913 : FFCE;
  914 : FFF0;
  915 : 0028;
  916 : 001E;
  917 : FFCB;
  918 : 0031;
  919 : FFD6;
  920 : FFD6;
  921 : 0006;
  922 : 000E;
  923 : 000C;
  924 : FFC1;
  925 : 003A;
  926 : FFDC;
  927 : FFC7;
  928 : 003C;
  929 : 0046;
  930 : 0038;
  931 : 0030;
  932 : 0018;
  933 : 0008;
  934 : FFC1;
  935 : FFF2;
  936 : FFEC;
  937 : FFDB;
  938 : 0022;
  939 : FFFF;
  940 : FFC0;
  941 : FFD5;
  942 : 001C;
  943 : FFBF;
  944 : 0036;
  945 : FFFF;
  946 : FFFD;
  947 : 000E;
  948 : 0032;
  949 : FFE9;
  950 : 001B;
  951 : 000A;
  952 : FFDC;
  953 : 003A;
  954 : 002E;
  955 : 0018;
  956 : 0036;
  957 : 0038;
  958 : 0020;
  959 : 0034;
  960 : 001E;
  961 : 001C;
  962 : 0012;
  963 : 0027;
  964 : FFCC;
  965 : 003B;
  966 : 0039;
  967 : FFB8;
  968 : 0032;
  969 : FFC7;
  970 : FFE7;
  971 : 0025;
  972 : FFCC;
  973 : 0031;
  974 : 0033;
  975 : 0001;
  976 : FFB4;
  977 : FFDF;
  978 : 0012;
  979 : 004A;
  980 : 0014;
  981 : FFDB;
  982 : 0015;
  983 : 0006;
  984 : 002B;
  985 : FFC4;
  986 : 0028;
  987 : 0006;
  988 : 0047;
  989 : FFE8;
  990 : 0014;
  991 : 0042;
  992 : FFC3;
  993 : 0043;
  994 : 001D;
  995 : FFBE;
  996 : FFE1;
  997 : 0020;
  998 : FFBE;
  999 : 000D;
  1000 : FFE8;
  1001 : 0013;
  1002 : FFBA;
  1003 : 0039;
  1004 : 0049;
  1005 : 0048;
  1006 : 0026;
  1007 : FFC7;
  1008 : 0028;
  1009 : FFB7;
  1010 : FFB7;
  1011 : FFE5;
  1012 : FFFE;
  1013 : 002A;
  1014 : 001C;
  1015 : FFF8;
  1016 : FFDD;
  1017 : 004C;
  1018 : FFF5;
  1019 : FFF9;
  1020 : FFCC;
  1021 : 002D;
  1022 : 001E;
  1023 : FFD5;
  1024 : FFC0;
  1025 : 001C;
  1026 : 0018;
  1027 : FFDD;
  1028 : 0045;
  1029 : FFCA;
  1030 : FFF6;
  1031 : 0044;
  1032 : FFF4;
  1033 : 0015;
  1034 : FFF0;
  1035 : FFDD;
  1036 : 004A;
  1037 : FFF2;
  1038 : 003D;
  1039 : FFD7;
  1040 : FFD4;
  1041 : FFB8;
  1042 : 0017;
  1043 : FFEC;
  1044 : 0038;
  1045 : FFFC;
  1046 : 0048;
  1047 : FFD0;
  1048 : 0039;
  1049 : 002A;
  1050 : 002A;
  1051 : 0035;
  1052 : 0028;
  1053 : 0013;
  1054 : FFC7;
  1055 : FFB8;
  1056 : 0041;
  1057 : 0012;
  1058 : 002E;
  1059 : FFFD;
  1060 : FFC5;
  1061 : FFC6;
  1062 : 001D;
  1063 : FFF5;
  1064 : FFD2;
  1065 : FFFF;
  1066 : FFBD;
  1067 : 000D;
  1068 : FFDD;
  1069 : 002E;
  1070 : FFE3;
  1071 : FFF9;
  1072 : FFB5;
  1073 : FFBE;
  1074 : FFEF;
  1075 : FFFD;
  1076 : 000F;
  1077 : FFE0;
  1078 : 001E;
  1079 : 0037;
  1080 : 002B;
  1081 : FFB9;
  1082 : FFFD;
  1083 : FFC3;
  1084 : FFD8;
  1085 : 004B;
  1086 : FFC9;
  1087 : 0000;
  1088 : 0012;
  1089 : 001F;
  1090 : 0009;
  1091 : FFB5;
  1092 : FFE5;
  1093 : 0003;
  1094 : FFC1;
  1095 : FFE9;
  1096 : FFB8;
  1097 : FFBF;
  1098 : FFF0;
  1099 : FFC8;
  1100 : 000A;
  1101 : 001D;
  1102 : 002E;
  1103 : FFD2;
  1104 : FFCD;
  1105 : FFC3;
  1106 : 0015;
  1107 : 0020;
  1108 : FFB8;
  1109 : 0043;
  1110 : FFBB;
  1111 : 0006;
  1112 : 0020;
  1113 : 0039;
  1114 : 0021;
  1115 : 002E;
  1116 : FFE7;
  1117 : 0030;
  1118 : FFC0;
  1119 : 003D;
  1120 : 0007;
  1121 : 0031;
  1122 : FFF9;
  1123 : 0016;
  1124 : 0004;
  1125 : 0024;
  1126 : FFC0;
  1127 : FFBC;
  1128 : FFD9;
  1129 : FFCC;
  1130 : 0039;
  1131 : FFD5;
  1132 : 0049;
  1133 : FFE7;
  1134 : FFCF;
  1135 : 002C;
  1136 : 0018;
  1137 : 0000;
  1138 : 0009;
  1139 : 0022;
  1140 : FFD6;
  1141 : 004C;
  1142 : 0049;
  1143 : 0017;
  1144 : FFD2;
  1145 : 001C;
  1146 : FFBE;
  1147 : FFB8;
  1148 : FFDB;
  1149 : FFFA;
  1150 : 0039;
  1151 : 0023;
  1152 : 0025;
  1153 : FFF5;
  1154 : FFE8;
  1155 : FFEC;
  1156 : 004B;
  1157 : FFB9;
  1158 : 0038;
  1159 : 000C;
  1160 : FFF7;
  1161 : 0023;
  1162 : FFFE;
  1163 : 0039;
  1164 : 003E;
  1165 : FFF4;
  1166 : FFDE;
  1167 : 000E;
  1168 : 003F;
  1169 : FFD4;
  1170 : 0013;
  1171 : 0014;
  1172 : 0024;
  1173 : FFC7;
  1174 : 0021;
  1175 : 003F;
  1176 : FFCF;
  1177 : FFD8;
  1178 : 0048;
  1179 : FFCF;
  1180 : 0036;
  1181 : FFFF;
  1182 : FFD9;
  1183 : 0039;
  1184 : FFF8;
  1185 : 0002;
  1186 : FFEA;
  1187 : 000E;
  1188 : FFCC;
  1189 : FFEF;
  1190 : 0048;
  1191 : FFDB;
  1192 : 0018;
  1193 : FFE5;
  1194 : 002A;
  1195 : FFC7;
  1196 : 0048;
  1197 : FFF9;
  1198 : FFD7;
  1199 : FFBE;
  1200 : FFCD;
  1201 : 0003;
  1202 : FFE7;
  1203 : 0033;
  1204 : FFF5;
  1205 : FFD9;
  1206 : 0012;
  1207 : 0020;
  1208 : FFCD;
  1209 : FFCD;
  1210 : FFB9;
  1211 : 0024;
  1212 : 0019;
  1213 : FFFC;
  1214 : 0035;
  1215 : 002F;
  1216 : 000D;
  1217 : 0039;
  1218 : FFD3;
  1219 : FFC4;
  1220 : FFDD;
  1221 : FFBC;
  1222 : 0005;
  1223 : 0043;
  1224 : FFB9;
  1225 : FFC6;
  1226 : FFF9;
  1227 : 0043;
  1228 : FFE4;
  1229 : 0001;
  1230 : FFBA;
  1231 : FFCA;
  1232 : 004B;
  1233 : 0047;
  1234 : FFB4;
  1235 : 0045;
  1236 : 0015;
  1237 : 0039;
  1238 : FFF9;
  1239 : 0002;
  1240 : FFFE;
  1241 : 001A;
  1242 : FFC9;
  1243 : FFB8;
  1244 : FFE2;
  1245 : 001F;
  1246 : FFD2;
  1247 : 001B;
  1248 : 0048;
  1249 : FFC2;
  1250 : 001B;
  1251 : FFF7;
  1252 : 0039;
  1253 : FFCE;
  1254 : 001E;
  1255 : 0034;
  1256 : 0044;
  1257 : 001C;
  1258 : 0000;
  1259 : 0012;
  1260 : 0039;
  1261 : 000B;
  1262 : FFB8;
  1263 : 0042;
  1264 : 001D;
  1265 : 001B;
  1266 : FFD4;
  1267 : 0018;
  1268 : FFF0;
  1269 : 0017;
  1270 : FFC4;
  1271 : 0018;
  1272 : 004D;
  1273 : FFBB;
  1274 : 0049;
  1275 : FFF2;
  1276 : 0039;
  1277 : 002B;
  1278 : 000A;
  1279 : 0025;
  1280 : 003A;
  1281 : FFF1;
  1282 : FFE5;
  1283 : 001A;
  1284 : 002F;
  1285 : 0028;
  1286 : 002E;
  1287 : FFF6;
  1288 : 0031;
  1289 : FFC6;
  1290 : 0007;
  1291 : FFB4;
  1292 : FFE5;
  1293 : FFEB;
  1294 : FFF0;
  1295 : 001E;
  1296 : FFEF;
  1297 : FFF8;
  1298 : FFD8;
  1299 : FFED;
  1300 : FFD6;
  1301 : FFBE;
  1302 : 0010;
  1303 : 001A;
  1304 : 0012;
  1305 : FFFA;
  1306 : FFEE;
  1307 : 0038;
  1308 : 0003;
  1309 : FFFD;
  1310 : FFB7;
  1311 : FFE8;
  1312 : FFEE;
  1313 : FFF0;
  1314 : 000C;
  1315 : 0005;
  1316 : 0011;
  1317 : 0029;
  1318 : 0030;
  1319 : 0022;
  1320 : 0046;
  1321 : FFB6;
  1322 : FFD1;
  1323 : FFB4;
  1324 : 0017;
  1325 : 003D;
  1326 : FFD9;
  1327 : 0042;
  1328 : FFBC;
  1329 : 0043;
  1330 : FFE9;
  1331 : FFC3;
  1332 : FFFE;
  1333 : FFDB;
  1334 : FFDF;
  1335 : FFE2;
  1336 : 002F;
  1337 : 0006;
  1338 : FFE3;
  1339 : 0011;
  1340 : 0021;
  1341 : FFDD;
  1342 : FFF3;
  1343 : FFC6;
  1344 : FFCF;
  1345 : 001C;
  1346 : FFCF;
  1347 : 0004;
  1348 : 0020;
  1349 : FFC4;
  1350 : 000A;
  1351 : FFDB;
  1352 : 0047;
  1353 : FFFD;
  1354 : 002F;
  1355 : 0008;
  1356 : FFBA;
  1357 : 0014;
  1358 : 0045;
  1359 : 0010;
  1360 : 0031;
  1361 : 003B;
  1362 : FFD6;
  1363 : FFD4;
  1364 : 0011;
  1365 : FFF2;
  1366 : 0034;
  1367 : 003D;
  1368 : FFE9;
  1369 : FFD8;
  1370 : 002B;
  1371 : FFDD;
  1372 : 0032;
  1373 : FFF4;
  1374 : 001A;
  1375 : FFC2;
  1376 : 0013;
  1377 : FFF9;
  1378 : 000D;
  1379 : FFCD;
  1380 : 0024;
  1381 : 0038;
  1382 : FFD4;
  1383 : FFC2;
  1384 : FFB7;
  1385 : 0016;
  1386 : 0010;
  1387 : 0007;
  1388 : FFD7;
  1389 : FFEF;
  1390 : 000F;
  1391 : 0000;
  1392 : 004B;
  1393 : FFC8;
  1394 : 001E;
  1395 : FFF1;
  1396 : FFF5;
  1397 : 0021;
  1398 : 001E;
  1399 : 004B;
  1400 : FFC7;
  1401 : FFC3;
  1402 : 0022;
  1403 : 000C;
  1404 : FFDD;
  1405 : FFBF;
  1406 : FFC0;
  1407 : 003D;
  1408 : FFD1;
  1409 : FFE5;
  1410 : FFD6;
  1411 : FFEA;
  1412 : FFBE;
  1413 : 0003;
  1414 : FFBE;
  1415 : 002E;
  1416 : FFD7;
  1417 : 0006;
  1418 : 003A;
  1419 : 0017;
  1420 : 0005;
  1421 : FFE5;
  1422 : FFE6;
  1423 : 001A;
  1424 : 004C;
  1425 : 0019;
  1426 : 0009;
  1427 : 0023;
  1428 : FFFB;
  1429 : FFBC;
  1430 : 000A;
  1431 : 0046;
  1432 : FFCE;
  1433 : 001D;
  1434 : FFD2;
  1435 : 0006;
  1436 : FFC2;
  1437 : FFF8;
  1438 : 0027;
  1439 : FFE9;
  1440 : 0019;
  1441 : 002D;
  1442 : 0042;
  1443 : FFD7;
  1444 : FFF1;
  1445 : FFCB;
  1446 : 004C;
  1447 : 0042;
  1448 : 0006;
  1449 : 0035;
  1450 : 0003;
  1451 : 0013;
  1452 : FFC1;
  1453 : 0027;
  1454 : FFC7;
  1455 : 0032;
  1456 : 002B;
  1457 : 0020;
  1458 : FFB9;
  1459 : FFE2;
  1460 : FFDC;
  1461 : FFEB;
  1462 : FFC1;
  1463 : 0043;
  1464 : 0008;
  1465 : FFE2;
  1466 : FFF0;
  1467 : FFF8;
  1468 : 000F;
  1469 : 0002;
  1470 : 0040;
  1471 : 0000;
  1472 : 004C;
  1473 : 0036;
  1474 : FFD3;
  1475 : 0042;
  1476 : FFC5;
  1477 : 0031;
  1478 : FFEE;
  1479 : 003A;
  1480 : 0039;
  1481 : 002F;
  1482 : 002D;
  1483 : FFE2;
  1484 : FFC0;
  1485 : FFF1;
  1486 : FFCE;
  1487 : 001E;
  1488 : FFE8;
  1489 : 0049;
  1490 : 0016;
  1491 : 0032;
  1492 : FFC8;
  1493 : 0038;
  1494 : 0041;
  1495 : FFFE;
  1496 : 0010;
  1497 : 0029;
  1498 : FFCE;
  1499 : 0000;
  1500 : FFF0;
  1501 : FFCA;
  1502 : FFEC;
  1503 : FFBE;
  1504 : FFB7;
  1505 : FFC8;
  1506 : 0047;
  1507 : 0008;
  1508 : 0048;
  1509 : FFF6;
  1510 : FFE3;
  1511 : 0001;
  1512 : FFF7;
  1513 : FFC3;
  1514 : 0016;
  1515 : FFD4;
  1516 : 0012;
  1517 : 0017;
  1518 : FFCB;
  1519 : FFBD;
  1520 : 002B;
  1521 : FFFA;
  1522 : FFBC;
  1523 : 004C;
  1524 : FFBC;
  1525 : 001E;
  1526 : 004A;
  1527 : FFD8;
  1528 : FFC9;
  1529 : FFC6;
  1530 : FFE2;
  1531 : FFC3;
  1532 : 001E;
  1533 : FFBD;
  1534 : 0001;
  1535 : 004C;
  1536 : 0030;
  1537 : 0012;
  1538 : FFE2;
  1539 : 0013;
  1540 : 0004;
  1541 : FFF5;
  1542 : FFC7;
  1543 : 003B;
  1544 : FFF8;
  1545 : FFD1;
  1546 : FFEC;
  1547 : FFF3;
  1548 : 0032;
  1549 : 0024;
  1550 : 0029;
  1551 : FFB5;
  1552 : FFF3;
  1553 : FFFD;
  1554 : FFB6;
  1555 : FFDB;
  1556 : 0028;
  1557 : FFC8;
  1558 : 0005;
  1559 : FFD4;
  1560 : FFB5;
  1561 : FFD8;
  1562 : 0049;
  1563 : 002E;
  1564 : 0047;
  1565 : FFFE;
  1566 : FFC4;
  1567 : 0007;
  1568 : FFF9;
  1569 : 0035;
  1570 : FFC2;
  1571 : FFFE;
  1572 : FFCA;
  1573 : FFE5;
  1574 : 0024;
  1575 : FFFC;
  1576 : FFED;
  1577 : FFF0;
  1578 : FFFA;
  1579 : 002C;
  1580 : 003C;
  1581 : 0046;
  1582 : 002C;
  1583 : FFE4;
  1584 : 001D;
  1585 : FFF6;
  1586 : FFDA;
  1587 : 0034;
  1588 : FFB9;
  1589 : 003E;
  1590 : FFFA;
  1591 : 0015;
  1592 : 0018;
  1593 : 003D;
  1594 : 0015;
  1595 : 0012;
  1596 : FFBD;
  1597 : 0003;
  1598 : FFCA;
  1599 : 0024;
  1600 : 0002;
  1601 : 001C;
  1602 : FFBA;
  1603 : FFC0;
  1604 : 0021;
  1605 : FFBE;
  1606 : FFBE;
  1607 : FFB5;
  1608 : 0046;
  1609 : 0024;
  1610 : FFE9;
  1611 : FFE1;
  1612 : FFE9;
  1613 : 002A;
  1614 : 0019;
  1615 : FFD0;
  1616 : FFCE;
  1617 : FFC2;
  1618 : 0019;
  1619 : 0029;
  1620 : FFDC;
  1621 : FFB6;
  1622 : FFC0;
  1623 : 0048;
  1624 : FFE1;
  1625 : 0029;
  1626 : 0013;
  1627 : FFEE;
  1628 : FFD3;
  1629 : FFC6;
  1630 : 0012;
  1631 : 002A;
  1632 : 0016;
  1633 : 0005;
  1634 : FFBA;
  1635 : 0048;
  1636 : 002E;
  1637 : FFE0;
  1638 : 004A;
  1639 : 0010;
  1640 : 000D;
  1641 : 0026;
  1642 : 0030;
  1643 : 0018;
  1644 : FFC7;
  1645 : FFE7;
  1646 : 0042;
  1647 : FFD6;
  1648 : FFEC;
  1649 : FFF6;
  1650 : FFF7;
  1651 : 0011;
  1652 : 0044;
  1653 : FFD8;
  1654 : FFC6;
  1655 : FFD2;
  1656 : 003B;
  1657 : 0016;
  1658 : FFDF;
  1659 : 0031;
  1660 : 0038;
  1661 : 0035;
  1662 : 0040;
  1663 : FFDA;
  1664 : 0027;
  1665 : FFFA;
  1666 : 0035;
  1667 : 0023;
  1668 : 002A;
  1669 : 0018;
  1670 : FFCE;
  1671 : 0007;
  1672 : 004A;
  1673 : 0043;
  1674 : FFBA;
  1675 : FFCD;
  1676 : FFC7;
  1677 : 0023;
  1678 : 0031;
  1679 : FFD4;
  1680 : 0001;
  1681 : 0034;
  1682 : 0024;
  1683 : 0006;
  1684 : 000E;
  1685 : 0001;
  1686 : FFE1;
  1687 : 000A;
  1688 : 001D;
  1689 : 0039;
  1690 : 0015;
  1691 : 0028;
  1692 : FFCC;
  1693 : FFFA;
  1694 : FFB5;
  1695 : FFD9;
  1696 : 0023;
  1697 : 004C;
  1698 : FFC2;
  1699 : FFF1;
  1700 : 002E;
  1701 : FFD3;
  1702 : 0008;
  1703 : 0024;
  1704 : 0012;
  1705 : FFD0;
  1706 : FFEA;
  1707 : 002C;
  1708 : 0008;
  1709 : FFB4;
  1710 : 0028;
  1711 : FFB9;
  1712 : 0026;
  1713 : FFD2;
  1714 : 0046;
  1715 : FFEC;
  1716 : FFE5;
  1717 : FFCA;
  1718 : FFE2;
  1719 : 003A;
  1720 : 004C;
  1721 : FFEC;
  1722 : FFF8;
  1723 : 0022;
  1724 : 003B;
  1725 : 000E;
  1726 : FFEF;
  1727 : FFF3;
  1728 : 001E;
  1729 : FFB4;
  1730 : 0012;
  1731 : FFEA;
  1732 : 002D;
  1733 : FFC1;
  1734 : 000E;
  1735 : FFFD;
  1736 : 0016;
  1737 : FFBD;
  1738 : 000C;
  1739 : 0009;
  1740 : 0009;
  1741 : 0010;
  1742 : 001B;
  1743 : 002F;
  1744 : FFDD;
  1745 : 0032;
  1746 : 0000;
  1747 : FFBF;
  1748 : FFBC;
  1749 : FFE7;
  1750 : 002C;
  1751 : 0020;
  1752 : 002C;
  1753 : 0003;
  1754 : FFF7;
  1755 : FFCA;
  1756 : FFE6;
  1757 : FFF6;
  1758 : FFC1;
  1759 : FFD5;
  1760 : 000F;
  1761 : 0024;
  1762 : 004D;
  1763 : 0043;
  1764 : 0016;
  1765 : FFF4;
  1766 : 0015;
  1767 : 002C;
  1768 : FFC5;
  1769 : FFF2;
  1770 : 0034;
  1771 : FFEE;
  1772 : 000B;
  1773 : 000D;
  1774 : FFD0;
  1775 : FFEB;
  1776 : FFE7;
  1777 : FFB7;
  1778 : FFB7;
  1779 : 0033;
  1780 : FFDD;
  1781 : 0003;
  1782 : FFE1;
  1783 : 0044;
  1784 : FFDB;
  1785 : FFF5;
  1786 : 0039;
  1787 : 0035;
  1788 : FFD0;
  1789 : 002E;
  1790 : FFFA;
  1791 : FFFD;
  1792 : FFC8;
  1793 : FFC0;
  1794 : 0023;
  1795 : FFFF;
  1796 : FFF6;
  1797 : 0023;
  1798 : 0029;
  1799 : FFCC;
  1800 : 0011;
  1801 : FFC8;
  1802 : 0027;
  1803 : 0018;
  1804 : 0046;
  1805 : FFBE;
  1806 : FFBC;
  1807 : FFDF;
  1808 : FFDB;
  1809 : FFD9;
  1810 : 003E;
  1811 : FFDA;
  1812 : FFDD;
  1813 : 0028;
  1814 : FFF8;
  1815 : 002B;
  1816 : FFBD;
  1817 : FFFE;
  1818 : FFB8;
  1819 : FFBD;
  1820 : 003E;
  1821 : FFC9;
  1822 : 0005;
  1823 : FFF2;
  1824 : FFE9;
  1825 : 003D;
  1826 : FFB7;
  1827 : 0019;
  1828 : 0047;
  1829 : 0009;
  1830 : 0043;
  1831 : FFBB;
  1832 : FFF4;
  1833 : FFDB;
  1834 : 0023;
  1835 : 004A;
  1836 : FFDB;
  1837 : 0018;
  1838 : FFD2;
  1839 : 000A;
  1840 : FFFA;
  1841 : 0049;
  1842 : 0011;
  1843 : FFE9;
  1844 : FFC5;
  1845 : FFCA;
  1846 : FFD6;
  1847 : FFDA;
  1848 : 0036;
  1849 : 0009;
  1850 : 0004;
  1851 : FFC5;
  1852 : 0037;
  1853 : 0022;
  1854 : FFBE;
  1855 : 0020;
  1856 : 0007;
  1857 : FFC0;
  1858 : FFFA;
  1859 : FFFE;
  1860 : FFCD;
  1861 : 0044;
  1862 : 0036;
  1863 : 001A;
  1864 : FFFA;
  1865 : FFF2;
  1866 : 0017;
  1867 : 0007;
  1868 : FFBD;
  1869 : 0002;
  1870 : 002F;
  1871 : FFFA;
  1872 : FFBB;
  1873 : 002C;
  1874 : FFD2;
  1875 : FFDB;
  1876 : FFCC;
  1877 : FFE6;
  1878 : 0027;
  1879 : 0003;
  1880 : FFD3;
  1881 : 003A;
  1882 : 003A;
  1883 : 0039;
  1884 : FFD8;
  1885 : FFF9;
  1886 : 004A;
  1887 : 002A;
  1888 : FFB7;
  1889 : FFBD;
  1890 : FFFA;
  1891 : 003F;
  1892 : 0006;
  1893 : 0000;
  1894 : FFC3;
  1895 : 0018;
  1896 : 0031;
  1897 : FFEE;
  1898 : 002A;
  1899 : 0047;
  1900 : FFD2;
  1901 : 0004;
  1902 : FFDF;
  1903 : 002D;
  1904 : 000C;
  1905 : 0015;
  1906 : 002E;
  1907 : FFF0;
  1908 : 0040;
  1909 : 0005;
  1910 : FFCB;
  1911 : 001E;
  1912 : 002D;
  1913 : FFE4;
  1914 : 0037;
  1915 : 003E;
  1916 : FFDE;
  1917 : 004A;
  1918 : FFC9;
  1919 : FFD2;
  1920 : FFCF;
  1921 : 003D;
  1922 : 0018;
  1923 : FFCB;
  1924 : FFF7;
  1925 : 0012;
  1926 : FFC0;
  1927 : 003B;
  1928 : 002F;
  1929 : 0001;
  1930 : 0048;
  1931 : FFF3;
  1932 : 004A;
  1933 : 001A;
  1934 : 0015;
  1935 : FFCD;
  1936 : 003B;
  1937 : FFF5;
  1938 : FFCC;
  1939 : FFB5;
  1940 : 0009;
  1941 : 0004;
  1942 : 0022;
  1943 : 003C;
  1944 : FFBF;
  1945 : 0024;
  1946 : FFD0;
  1947 : 0037;
  1948 : 0031;
  1949 : 0006;
  1950 : 0020;
  1951 : FFE3;
  1952 : FFFC;
  1953 : 0031;
  1954 : FFFA;
  1955 : FFEA;
  1956 : FFFF;
  1957 : 0032;
  1958 : FFE7;
  1959 : FFCE;
  1960 : 0021;
  1961 : 0032;
  1962 : FFC3;
  1963 : FFD8;
  1964 : FFC9;
  1965 : FFE9;
  1966 : FFF8;
  1967 : 0026;
  1968 : 0017;
  1969 : 0013;
  1970 : FFE9;
  1971 : 0034;
  1972 : FFFC;
  1973 : 004A;
  1974 : 0015;
  1975 : FFC7;
  1976 : 001B;
  1977 : FFE5;
  1978 : 001D;
  1979 : FFBE;
  1980 : FFCE;
  1981 : 0037;
  1982 : FFD6;
  1983 : 0034;
  1984 : FFDE;
  1985 : 0016;
  1986 : 001E;
  1987 : 0002;
  1988 : FFE2;
  1989 : FFD4;
  1990 : FFB8;
  1991 : FFE2;
  1992 : 0018;
  1993 : 0043;
  1994 : 0039;
  1995 : 0029;
  1996 : 002C;
  1997 : 0019;
  1998 : FFDB;
  1999 : 003F;
  2000 : 001A;
  2001 : 0009;
  2002 : FFC4;
  2003 : FFF8;
  2004 : FFFA;
  2005 : 0038;
  2006 : 0007;
  2007 : FFEE;
  2008 : 0049;
  2009 : FFC4;
  2010 : FFF4;
  2011 : FFBA;
  2012 : 0025;
  2013 : 0040;
  2014 : FFDE;
  2015 : 0037;
  2016 : FFE0;
  2017 : 003F;
  2018 : 0027;
  2019 : 002F;
  2020 : FFB6;
  2021 : 0047;
  2022 : 0023;
  2023 : FFE2;
  2024 : 0033;
  2025 : FFDE;
  2026 : 0039;
  2027 : FFC4;
  2028 : 001F;
  2029 : 0006;
  2030 : FFC2;
  2031 : FFD8;
  2032 : FFB5;
  2033 : FFFB;
  2034 : FFE1;
  2035 : 000F;
  2036 : FFE1;
  2037 : FFE1;
  2038 : 0025;
  2039 : FFBB;
  2040 : 003E;
  2041 : 0036;
  2042 : 001A;
  2043 : 000E;
  2044 : 003C;
  2045 : FFD0;
  2046 : FFBF;
  2047 : FFD8;
  2048 : 002D;
  2049 : FFB9;
  2050 : 000D;
  2051 : 004C;
  2052 : 0037;
  2053 : 0003;
  2054 : FFBD;
  2055 : 0033;
  2056 : 000F;
  2057 : FFC5;
  2058 : FFC2;
  2059 : 003F;
  2060 : 001A;
  2061 : 0033;
  2062 : 003A;
  2063 : 000B;
  2064 : 0003;
  2065 : FFF5;
  2066 : FFE4;
  2067 : FFF6;
  2068 : 002A;
  2069 : 0010;
  2070 : 003C;
  2071 : FFF7;
  2072 : 0010;
  2073 : 0014;
  2074 : 000E;
  2075 : 001F;
  2076 : FFD8;
  2077 : 0002;
  2078 : FFC3;
  2079 : FFEE;
  2080 : FFFE;
  2081 : 0017;
  2082 : 0045;
  2083 : 000F;
  2084 : 0025;
  2085 : 0001;
  2086 : 0015;
  2087 : FFBE;
  2088 : FFDA;
  2089 : FFEB;
  2090 : FFFC;
  2091 : FFBA;
  2092 : FFC9;
  2093 : FFDE;
  2094 : 0048;
  2095 : FFE6;
  2096 : FFFD;
  2097 : FFD1;
  2098 : 0011;
  2099 : FFDE;
  2100 : FFD3;
  2101 : 0003;
  2102 : FFB4;
  2103 : FFB4;
  2104 : FFD5;
  2105 : FFB9;
  2106 : FFC4;
  2107 : FFE7;
  2108 : 002E;
  2109 : 000B;
  2110 : 0002;
  2111 : FFE0;
  2112 : 0042;
  2113 : FFF0;
  2114 : FFC1;
  2115 : 0012;
  2116 : FFC5;
  2117 : FFE8;
  2118 : 0001;
  2119 : 0039;
  2120 : FFFF;
  2121 : 001F;
  2122 : 004C;
  2123 : FFC7;
  2124 : FFDD;
  2125 : FFF0;
  2126 : FFF4;
  2127 : FFF2;
  2128 : 003F;
  2129 : 0021;
  2130 : 0011;
  2131 : FFE3;
  2132 : 0032;
  2133 : 0046;
  2134 : 0031;
  2135 : FFB3;
  2136 : 0015;
  2137 : FFBB;
  2138 : FFDB;
  2139 : FFBC;
  2140 : 0010;
  2141 : 001D;
  2142 : FFC5;
  2143 : FFEE;
  2144 : FFF9;
  2145 : FFEC;
  2146 : FFC6;
  2147 : FFF4;
  2148 : 0027;
  2149 : FFBE;
  2150 : FFC0;
  2151 : FFEA;
  2152 : 0044;
  2153 : 001A;
  2154 : 001B;
  2155 : FFEB;
  2156 : 000E;
  2157 : FFB5;
  2158 : 0015;
  2159 : 003F;
  2160 : 0011;
  2161 : 0039;
  2162 : 0022;
  2163 : FFC6;
  2164 : 003E;
  2165 : FFBD;
  2166 : 0005;
  2167 : FFC9;
  2168 : FFB5;
  2169 : FFF4;
  2170 : FFE1;
  2171 : FFFE;
  2172 : 000C;
  2173 : FFBA;
  2174 : FFC6;
  2175 : 0009;
  2176 : FFE8;
  2177 : 0023;
  2178 : 0017;
  2179 : 0035;
  2180 : 001E;
  2181 : FFF5;
  2182 : 001B;
  2183 : FFDD;
  2184 : FFE2;
  2185 : 002C;
  2186 : FFF8;
  2187 : 002E;
  2188 : 0032;
  2189 : 0037;
  2190 : 0040;
  2191 : FFF5;
  2192 : FFE4;
  2193 : 000D;
  2194 : FFEC;
  2195 : 0010;
  2196 : 0020;
  2197 : 001D;
  2198 : FFED;
  2199 : FFCD;
  2200 : FFF5;
  2201 : FFC9;
  2202 : 003C;
  2203 : FFE8;
  2204 : FFCB;
  2205 : FFB7;
  2206 : 0016;
  2207 : 0015;
  2208 : FFE8;
  2209 : FFBE;
  2210 : FFF2;
  2211 : FFE3;
  2212 : 001B;
  2213 : 0010;
  2214 : FFEB;
  2215 : FFD5;
  2216 : 004B;
  2217 : FFF9;
  2218 : 001D;
  2219 : FFC9;
  2220 : FFFE;
  2221 : FFB7;
  2222 : 0001;
  2223 : 0047;
  2224 : FFEE;
  2225 : FFB9;
  2226 : FFB8;
  2227 : FFEF;
  2228 : FFCC;
  2229 : FFB7;
  2230 : 0027;
  2231 : FFFA;
  2232 : FFE0;
  2233 : 003D;
  2234 : FFC5;
  2235 : 0046;
  2236 : FFE3;
  2237 : 003C;
  2238 : 0010;
  2239 : 0032;
  2240 : 004A;
  2241 : FFDF;
  2242 : 0047;
  2243 : FFEF;
  2244 : FFEE;
  2245 : FFE7;
  2246 : 0006;
  2247 : FFCB;
  2248 : 0008;
  2249 : 0006;
  2250 : 0028;
  2251 : 0033;
  2252 : FFF7;
  2253 : FFE2;
  2254 : FFDB;
  2255 : FFD1;
  2256 : FFBC;
  2257 : FFE8;
  2258 : FFDD;
  2259 : 0048;
  2260 : 0009;
  2261 : FFE9;
  2262 : 000C;
  2263 : FFC9;
  2264 : FFF7;
  2265 : 0013;
  2266 : FFFE;
  2267 : FFF1;
  2268 : 004C;
  2269 : 003A;
  2270 : 0013;
  2271 : 000B;
  2272 : 0013;
  2273 : FFD2;
  2274 : FFF0;
  2275 : FFB9;
  2276 : FFFC;
  2277 : 0007;
  2278 : FFD6;
  2279 : 0047;
  2280 : 003F;
  2281 : 0022;
  2282 : 0005;
  2283 : 0039;
  2284 : FFC7;
  2285 : 002D;
  2286 : FFC6;
  2287 : 002D;
  2288 : FFDE;
  2289 : 003A;
  2290 : 0044;
  2291 : FFCA;
  2292 : FFFA;
  2293 : 004A;
  2294 : FFFD;
  2295 : 0038;
  2296 : 000E;
  2297 : FFED;
  2298 : FFDF;
  2299 : FFD2;
  2300 : 0028;
  2301 : FFEF;
  2302 : 0002;
  2303 : FFFF;
  2304 : 000C;
  2305 : 0038;
  2306 : 004A;
  2307 : FFF2;
  2308 : 0032;
  2309 : 0029;
  2310 : 000B;
  2311 : 0046;
  2312 : FFD2;
  2313 : FFC4;
  2314 : 0036;
  2315 : FFF7;
  2316 : 0035;
  2317 : 003C;
  2318 : FFBD;
  2319 : 003B;
  2320 : FFF8;
  2321 : 0002;
  2322 : 0013;
  2323 : 0041;
  2324 : FFB6;
  2325 : FFFC;
  2326 : 001D;
  2327 : 0022;
  2328 : 001E;
  2329 : FFC8;
  2330 : FFE1;
  2331 : FFEA;
  2332 : 002F;
  2333 : FFDE;
  2334 : FFD4;
  2335 : 0046;
  2336 : FFB5;
  2337 : 004C;
  2338 : 001B;
  2339 : 0032;
  2340 : FFE0;
  2341 : FFB5;
  2342 : 0025;
  2343 : 0033;
  2344 : 0025;
  2345 : FFC9;
  2346 : 0027;
  2347 : 0029;
  2348 : 0018;
  2349 : 0029;
  2350 : 0035;
  2351 : 0011;
  2352 : FFC1;
  2353 : FFFE;
  2354 : FFBF;
  2355 : FFF2;
  2356 : FFF2;
  2357 : FFBD;
  2358 : FFE9;
  2359 : FFC4;
  2360 : 002F;
  2361 : 0045;
  2362 : FFBE;
  2363 : 0046;
  2364 : 0003;
  2365 : FFE1;
  2366 : FFBF;
  2367 : 0000;
  2368 : 002D;
  2369 : 0020;
  2370 : FFBB;
  2371 : FFBE;
  2372 : FFF1;
  2373 : FFE1;
  2374 : FFD7;
  2375 : FFDE;
  2376 : 002F;
  2377 : 0042;
  2378 : FFF1;
  2379 : 003E;
  2380 : FFE5;
  2381 : FFFC;
  2382 : FFD6;
  2383 : 0016;
  2384 : 004A;
  2385 : 0010;
  2386 : FFEA;
  2387 : 0017;
  2388 : FFC6;
  2389 : 003C;
  2390 : 0000;
  2391 : FFF8;
  2392 : 000D;
  2393 : 0013;
  2394 : FFBE;
  2395 : 001C;
  2396 : FFD8;
  2397 : 0021;
  2398 : 0032;
  2399 : 002F;
  2400 : 0008;
  2401 : 0003;
  2402 : FFC9;
  2403 : 002A;
  2404 : FFDD;
  2405 : FFFF;
  2406 : FFDF;
  2407 : FFC8;
  2408 : 0014;
  2409 : FFBC;
  2410 : 0026;
  2411 : FFE4;
  2412 : FFB3;
  2413 : 0002;
  2414 : FFBA;
  2415 : FFDE;
  2416 : 0020;
  2417 : FFBD;
  2418 : 0034;
  2419 : FFB4;
  2420 : FFD9;
  2421 : 0025;
  2422 : FFE4;
  2423 : FFC3;
  2424 : FFEB;
  2425 : FFDD;
  2426 : 0035;
  2427 : FFE3;
  2428 : 002C;
  2429 : 003C;
  2430 : FFF6;
  2431 : 003F;
  2432 : FFED;
  2433 : 0047;
  2434 : FFC1;
  2435 : 001D;
  2436 : FFFF;
  2437 : FFEF;
  2438 : 0014;
  2439 : 001F;
  2440 : FFB4;
  2441 : FFCD;
  2442 : 0021;
  2443 : 001A;
  2444 : 0048;
  2445 : 0028;
  2446 : 0045;
  2447 : 001F;
  2448 : FFE1;
  2449 : FFC3;
  2450 : 002B;
  2451 : 0016;
  2452 : FFBB;
  2453 : FFEB;
  2454 : 0046;
  2455 : 0000;
  2456 : FFF6;
  2457 : FFFA;
  2458 : FFD3;
  2459 : FFEC;
  2460 : FFEC;
  2461 : FFBB;
  2462 : 0029;
  2463 : FFF3;
  2464 : 0031;
  2465 : 0036;
  2466 : FFD4;
  2467 : 0018;
  2468 : FFFC;
  2469 : 003A;
  2470 : FFD4;
  2471 : 001B;
  2472 : 0011;
  2473 : FFE1;
  2474 : FFC8;
  2475 : 0017;
  2476 : 0025;
  2477 : FFE4;
  2478 : 0016;
  2479 : FFF0;
  2480 : 0021;
  2481 : FFD2;
  2482 : 003C;
  2483 : FFDF;
  2484 : FFEC;
  2485 : FFBC;
  2486 : FFC4;
  2487 : 0002;
  2488 : FFDC;
  2489 : 0034;
  2490 : FFB5;
  2491 : FFED;
  2492 : FFE7;
  2493 : FFB6;
  2494 : FFC6;
  2495 : FFF3;
  2496 : FFFF;
  2497 : FFF1;
  2498 : 0005;
  2499 : 000F;
  2500 : FFB5;
  2501 : FFFA;
  2502 : 0047;
  2503 : 0003;
  2504 : 001B;
  2505 : FFE3;
  2506 : 002A;
  2507 : 002A;
  2508 : 0003;
  2509 : 0049;
  2510 : FFC6;
  2511 : FFB6;
  2512 : 0029;
  2513 : 002F;
  2514 : FFC6;
  2515 : FFDC;
  2516 : FFB6;
  2517 : FFE0;
  2518 : 002A;
  2519 : 0003;
  2520 : FFE9;
  2521 : FFEC;
  2522 : FFB3;
  2523 : FFE1;
  2524 : 0016;
  2525 : 0049;
  2526 : 0035;
  2527 : FFB7;
  2528 : 003D;
  2529 : 002B;
  2530 : 002B;
  2531 : FFFA;
  2532 : FFF0;
  2533 : FFE2;
  2534 : FFBD;
  2535 : FFD6;
  2536 : FFD9;
  2537 : FFFE;
  2538 : 0026;
  2539 : FFFC;
  2540 : FFBC;
  2541 : 0046;
  2542 : 0044;
  2543 : 002C;
  2544 : 004B;
  2545 : 0007;
  2546 : 0047;
  2547 : FFBF;
  2548 : FFEB;
  2549 : FFD6;
  2550 : FFD1;
  2551 : FFC9;
  2552 : 0013;
  2553 : 002B;
  2554 : 000C;
  2555 : FFCA;
  2556 : 0030;
  2557 : 0015;
  2558 : FFEF;
  2559 : 001B;
  2560 : FFDB;
  2561 : FFE8;
  2562 : 0040;
  2563 : FFE0;
  2564 : FFFB;
  2565 : 003C;
  2566 : 0020;
  2567 : FFBD;
  2568 : FFCA;
  2569 : FFB4;
  2570 : 0014;
  2571 : FFF8;
  2572 : FFC8;
  2573 : 0046;
  2574 : 0005;
  2575 : FFD8;
  2576 : 0000;
  2577 : 001C;
  2578 : FFBF;
  2579 : FFDD;
  2580 : 002F;
  2581 : FFFA;
  2582 : 0007;
  2583 : FFF6;
  2584 : FFBA;
  2585 : FFCD;
  2586 : FFF8;
  2587 : FFD3;
  2588 : FFBB;
  2589 : 0035;
  2590 : 004A;
  2591 : 002D;
  2592 : 0036;
  2593 : FFD8;
  2594 : 0047;
  2595 : FFD1;
  2596 : 0045;
  2597 : 004C;
  2598 : 0021;
  2599 : 004A;
  2600 : 000B;
  2601 : FFDB;
  2602 : FFF6;
  2603 : 000E;
  2604 : FFBE;
  2605 : 0013;
  2606 : 004A;
  2607 : FFD0;
  2608 : 002D;
  2609 : 003F;
  2610 : 0044;
  2611 : 0047;
  2612 : 0003;
  2613 : 0049;
  2614 : 0028;
  2615 : FFCC;
  2616 : FFFC;
  2617 : 0022;
  2618 : FFD9;
  2619 : 0016;
  2620 : 001A;
  2621 : FFCC;
  2622 : 000A;
  2623 : 002A;
  2624 : 0000;
  2625 : FFB5;
  2626 : FFB5;
  2627 : FFEA;
  2628 : 0041;
  2629 : FFD6;
  2630 : 0015;
  2631 : FFD5;
  2632 : FFE5;
  2633 : 0035;
  2634 : 0023;
  2635 : FFC2;
  2636 : FFF5;
  2637 : FFB8;
  2638 : FFFD;
  2639 : 0019;
  2640 : FFC5;
  2641 : FFE0;
  2642 : FFF0;
  2643 : 0040;
  2644 : 004C;
  2645 : FFBA;
  2646 : 0028;
  2647 : FFEC;
  2648 : FFEF;
  2649 : 0027;
  2650 : 0040;
  2651 : 0045;
  2652 : 000C;
  2653 : FFEA;
  2654 : 002C;
  2655 : FFDA;
  2656 : 000A;
  2657 : FFEA;
  2658 : 0018;
  2659 : FFD8;
  2660 : FFD1;
  2661 : 0040;
  2662 : FFC3;
  2663 : 0001;
  2664 : FFD5;
  2665 : FFB9;
  2666 : FFB9;
  2667 : FFCE;
  2668 : 0038;
  2669 : FFDF;
  2670 : 0045;
  2671 : 000D;
  2672 : FFF6;
  2673 : 000C;
  2674 : 0003;
  2675 : 0028;
  2676 : FFDF;
  2677 : FFE9;
  2678 : 003D;
  2679 : 0045;
  2680 : 003C;
  2681 : FFF4;
  2682 : 002B;
  2683 : FFFC;
  2684 : 0000;
  2685 : FFD3;
  2686 : 000E;
  2687 : FFD0;
  2688 : FFE6;
  2689 : 0037;
  2690 : FFD3;
  2691 : FFBE;
  2692 : FFBE;
  2693 : 0044;
  2694 : 0001;
  2695 : FFF2;
  2696 : 0030;
  2697 : 0034;
  2698 : FFE6;
  2699 : 001E;
  2700 : 002A;
  2701 : 0018;
  2702 : FFCA;
  2703 : 003A;
  2704 : 0006;
  2705 : FFDF;
  2706 : FFF5;
  2707 : FFB9;
  2708 : FFC7;
  2709 : 0029;
  2710 : FFB3;
  2711 : FFF3;
  2712 : 0003;
  2713 : FFBC;
  2714 : 0049;
  2715 : FFD6;
  2716 : FFE2;
  2717 : FFE2;
  2718 : FFD7;
  2719 : FFB3;
  2720 : 0023;
  2721 : 0048;
  2722 : FFD6;
  2723 : 0019;
  2724 : 0025;
  2725 : 0036;
  2726 : FFF4;
  2727 : FFE2;
  2728 : FFE5;
  2729 : 0021;
  2730 : 0031;
  2731 : FFCF;
  2732 : FFEC;
  2733 : 003E;
  2734 : 002F;
  2735 : 004A;
  2736 : 0027;
  2737 : FFF0;
  2738 : 000E;
  2739 : 0019;
  2740 : FFBF;
  2741 : 0007;
  2742 : 0020;
  2743 : FFCD;
  2744 : 002B;
  2745 : 000D;
  2746 : 0045;
  2747 : FFBA;
  2748 : FFDC;
  2749 : 0010;
  2750 : FFE1;
  2751 : 0021;
  2752 : 0028;
  2753 : FFC3;
  2754 : 0002;
  2755 : 0001;
  2756 : FFEC;
  2757 : 0042;
  2758 : 0032;
  2759 : 001E;
  2760 : 0021;
  2761 : FFFA;
  2762 : 0041;
  2763 : 001E;
  2764 : 0023;
  2765 : 0038;
  2766 : FFDD;
  2767 : 002F;
  2768 : FFD1;
  2769 : FFE8;
  2770 : FFE7;
  2771 : 004A;
  2772 : 0037;
  2773 : 001F;
  2774 : 0023;
  2775 : 000A;
  2776 : 0045;
  2777 : FFFF;
  2778 : FFEE;
  2779 : FFCC;
  2780 : 002C;
  2781 : 0024;
  2782 : FFEE;
  2783 : FFB7;
  2784 : 0034;
  2785 : FFB5;
  2786 : 001F;
  2787 : 0048;
  2788 : FFF6;
  2789 : FFD7;
  2790 : 001F;
  2791 : 0031;
  2792 : 0007;
  2793 : 0048;
  2794 : FFBB;
  2795 : 0001;
  2796 : 0022;
  2797 : 0038;
  2798 : FFCF;
  2799 : 002E;
  2800 : 0008;
  2801 : FFF0;
  2802 : FFC7;
  2803 : 0038;
  2804 : FFCB;
  2805 : FFE3;
  2806 : FFE0;
  2807 : 0039;
  2808 : 001B;
  2809 : 002E;
  2810 : FFDA;
  2811 : 0013;
  2812 : 000B;
  2813 : 0033;
  2814 : 003E;
  2815 : FFB5;
  2816 : 001B;
  2817 : FFBB;
  2818 : 0008;
  2819 : FFDF;
  2820 : FFE2;
  2821 : FFE9;
  2822 : 0013;
  2823 : FFE7;
  2824 : 0024;
  2825 : FFF1;
  2826 : FFBE;
  2827 : 002C;
  2828 : FFDF;
  2829 : FFF6;
  2830 : 001C;
  2831 : FFE6;
  2832 : FFBC;
  2833 : FFED;
  2834 : 0044;
  2835 : 0016;
  2836 : 001A;
  2837 : 0014;
  2838 : FFD2;
  2839 : FFF3;
  2840 : 0027;
  2841 : FFC3;
  2842 : FFDE;
  2843 : FFDE;
  2844 : FFF6;
  2845 : 004A;
  2846 : FFBE;
  2847 : 0003;
  2848 : FFCF;
  2849 : 0048;
  2850 : FFC5;
  2851 : FFF1;
  2852 : 0025;
  2853 : 001F;
  2854 : FFF4;
  2855 : FFE8;
  2856 : FFF0;
  2857 : FFDC;
  2858 : FFD3;
  2859 : FFFD;
  2860 : FFDC;
  2861 : FFDF;
  2862 : 0018;
  2863 : 0048;
  2864 : 0010;
  2865 : FFBF;
  2866 : FFBF;
  2867 : 0045;
  2868 : FFE1;
  2869 : FFC1;
  2870 : 000F;
  2871 : 0013;
  2872 : 0017;
  2873 : FFDC;
  2874 : FFB6;
  2875 : 0047;
  2876 : FFDA;
  2877 : 001B;
  2878 : 0020;
  2879 : 0011;
  2880 : FFE3;
  2881 : FFDD;
  2882 : 000F;
  2883 : 0038;
  2884 : 0045;
  2885 : FFC3;
  2886 : FFCB;
  2887 : 0044;
  2888 : 0024;
  2889 : 003B;
  2890 : FFD2;
  2891 : 000D;
  2892 : 001F;
  2893 : 001C;
  2894 : FFF2;
  2895 : FFB6;
  2896 : 000D;
  2897 : FFDA;
  2898 : FFF8;
  2899 : 0046;
  2900 : FFF0;
  2901 : 0034;
  2902 : FFD0;
  2903 : 001A;
  2904 : 0049;
  2905 : FFC3;
  2906 : FFB4;
  2907 : FFF6;
  2908 : FFC1;
  2909 : 0026;
  2910 : 0040;
  2911 : FFF6;
  2912 : FFDB;
  2913 : FFF6;
  2914 : 0022;
  2915 : FFB5;
  2916 : 000E;
  2917 : 0011;
  2918 : 0015;
  2919 : FFD8;
  2920 : 0021;
  2921 : FFC1;
  2922 : FFD2;
  2923 : 003A;
  2924 : 0025;
  2925 : FFB5;
  2926 : FFD9;
  2927 : FFD4;
  2928 : FFDD;
  2929 : FFD9;
  2930 : FFBD;
  2931 : FFFA;
  2932 : 0024;
  2933 : 0010;
  2934 : 001B;
  2935 : FFC0;
  2936 : 0045;
  2937 : 0034;
  2938 : 002F;
  2939 : 0032;
  2940 : 0042;
  2941 : 0007;
  2942 : FFD2;
  2943 : 0012;
  2944 : 0025;
  2945 : 0025;
  2946 : 0003;
  2947 : FFBE;
  2948 : FFEC;
  2949 : 0041;
  2950 : 000D;
  2951 : 0006;
  2952 : FFDC;
  2953 : FFEC;
  2954 : 003D;
  2955 : 001A;
  2956 : 002C;
  2957 : FFF9;
  2958 : 0014;
  2959 : FFD9;
  2960 : 0020;
  2961 : FFF5;
  2962 : FFF7;
  2963 : 0017;
  2964 : 0043;
  2965 : FFBD;
  2966 : 0032;
  2967 : FFE0;
  2968 : FFF7;
  2969 : FFB7;
  2970 : FFE1;
  2971 : 0000;
  2972 : FFBC;
  2973 : FFFF;
  2974 : 0042;
  2975 : FFC3;
  2976 : 0029;
  2977 : FFF2;
  2978 : 0018;
  2979 : FFDB;
  2980 : FFCC;
  2981 : FFCC;
  2982 : FFBE;
  2983 : FFD0;
  2984 : 0019;
  2985 : 003B;
  2986 : 0030;
  2987 : 001C;
  2988 : FFC4;
  2989 : FFE0;
  2990 : FFE3;
  2991 : FFDA;
  2992 : 0002;
  2993 : 0005;
  2994 : FFEA;
  2995 : FFEA;
  2996 : 0032;
  2997 : 002C;
  2998 : FFE2;
  2999 : 0040;
  3000 : 0046;
  3001 : FFE5;
  3002 : FFEA;
  3003 : 0001;
  3004 : 0044;
  3005 : 003A;
  3006 : FFC3;
  3007 : FFF0;
  3008 : 0008;
  3009 : 0000;
  3010 : FFD1;
  3011 : 0037;
  3012 : 001B;
  3013 : 0034;
  3014 : 0037;
  3015 : 0026;
  3016 : FFF7;
  3017 : 0011;
  3018 : FFCC;
  3019 : 001B;
  3020 : FFCF;
  3021 : 001E;
  3022 : FFD6;
  3023 : FFC5;
  3024 : FFCD;
  3025 : FFB4;
  3026 : 0022;
  3027 : 0024;
  3028 : 0002;
  3029 : FFCC;
  3030 : FFC0;
  3031 : FFB6;
  3032 : FFCD;
  3033 : 003C;
  3034 : FFD8;
  3035 : FFEA;
  3036 : FFC3;
  3037 : FFD5;
  3038 : 0003;
  3039 : 0011;
  3040 : FFD9;
  3041 : FFBC;
  3042 : FFEF;
  3043 : FFD7;
  3044 : FFD5;
  3045 : 0047;
  3046 : 0012;
  3047 : 0009;
  3048 : FFF3;
  3049 : FFF5;
  3050 : 0006;
  3051 : 001E;
  3052 : 001F;
  3053 : FFCE;
  3054 : 0000;
  3055 : FFF2;
  3056 : 0039;
  3057 : 0014;
  3058 : 0005;
  3059 : FFC5;
  3060 : 0010;
  3061 : FFC5;
  3062 : FFE7;
  3063 : FFC9;
  3064 : 001E;
  3065 : FFD3;
  3066 : FFEF;
  3067 : 003D;
  3068 : FFD3;
  3069 : 0001;
  3070 : FFF4;
  3071 : FFB6;
  3072 : 002D;
  3073 : FFBE;
  3074 : FFFC;
  3075 : 0009;
  3076 : 0014;
  3077 : 001D;
  3078 : FFDA;
  3079 : FFB5;
  3080 : 0022;
  3081 : 0005;
  3082 : 0034;
  3083 : 0031;
  3084 : 0035;
  3085 : FFFE;
  3086 : FFE6;
  3087 : 002D;
  3088 : FFF9;
  3089 : FFCF;
  3090 : 0037;
  3091 : 003B;
  3092 : FFFB;
  3093 : FFBF;
  3094 : FFEF;
  3095 : 002F;
  3096 : 003E;
  3097 : FFD2;
  3098 : FFBD;
  3099 : 003A;
  3100 : FFEF;
  3101 : 0006;
  3102 : 0048;
  3103 : FFBD;
  3104 : 0017;
  3105 : FFBF;
  3106 : FFED;
  3107 : 002F;
  3108 : FFF6;
  3109 : 004C;
  3110 : 0009;
  3111 : FFE5;
  3112 : FFD5;
  3113 : FFE9;
  3114 : FFEC;
  3115 : FFBE;
  3116 : FFEC;
  3117 : FFFB;
  3118 : 0022;
  3119 : 0018;
  3120 : 0020;
  3121 : FFB4;
  3122 : FFD5;
  3123 : 0019;
  3124 : FFFE;
  3125 : FFB4;
  3126 : 002F;
  3127 : 002A;
  3128 : 0007;
  3129 : FFBD;
  3130 : 0029;
  3131 : 000D;
  3132 : 002B;
  3133 : 0027;
  3134 : 002F;
  3135 : 0003;
  3136 : FFC9;
  3137 : 001A;
  3138 : 0013;
  3139 : 0025;
  3140 : FFCD;
  3141 : FFD1;
  3142 : 003C;
  3143 : 0026;
  3144 : 003F;
  3145 : 0028;
  3146 : 000F;
  3147 : 0018;
  3148 : 003C;
  3149 : 000C;
  3150 : 0014;
  3151 : FFCB;
  3152 : FFFC;
  3153 : 0021;
  3154 : FFDD;
  3155 : FFD2;
  3156 : FFE3;
  3157 : FFD8;
  3158 : FFD4;
  3159 : FFF4;
  3160 : 003F;
  3161 : 0001;
  3162 : FFD0;
  3163 : FFBF;
  3164 : 001E;
  3165 : FFEE;
  3166 : 0031;
  3167 : 0019;
  3168 : 002E;
  3169 : FFDD;
  3170 : 001E;
  3171 : FFDC;
  3172 : 0043;
  3173 : 0015;
  3174 : FFE5;
  3175 : FFDD;
  3176 : FFD1;
  3177 : 001E;
  3178 : FFD5;
  3179 : 000F;
  3180 : FFDC;
  3181 : 0019;
  3182 : 0030;
  3183 : 002B;
  3184 : 0028;
  3185 : FFD0;
  3186 : FFC1;
  3187 : 001F;
  3188 : FFEC;
  3189 : FFF6;
  3190 : FFB8;
  3191 : FFDB;
  3192 : FFB8;
  3193 : 003A;
  3194 : FFD9;
  3195 : 0009;
  3196 : FFB9;
  3197 : 001A;
  3198 : FFE5;
  3199 : 003D;
  3200 : 003C;
  3201 : FFE5;
  3202 : 003E;
  3203 : 004C;
  3204 : 0032;
  3205 : 0035;
  3206 : FFD9;
  3207 : 000C;
  3208 : FFBE;
  3209 : FFC2;
  3210 : 004D;
  3211 : FFE5;
  3212 : 0026;
  3213 : 002F;
  3214 : 0037;
  3215 : 004C;
  3216 : FFD8;
  3217 : FFB9;
  3218 : FFF2;
  3219 : FFC7;
  3220 : FFB7;
  3221 : FFEB;
  3222 : 002C;
  3223 : 000A;
  3224 : FFE3;
  3225 : 0018;
  3226 : FFD7;
  3227 : FFB5;
  3228 : 0029;
  3229 : 0013;
  3230 : 0028;
  3231 : FFB9;
  3232 : 0034;
  3233 : 0012;
  3234 : 000A;
  3235 : 0013;
  3236 : 0038;
  3237 : 000D;
  3238 : 000C;
  3239 : 004B;
  3240 : 0027;
  3241 : FFF7;
  3242 : 0020;
  3243 : FFEF;
  3244 : FFD6;
  3245 : 000F;
  3246 : 0042;
  3247 : 0042;
  3248 : FFE8;
  3249 : 0004;
  3250 : FFD4;
  3251 : 004C;
  3252 : 004A;
  3253 : 0017;
  3254 : 002F;
  3255 : 0021;
  3256 : 000E;
  3257 : FFBB;
  3258 : FFF9;
  3259 : 001B;
  3260 : 001B;
  3261 : FFED;
  3262 : 0044;
  3263 : FFCD;
  3264 : 0000;
  3265 : 001D;
  3266 : 001E;
  3267 : 0017;
  3268 : FFDD;
  3269 : FFCB;
  3270 : 0015;
  3271 : 000F;
  3272 : FFCF;
  3273 : 0020;
  3274 : FFF9;
  3275 : 001A;
  3276 : 0034;
  3277 : FFCD;
  3278 : FFB6;
  3279 : 002B;
  3280 : 0011;
  3281 : 001F;
  3282 : 0034;
  3283 : 002F;
  3284 : 0047;
  3285 : 0006;
  3286 : FFFE;
  3287 : FFF1;
  3288 : FFCB;
  3289 : 000B;
  3290 : FFDE;
  3291 : 0041;
  3292 : 000D;
  3293 : 000E;
  3294 : FFEA;
  3295 : FFBB;
  3296 : FFB8;
  3297 : FFF4;
  3298 : FFC0;
  3299 : 0010;
  3300 : 003B;
  3301 : 003B;
  3302 : 0018;
  3303 : FFD4;
  3304 : 0038;
  3305 : 003B;
  3306 : FFD1;
  3307 : 0024;
  3308 : FFDF;
  3309 : 002E;
  3310 : 004C;
  3311 : FFB8;
  3312 : 003D;
  3313 : 0013;
  3314 : 0049;
  3315 : FFFB;
  3316 : 0035;
  3317 : FFBD;
  3318 : FFE7;
  3319 : FFBD;
  3320 : 0049;
  3321 : 0031;
  3322 : 0036;
  3323 : 0043;
  3324 : FFC0;
  3325 : FFEE;
  3326 : FFBE;
  3327 : FFD4;
  3328 : FFD6;
  3329 : FFFB;
  3330 : FFDC;
  3331 : FFC3;
  3332 : FFCD;
  3333 : FFCA;
  3334 : 0049;
  3335 : 0028;
  3336 : 0048;
  3337 : FFF7;
  3338 : FFDE;
  3339 : 002E;
  3340 : FFE5;
  3341 : FFE1;
  3342 : FFD7;
  3343 : FFC7;
  3344 : FFDB;
  3345 : FFEA;
  3346 : 001B;
  3347 : FFBD;
  3348 : FFD4;
  3349 : 002F;
  3350 : FFCA;
  3351 : FFE8;
  3352 : 0038;
  3353 : FFCB;
  3354 : FFC0;
  3355 : FFFE;
  3356 : FFE2;
  3357 : 000A;
  3358 : 002F;
  3359 : FFC8;
  3360 : 000C;
  3361 : 0001;
  3362 : FFC9;
  3363 : 0013;
  3364 : FFDD;
  3365 : FFFE;
  3366 : FFC0;
  3367 : FFFA;
  3368 : FFE2;
  3369 : 0032;
  3370 : FFBC;
  3371 : FFF3;
  3372 : FFFA;
  3373 : 0023;
  3374 : 000B;
  3375 : 001A;
  3376 : 002B;
  3377 : 0038;
  3378 : FFE3;
  3379 : 0006;
  3380 : 0034;
  3381 : 004B;
  3382 : 003C;
  3383 : FFEC;
  3384 : FFD1;
  3385 : FFFE;
  3386 : 0025;
  3387 : FFFF;
  3388 : FFFD;
  3389 : 0034;
  3390 : FFEB;
  3391 : 0037;
  3392 : FFF2;
  3393 : FFE6;
  3394 : FFF9;
  3395 : 0028;
  3396 : FFC7;
  3397 : FFD1;
  3398 : 0045;
  3399 : FFCE;
  3400 : 000A;
  3401 : 000C;
  3402 : FFFE;
  3403 : 0016;
  3404 : FFD7;
  3405 : 0008;
  3406 : FFEC;
  3407 : 0019;
  3408 : FFC9;
  3409 : 000B;
  3410 : FFD0;
  3411 : FFDE;
  3412 : FFD5;
  3413 : FFCF;
  3414 : 0032;
  3415 : FFDF;
  3416 : 0042;
  3417 : 0048;
  3418 : 000B;
  3419 : FFC9;
  3420 : FFED;
  3421 : 002E;
  3422 : FFEC;
  3423 : FFC1;
  3424 : 0009;
  3425 : 0035;
  3426 : 002D;
  3427 : FFCE;
  3428 : 001B;
  3429 : FFD5;
  3430 : FFD5;
  3431 : 0039;
  3432 : FFDA;
  3433 : FFDC;
  3434 : FFB3;
  3435 : 0039;
  3436 : 002D;
  3437 : 0014;
  3438 : 0026;
  3439 : FFCB;
  3440 : FFFA;
  3441 : FFE9;
  3442 : FFC2;
  3443 : FFFE;
  3444 : 0041;
  3445 : FFB9;
  3446 : FFE0;
  3447 : FFD3;
  3448 : FFD8;
  3449 : 003F;
  3450 : FFFB;
  3451 : FFFB;
  3452 : 0028;
  3453 : FFCB;
  3454 : FFFE;
  3455 : FFF5;
  3456 : 000F;
  3457 : 004D;
  3458 : 0029;
  3459 : FFF0;
  3460 : 0032;
  3461 : FFCD;
  3462 : FFB8;
  3463 : FFD3;
  3464 : FFE7;
  3465 : 0002;
  3466 : 0012;
  3467 : 003F;
  3468 : 0002;
  3469 : 0000;
  3470 : FFBB;
  3471 : FFB9;
  3472 : 0008;
  3473 : FFF7;
  3474 : 0034;
  3475 : FFCC;
  3476 : FFB7;
  3477 : FFF8;
  3478 : FFD8;
  3479 : FFBB;
  3480 : 0022;
  3481 : FFC4;
  3482 : 0011;
  3483 : FFDE;
  3484 : FFCE;
  3485 : FFEE;
  3486 : 002E;
  3487 : FFEF;
  3488 : 0027;
  3489 : FFC6;
  3490 : 002A;
  3491 : FFD8;
  3492 : 001B;
  3493 : 000A;
  3494 : 0042;
  3495 : FFEF;
  3496 : FFBD;
  3497 : FFB6;
  3498 : 0032;
  3499 : 0004;
  3500 : 002A;
  3501 : FFD7;
  3502 : FFE8;
  3503 : FFB8;
  3504 : 0047;
  3505 : 001A;
  3506 : 0043;
  3507 : FFDC;
  3508 : 0011;
  3509 : 001B;
  3510 : FFE4;
  3511 : 0035;
  3512 : 0045;
  3513 : 003B;
  3514 : 0025;
  3515 : FFDE;
  3516 : FFDE;
  3517 : 0047;
  3518 : FFB5;
  3519 : 0021;
  3520 : 0020;
  3521 : 0013;
  3522 : 004B;
  3523 : FFE3;
  3524 : FFE7;
  3525 : FFBF;
  3526 : FFF7;
  3527 : FFDB;
  3528 : FFE8;
  3529 : 0033;
  3530 : 0043;
  3531 : FFD0;
  3532 : FFEC;
  3533 : 0042;
  3534 : FFBD;
  3535 : FFC1;
  3536 : FFCC;
  3537 : 000F;
  3538 : FFCA;
  3539 : 0048;
  3540 : FFF8;
  3541 : 0000;
  3542 : FFD9;
  3543 : FFFC;
  3544 : 0019;
  3545 : 0027;
  3546 : 0027;
  3547 : 000C;
  3548 : 003E;
  3549 : 0031;
  3550 : 0027;
  3551 : FFBC;
  3552 : FFB4;
  3553 : FFD4;
  3554 : 0019;
  3555 : FFF2;
  3556 : FFF1;
  3557 : 003B;
  3558 : 003D;
  3559 : 003F;
  3560 : FFE3;
  3561 : 001D;
  3562 : FFDD;
  3563 : FFD0;
  3564 : FFD0;
  3565 : FFE8;
  3566 : FFF5;
  3567 : 0033;
  3568 : FFC6;
  3569 : 0024;
  3570 : 0005;
  3571 : FFDF;
  3572 : FFFF;
  3573 : FFE1;
  3574 : 000F;
  3575 : FFF6;
  3576 : FFCC;
  3577 : FFC5;
  3578 : 0007;
  3579 : 003E;
  3580 : FFE8;
  3581 : 0024;
  3582 : 0018;
  3583 : 0042;
  3584 : 0031;
  3585 : 000A;
  3586 : 0018;
  3587 : 003D;
  3588 : FFF1;
  3589 : FFE5;
  3590 : FFB5;
  3591 : 0032;
  3592 : 002E;
  3593 : FFC3;
  3594 : 000C;
  3595 : FFFA;
  3596 : FFC5;
  3597 : 004A;
  3598 : FFD4;
  3599 : FFBE;
  3600 : 000F;
  3601 : 0025;
  3602 : FFB8;
  3603 : 0018;
  3604 : 0005;
  3605 : FFC3;
  3606 : FFCE;
  3607 : 000A;
  3608 : FFE1;
  3609 : 0043;
  3610 : 0031;
  3611 : 004A;
  3612 : FFDB;
  3613 : 0048;
  3614 : FFF5;
  3615 : FFE9;
  3616 : FFBB;
  3617 : FFBB;
  3618 : 001D;
  3619 : FFFA;
  3620 : FFD6;
  3621 : 0012;
  3622 : FFDA;
  3623 : 000C;
  3624 : FFEA;
  3625 : 0032;
  3626 : 0031;
  3627 : FFFD;
  3628 : FFE9;
  3629 : FFEB;
  3630 : 002F;
  3631 : FFE6;
  3632 : FFD3;
  3633 : FFC0;
  3634 : FFFB;
  3635 : FFFD;
  3636 : 0034;
  3637 : FFD5;
  3638 : FFEE;
  3639 : 002F;
  3640 : 0032;
  3641 : FFEE;
  3642 : FFFA;
  3643 : FFE2;
  3644 : 0042;
  3645 : FFC5;
  3646 : 0043;
  3647 : 001C;
  3648 : 0005;
  3649 : FFB8;
  3650 : FFFC;
  3651 : FFF2;
  3652 : FFCC;
  3653 : 0018;
  3654 : 0048;
  3655 : 000A;
  3656 : 0021;
  3657 : FFBE;
  3658 : FFF3;
  3659 : FFC5;
  3660 : 0011;
  3661 : 0043;
  3662 : 0019;
  3663 : FFBF;
  3664 : FFEA;
  3665 : 0008;
  3666 : FFF1;
  3667 : 0033;
  3668 : 0030;
  3669 : 0011;
  3670 : FFED;
  3671 : FFDA;
  3672 : FFC3;
  3673 : FFEA;
  3674 : FFF3;
  3675 : 001B;
  3676 : 0018;
  3677 : FFBE;
  3678 : FFF0;
  3679 : FFCF;
  3680 : FFCB;
  3681 : 0032;
  3682 : FFBA;
  3683 : FFF4;
  3684 : FFCD;
  3685 : 003A;
  3686 : 0009;
  3687 : FFD7;
  3688 : 0000;
  3689 : 0024;
  3690 : 0046;
  3691 : FFD5;
  3692 : 003B;
  3693 : 0043;
  3694 : 0040;
  3695 : 0015;
  3696 : 0014;
  3697 : FFF1;
  3698 : 0027;
  3699 : 0005;
  3700 : 001B;
  3701 : FFF5;
  3702 : 0024;
  3703 : 0032;
  3704 : FFCA;
  3705 : 0033;
  3706 : 0006;
  3707 : 0035;
  3708 : FFF5;
  3709 : FFED;
  3710 : 0040;
  3711 : FFDA;
  3712 : 0035;
  3713 : FFFE;
  3714 : 0002;
  3715 : FFE3;
  3716 : 000B;
  3717 : FFE5;
  3718 : FFB9;
  3719 : FFDD;
  3720 : FFB4;
  3721 : 0049;
  3722 : 0048;
  3723 : FFF0;
  3724 : 0023;
  3725 : FFE8;
  3726 : 001A;
  3727 : 002F;
  3728 : 0045;
  3729 : FFF1;
  3730 : 002C;
  3731 : FFDC;
  3732 : 004B;
  3733 : FFB7;
  3734 : 0010;
  3735 : 0019;
  3736 : 001D;
  3737 : FFC6;
  3738 : 0043;
  3739 : FFCF;
  3740 : 0013;
  3741 : FFD5;
  3742 : FFE2;
  3743 : 0007;
  3744 : FFF3;
  3745 : FFCC;
  3746 : FFCD;
  3747 : FFF3;
  3748 : 0028;
  3749 : 003D;
  3750 : FFC0;
  3751 : FFF0;
  3752 : FFC3;
  3753 : FFB6;
  3754 : 0019;
  3755 : 0010;
  3756 : FFCC;
  3757 : FFD7;
  3758 : FFB7;
  3759 : 0033;
  3760 : 0049;
  3761 : FFC8;
  3762 : FFD7;
  3763 : 0039;
  3764 : 0042;
  3765 : FFF4;
  3766 : FFBB;
  3767 : FFB9;
  3768 : 000B;
  3769 : FFF0;
  3770 : FFB8;
  3771 : 000D;
  3772 : FFB5;
  3773 : 002C;
  3774 : FFE2;
  3775 : FFB9;
  3776 : 000E;
  3777 : FFF0;
  3778 : 0049;
  3779 : 0007;
  3780 : FFDD;
  3781 : 0020;
  3782 : FFDD;
  3783 : 003E;
  3784 : FFED;
  3785 : 0008;
  3786 : FFBB;
  3787 : FFF5;
  3788 : 0033;
  3789 : 002F;
  3790 : FFD6;
  3791 : FFD6;
  3792 : 0031;
  3793 : 0042;
  3794 : FFC2;
  3795 : FFF8;
  3796 : FFE7;
  3797 : 0039;
  3798 : FFC0;
  3799 : FFD4;
  3800 : 0027;
  3801 : FFBB;
  3802 : FFFF;
  3803 : FFF7;
  3804 : FFE7;
  3805 : FFF0;
  3806 : 0005;
  3807 : FFCC;
  3808 : 000B;
  3809 : 002F;
  3810 : 0028;
  3811 : FFCB;
  3812 : FFCA;
  3813 : FFDC;
  3814 : FFEB;
  3815 : FFF2;
  3816 : 001C;
  3817 : FFBC;
  3818 : FFB9;
  3819 : FFEF;
  3820 : 001E;
  3821 : FFD1;
  3822 : 0016;
  3823 : FFDB;
  3824 : 003B;
  3825 : 003D;
  3826 : FFE1;
  3827 : FFD7;
  3828 : FFF2;
  3829 : FFD8;
  3830 : 001A;
  3831 : 0032;
  3832 : 001B;
  3833 : 0032;
  3834 : FFF0;
  3835 : FFCB;
  3836 : 0025;
  3837 : FFEB;
  3838 : 001A;
  3839 : FFDD;
  3840 : FFC0;
  3841 : 004C;
  3842 : FFCB;
  3843 : 004B;
  3844 : 0049;
  3845 : 002D;
  3846 : 0018;
  3847 : 000C;
  3848 : 0038;
  3849 : FFE0;
  3850 : FFFB;
  3851 : 0012;
  3852 : FFF2;
  3853 : FFF5;
  3854 : FFE6;
  3855 : 000A;
  3856 : 0036;
  3857 : FFD2;
  3858 : 0043;
  3859 : 001D;
  3860 : 0032;
  3861 : 0009;
  3862 : 002B;
  3863 : FFB6;
  3864 : 0031;
  3865 : FFB9;
  3866 : 003C;
  3867 : 004C;
  3868 : FFE0;
  3869 : FFD4;
  3870 : 0029;
  3871 : FFDA;
  3872 : 0038;
  3873 : FFC3;
  3874 : FFC7;
  3875 : 004A;
  3876 : 001B;
  3877 : 0035;
  3878 : FFE5;
  3879 : 001B;
  3880 : 000E;
  3881 : 0010;
  3882 : 001C;
  3883 : 000C;
  3884 : FFF5;
  3885 : FFDE;
  3886 : 0029;
  3887 : FFD6;
  3888 : 001E;
  3889 : FFD7;
  3890 : 0013;
  3891 : 0026;
  3892 : FFD5;
  3893 : FFBC;
  3894 : FFC7;
  3895 : 0010;
  3896 : 0036;
  3897 : FFBA;
  3898 : 0024;
  3899 : FFE8;
  3900 : FFFD;
  3901 : 0042;
  3902 : FFE6;
  3903 : FFFB;
  3904 : FFB5;
  3905 : FFC0;
  3906 : FFDB;
  3907 : FFB7;
  3908 : 0014;
  3909 : FFF5;
  3910 : 0007;
  3911 : FFCE;
  3912 : FFE1;
  3913 : 0019;
  3914 : 0047;
  3915 : FFBB;
  3916 : 003C;
  3917 : 000C;
  3918 : 000A;
  3919 : 0000;
  3920 : FFBE;
  3921 : FFC1;
  3922 : 0010;
  3923 : FFE8;
  3924 : 0040;
  3925 : FFF2;
  3926 : FFC9;
  3927 : 0021;
  3928 : FFE0;
  3929 : 0004;
  3930 : 001E;
  3931 : 003D;
  3932 : 002D;
  3933 : 001B;
  3934 : 001C;
  3935 : 0044;
  3936 : FFE1;
  3937 : FFB3;
  3938 : FFDD;
  3939 : FFD5;
  3940 : 0019;
  3941 : 0015;
  3942 : 000E;
  3943 : FFB6;
  3944 : 0023;
  3945 : FFE5;
  3946 : 0019;
  3947 : 0009;
  3948 : FFE8;
  3949 : FFC8;
  3950 : FFC2;
  3951 : 0033;
  3952 : 0040;
  3953 : 0017;
  3954 : FFC3;
  3955 : FFF1;
  3956 : 0023;
  3957 : 002B;
  3958 : FFC5;
  3959 : FFB3;
  3960 : 0021;
  3961 : FFEA;
  3962 : FFDA;
  3963 : FFB5;
  3964 : 0006;
  3965 : 0036;
  3966 : 0046;
  3967 : 000A;
  3968 : 0002;
  3969 : FFC0;
  3970 : 0008;
  3971 : FFEE;
  3972 : 0010;
  3973 : FFEF;
  3974 : FFD8;
  3975 : FFC2;
  3976 : FFE4;
  3977 : FFC2;
  3978 : FFCE;
  3979 : 004B;
  3980 : FFF7;
  3981 : 0005;
  3982 : 0039;
  3983 : 004C;
  3984 : 000D;
  3985 : 0030;
  3986 : FFE5;
  3987 : FFE2;
  3988 : FFF1;
  3989 : 001A;
  3990 : 001C;
  3991 : FFE4;
  3992 : FFC8;
  3993 : 0014;
  3994 : FFC7;
  3995 : 000C;
  3996 : 001E;
  3997 : 001F;
  3998 : 0027;
  3999 : 0039;
  4000 : 0000;
  4001 : 0023;
  4002 : 0012;
  4003 : FFD0;
  4004 : FFB7;
  4005 : FFDF;
  4006 : FFF7;
  4007 : 0012;
  4008 : 0036;
  4009 : FFD1;
  4010 : FFC6;
  4011 : 0047;
  4012 : FFC4;
  4013 : FFFD;
  4014 : 000D;
  4015 : 0006;
  4016 : FFC0;
  4017 : FFBC;
  4018 : FFC3;
  4019 : 000D;
  4020 : 0007;
  4021 : FFD7;
  4022 : 0015;
  4023 : 0031;
  4024 : FFBA;
  4025 : 0000;
  4026 : 001D;
  4027 : FFDA;
  4028 : FFE2;
  4029 : 0011;
  4030 : 003D;
  4031 : 0030;
  4032 : 000D;
  4033 : 0023;
  4034 : FFEB;
  4035 : 0016;
  4036 : FFFB;
  4037 : FFD0;
  4038 : 001F;
  4039 : 0009;
  4040 : FFEA;
  4041 : 003F;
  4042 : FFB6;
  4043 : FFE4;
  4044 : FFBC;
  4045 : 0029;
  4046 : 001F;
  4047 : FFE6;
  4048 : 001B;
  4049 : FFF0;
  4050 : 0027;
  4051 : FFF9;
  4052 : FFF3;
  4053 : 0043;
  4054 : FFDA;
  4055 : FFC6;
  4056 : 000D;
  4057 : 0048;
  4058 : FFED;
  4059 : FFBD;
  4060 : FFE7;
  4061 : 0001;
  4062 : FFCC;
  4063 : 0018;
  4064 : 004C;
  4065 : FFF9;
  4066 : FFEA;
  4067 : FFF1;
  4068 : FFC5;
  4069 : 003B;
  4070 : FFF3;
  4071 : FFEF;
  4072 : 0019;
  4073 : FFF7;
  4074 : 0017;
  4075 : FFBD;
  4076 : 0030;
  4077 : 0044;
  4078 : 0017;
  4079 : 0046;
  4080 : FFCA;
  4081 : FFFD;
  4082 : 0010;
  4083 : 000D;
  4084 : FFF1;
  4085 : FFE7;
  4086 : FFC7;
  4087 : FFEF;
  4088 : FFCC;
  4089 : 0024;
  4090 : FFD3;
  4091 : FFBC;
  4092 : 0008;
  4093 : 000F;
  4094 : 0039;
  4095 : 000C;
END;
