DEPTH = 4096;
WIDTH = 16;
ADDRESS_RADIX = DEC;
DATA_RADIX = HEX;
CONTENT BEGIN
  0 : FFDB;
  1 : FFFF;
  2 : 0049;
  3 : FFE6;
  4 : 000F;
  5 : FFC1;
  6 : 0010;
  7 : FFC1;
  8 : 0047;
  9 : 0021;
  10 : 002C;
  11 : 001F;
  12 : 000E;
  13 : FFF8;
  14 : 0037;
  15 : 0046;
  16 : 0000;
  17 : 0042;
  18 : 000D;
  19 : 0006;
  20 : FFF9;
  21 : FFD3;
  22 : FFB4;
  23 : FFD8;
  24 : 0001;
  25 : FFEE;
  26 : FFF8;
  27 : 004A;
  28 : FFE9;
  29 : FFF9;
  30 : FFC8;
  31 : FFBB;
  32 : 002A;
  33 : 000B;
  34 : 0028;
  35 : FFCA;
  36 : 000B;
  37 : FFDA;
  38 : FFD6;
  39 : FFB5;
  40 : FFC7;
  41 : FFE3;
  42 : FFC5;
  43 : 004B;
  44 : FFE3;
  45 : FFC7;
  46 : FFD2;
  47 : 000D;
  48 : FFBD;
  49 : 0038;
  50 : 0047;
  51 : FFD9;
  52 : FFF8;
  53 : FFB7;
  54 : 0016;
  55 : FFF3;
  56 : FFDD;
  57 : FFD3;
  58 : 0018;
  59 : FFF3;
  60 : FFCF;
  61 : 001D;
  62 : 000A;
  63 : 0037;
  64 : FFC5;
  65 : 002C;
  66 : 001B;
  67 : FFC5;
  68 : 001E;
  69 : FFF7;
  70 : 0044;
  71 : FFC9;
  72 : 0016;
  73 : FFEE;
  74 : 0046;
  75 : FFE6;
  76 : 0047;
  77 : 003E;
  78 : FFDD;
  79 : 002F;
  80 : 004C;
  81 : FFDA;
  82 : FFF6;
  83 : 0003;
  84 : FFE1;
  85 : FFB6;
  86 : FFD5;
  87 : FFDF;
  88 : FFF7;
  89 : FFCD;
  90 : 0039;
  91 : 001F;
  92 : FFC0;
  93 : 0017;
  94 : 0018;
  95 : 0046;
  96 : FFB4;
  97 : FFD9;
  98 : 0042;
  99 : 0042;
  100 : 0022;
  101 : 0029;
  102 : FFC1;
  103 : 0002;
  104 : FFD7;
  105 : FFCF;
  106 : 0030;
  107 : FFC8;
  108 : FFFB;
  109 : 0043;
  110 : FFD0;
  111 : 0049;
  112 : 004C;
  113 : 0009;
  114 : FFCD;
  115 : FFE4;
  116 : FFF4;
  117 : FFE3;
  118 : FFDE;
  119 : 0049;
  120 : FFCB;
  121 : 0024;
  122 : FFB3;
  123 : 000F;
  124 : 0040;
  125 : FFDF;
  126 : FFD0;
  127 : 0017;
  128 : 0021;
  129 : 001D;
  130 : FFE4;
  131 : FFDA;
  132 : 0046;
  133 : 0041;
  134 : FFF9;
  135 : 0035;
  136 : FFF9;
  137 : FFF4;
  138 : FFCB;
  139 : FFF5;
  140 : 0006;
  141 : FFB7;
  142 : FFF7;
  143 : 002B;
  144 : 001C;
  145 : 0015;
  146 : 003F;
  147 : FFB6;
  148 : 0009;
  149 : 002C;
  150 : 0006;
  151 : FFE5;
  152 : FFC8;
  153 : 003C;
  154 : FFFC;
  155 : 003A;
  156 : 000D;
  157 : 001B;
  158 : 002F;
  159 : 0018;
  160 : FFF0;
  161 : 0002;
  162 : 002F;
  163 : FFED;
  164 : FFEF;
  165 : FFC2;
  166 : 0040;
  167 : FFC1;
  168 : 0017;
  169 : FFF3;
  170 : FFF2;
  171 : 001C;
  172 : FFBE;
  173 : 000E;
  174 : 002A;
  175 : 0032;
  176 : FFCD;
  177 : 003D;
  178 : 0018;
  179 : 003B;
  180 : FFFE;
  181 : 0006;
  182 : 0040;
  183 : 003D;
  184 : FFF8;
  185 : FFDD;
  186 : FFF0;
  187 : FFEF;
  188 : FFDF;
  189 : FFDC;
  190 : 0037;
  191 : FFBE;
  192 : 001B;
  193 : FFCE;
  194 : FFE8;
  195 : FFBD;
  196 : FFDD;
  197 : 0029;
  198 : 003B;
  199 : FFD5;
  200 : FFFA;
  201 : FFFB;
  202 : 0039;
  203 : 0028;
  204 : 0002;
  205 : 001A;
  206 : 0035;
  207 : FFB5;
  208 : FFF1;
  209 : 003F;
  210 : 0025;
  211 : 0007;
  212 : 0005;
  213 : FFE9;
  214 : 0003;
  215 : 0018;
  216 : FFF3;
  217 : 0021;
  218 : 0037;
  219 : FFCB;
  220 : FFF9;
  221 : FFF2;
  222 : 001D;
  223 : FFDA;
  224 : 0016;
  225 : 003A;
  226 : FFF3;
  227 : 003F;
  228 : 004C;
  229 : FFC3;
  230 : FFD7;
  231 : 0045;
  232 : 0046;
  233 : FFC2;
  234 : FFB6;
  235 : FFCC;
  236 : 004C;
  237 : FFCF;
  238 : 0000;
  239 : 0036;
  240 : FFB6;
  241 : 0010;
  242 : FFDE;
  243 : 0038;
  244 : FFDF;
  245 : 001D;
  246 : 001B;
  247 : FFD5;
  248 : FFB9;
  249 : FFF2;
  250 : FFE0;
  251 : 002F;
  252 : 002E;
  253 : FFF9;
  254 : 0010;
  255 : 0010;
  256 : 0032;
  257 : FFF4;
  258 : FFDE;
  259 : FFDC;
  260 : 0006;
  261 : FFF8;
  262 : FFF7;
  263 : FFC1;
  264 : 0022;
  265 : FFD4;
  266 : FFD1;
  267 : FFF3;
  268 : FFD6;
  269 : 000D;
  270 : FFEC;
  271 : FFF8;
  272 : 0006;
  273 : FFD2;
  274 : FFCB;
  275 : 003A;
  276 : FFF6;
  277 : FFF2;
  278 : FFB9;
  279 : 0000;
  280 : 0008;
  281 : 0009;
  282 : 0020;
  283 : FFCE;
  284 : FFDA;
  285 : 0030;
  286 : 0045;
  287 : FFC8;
  288 : 0000;
  289 : FFD4;
  290 : FFBC;
  291 : FFE5;
  292 : FFC9;
  293 : 0020;
  294 : 0005;
  295 : FFC9;
  296 : FFB5;
  297 : 002F;
  298 : FFCE;
  299 : 0010;
  300 : FFE7;
  301 : 000D;
  302 : FFE4;
  303 : FFC1;
  304 : FFD5;
  305 : FFD0;
  306 : FFF5;
  307 : 0018;
  308 : FFDC;
  309 : FFB5;
  310 : 0003;
  311 : 0010;
  312 : 0047;
  313 : 000E;
  314 : FFFC;
  315 : 000B;
  316 : 0042;
  317 : 0032;
  318 : FFE5;
  319 : FFD8;
  320 : FFDC;
  321 : 0001;
  322 : 0025;
  323 : 0000;
  324 : FFBE;
  325 : 0022;
  326 : 002F;
  327 : FFE0;
  328 : 0019;
  329 : FFF5;
  330 : 003C;
  331 : 0035;
  332 : 0004;
  333 : 001D;
  334 : 003B;
  335 : FFFF;
  336 : FFE3;
  337 : 0027;
  338 : FFD5;
  339 : FFEF;
  340 : 0038;
  341 : 0022;
  342 : FFF1;
  343 : FFD4;
  344 : FFEA;
  345 : FFDF;
  346 : FFCE;
  347 : 0025;
  348 : FFDA;
  349 : FFF9;
  350 : FFEE;
  351 : 004A;
  352 : FFEF;
  353 : FFBF;
  354 : FFC1;
  355 : 000E;
  356 : 000F;
  357 : FFF4;
  358 : FFF6;
  359 : FFBB;
  360 : 0003;
  361 : 0001;
  362 : FFCA;
  363 : FFC3;
  364 : FFC6;
  365 : FFC3;
  366 : 0011;
  367 : FFD1;
  368 : FFDA;
  369 : FFCE;
  370 : 0046;
  371 : 0036;
  372 : FFD7;
  373 : FFE6;
  374 : FFD3;
  375 : FFFF;
  376 : FFB6;
  377 : 001A;
  378 : 0004;
  379 : 003D;
  380 : FFCC;
  381 : 002F;
  382 : 002D;
  383 : FFC7;
  384 : FFF0;
  385 : FFCD;
  386 : FFDA;
  387 : FFDC;
  388 : 0009;
  389 : FFF2;
  390 : 0045;
  391 : FFC7;
  392 : 0049;
  393 : FFD7;
  394 : 002A;
  395 : FFE7;
  396 : FFC9;
  397 : 0037;
  398 : FFE3;
  399 : 0018;
  400 : 000A;
  401 : FFFC;
  402 : FFFF;
  403 : 0024;
  404 : FFC1;
  405 : 001A;
  406 : 003D;
  407 : FFBC;
  408 : FFC9;
  409 : 0021;
  410 : FFF6;
  411 : FFF1;
  412 : FFC8;
  413 : 0001;
  414 : FFC7;
  415 : FFFC;
  416 : 0028;
  417 : FFDB;
  418 : FFFD;
  419 : 004C;
  420 : 001D;
  421 : 0034;
  422 : FFF3;
  423 : 0029;
  424 : FFB9;
  425 : FFC6;
  426 : FFD2;
  427 : FFF1;
  428 : 0035;
  429 : FFE8;
  430 : 0018;
  431 : 0020;
  432 : 000D;
  433 : FFEA;
  434 : 000C;
  435 : FFE8;
  436 : FFC0;
  437 : 004C;
  438 : FFC7;
  439 : FFBE;
  440 : 003A;
  441 : FFE2;
  442 : 0017;
  443 : FFE6;
  444 : FFEF;
  445 : FFDB;
  446 : FFE8;
  447 : FFF2;
  448 : 0022;
  449 : 0002;
  450 : 0044;
  451 : FFBA;
  452 : 0000;
  453 : 000D;
  454 : 0041;
  455 : FFBB;
  456 : 000B;
  457 : 0036;
  458 : FFD8;
  459 : 003A;
  460 : FFB6;
  461 : 0024;
  462 : 0043;
  463 : 0018;
  464 : FFF7;
  465 : FFBA;
  466 : 0041;
  467 : FFFB;
  468 : FFB8;
  469 : 001D;
  470 : FFFD;
  471 : FFC6;
  472 : FFD4;
  473 : FFBD;
  474 : 000B;
  475 : 0013;
  476 : 0001;
  477 : 0031;
  478 : 0037;
  479 : 0012;
  480 : FFB5;
  481 : 001E;
  482 : FFF3;
  483 : 000A;
  484 : 0017;
  485 : FFE9;
  486 : 0040;
  487 : FFC8;
  488 : 001A;
  489 : FFB4;
  490 : 0041;
  491 : FFC4;
  492 : FFC2;
  493 : FFE6;
  494 : FFED;
  495 : FFD4;
  496 : 000D;
  497 : FFF7;
  498 : FFB8;
  499 : FFE4;
  500 : 0030;
  501 : 001D;
  502 : 0023;
  503 : 001E;
  504 : FFE3;
  505 : FFC3;
  506 : FFDD;
  507 : 0033;
  508 : 004A;
  509 : FFFF;
  510 : FFB5;
  511 : FFC9;
  512 : FFE5;
  513 : 000C;
  514 : FFBF;
  515 : 0044;
  516 : FFEB;
  517 : 003F;
  518 : 002B;
  519 : 0027;
  520 : 0010;
  521 : 0013;
  522 : 0015;
  523 : 0014;
  524 : 0008;
  525 : 004B;
  526 : 0024;
  527 : 002B;
  528 : 0039;
  529 : FFD4;
  530 : FFC0;
  531 : FFFD;
  532 : 0002;
  533 : 0033;
  534 : FFF7;
  535 : 000B;
  536 : 0004;
  537 : FFB9;
  538 : 0012;
  539 : 0032;
  540 : FFCB;
  541 : 000E;
  542 : 000E;
  543 : FFCC;
  544 : FFC6;
  545 : 004A;
  546 : FFF0;
  547 : FFD6;
  548 : FFCE;
  549 : 001A;
  550 : 0011;
  551 : 0016;
  552 : FFC1;
  553 : 003C;
  554 : FFEF;
  555 : FFE3;
  556 : FFFA;
  557 : FFEF;
  558 : 0038;
  559 : 0042;
  560 : FFE2;
  561 : 0038;
  562 : 002B;
  563 : 0042;
  564 : FFD9;
  565 : 000C;
  566 : FFDD;
  567 : 0032;
  568 : FFB4;
  569 : 000A;
  570 : FFE7;
  571 : FFE5;
  572 : 0016;
  573 : 0036;
  574 : 0011;
  575 : 0036;
  576 : FFDC;
  577 : 0003;
  578 : FFF8;
  579 : FFB5;
  580 : 0009;
  581 : 0019;
  582 : 000E;
  583 : 0024;
  584 : 000B;
  585 : FFBD;
  586 : FFC5;
  587 : 000F;
  588 : FFDD;
  589 : FFBF;
  590 : FFF5;
  591 : 0008;
  592 : FFE6;
  593 : 0022;
  594 : 0016;
  595 : FFE6;
  596 : 0027;
  597 : 0017;
  598 : 0015;
  599 : 0008;
  600 : FFB5;
  601 : 001E;
  602 : FFED;
  603 : 0044;
  604 : 0031;
  605 : 000D;
  606 : FFDA;
  607 : FFD2;
  608 : FFE7;
  609 : FFFC;
  610 : FFE1;
  611 : 0002;
  612 : FFCD;
  613 : 0049;
  614 : FFC4;
  615 : 0042;
  616 : 0040;
  617 : 0004;
  618 : 0023;
  619 : FFF6;
  620 : 0014;
  621 : FFE8;
  622 : FFE1;
  623 : 000C;
  624 : 0000;
  625 : 000C;
  626 : FFDF;
  627 : FFEC;
  628 : FFC0;
  629 : FFBB;
  630 : FFDA;
  631 : FFBF;
  632 : FFC3;
  633 : 0030;
  634 : FFB9;
  635 : 0018;
  636 : FFDD;
  637 : 0039;
  638 : FFFE;
  639 : FFE2;
  640 : 0003;
  641 : FFEE;
  642 : 000A;
  643 : FFC5;
  644 : 004C;
  645 : FFF5;
  646 : FFE9;
  647 : 0020;
  648 : FFEB;
  649 : 0033;
  650 : FFF9;
  651 : 0022;
  652 : FFC4;
  653 : 0035;
  654 : 0024;
  655 : FFD4;
  656 : FFCA;
  657 : FFE4;
  658 : 0049;
  659 : FFDB;
  660 : FFF9;
  661 : FFB8;
  662 : FFF0;
  663 : 000B;
  664 : 0046;
  665 : 0003;
  666 : 0031;
  667 : 0007;
  668 : FFB9;
  669 : FFE4;
  670 : 000C;
  671 : 0045;
  672 : 0037;
  673 : FFD6;
  674 : FFD5;
  675 : FFD2;
  676 : 0041;
  677 : 0036;
  678 : 002A;
  679 : FFF0;
  680 : 0001;
  681 : FFFB;
  682 : FFDA;
  683 : 0001;
  684 : FFB8;
  685 : FFC7;
  686 : 003B;
  687 : 0027;
  688 : FFF4;
  689 : 0003;
  690 : FFEC;
  691 : 0025;
  692 : 002C;
  693 : 0028;
  694 : 0022;
  695 : FFD3;
  696 : FFE7;
  697 : FFFB;
  698 : FFE6;
  699 : 0027;
  700 : FFE6;
  701 : FFC8;
  702 : FFF0;
  703 : 004A;
  704 : FFD6;
  705 : 0011;
  706 : FFF6;
  707 : FFBE;
  708 : FFFE;
  709 : 001F;
  710 : 0002;
  711 : 0039;
  712 : FFE0;
  713 : FFC0;
  714 : 0043;
  715 : FFED;
  716 : 000C;
  717 : 002D;
  718 : FFE5;
  719 : 0021;
  720 : FFC8;
  721 : FFE0;
  722 : FFC9;
  723 : 0030;
  724 : FFD5;
  725 : 0021;
  726 : 0044;
  727 : 0004;
  728 : 0006;
  729 : FFFA;
  730 : FFE5;
  731 : FFFC;
  732 : 0010;
  733 : 004B;
  734 : 0043;
  735 : 0038;
  736 : 003C;
  737 : FFFB;
  738 : 0018;
  739 : 003D;
  740 : FFF0;
  741 : 0047;
  742 : FFF3;
  743 : 0010;
  744 : 0020;
  745 : 0045;
  746 : FFD9;
  747 : 0026;
  748 : 0003;
  749 : FFDC;
  750 : 002A;
  751 : 0008;
  752 : 0019;
  753 : FFE5;
  754 : FFFD;
  755 : 0012;
  756 : FFF1;
  757 : FFD2;
  758 : 0047;
  759 : 0002;
  760 : 0024;
  761 : FFF2;
  762 : FFEA;
  763 : FFF2;
  764 : FFF2;
  765 : 0007;
  766 : 0007;
  767 : 0000;
  768 : FFC8;
  769 : FFFF;
  770 : FFCD;
  771 : FFC7;
  772 : 0042;
  773 : 0010;
  774 : 0018;
  775 : FFF1;
  776 : 003F;
  777 : 0015;
  778 : 0029;
  779 : FFEC;
  780 : 0047;
  781 : 0031;
  782 : 0036;
  783 : FFCE;
  784 : FFDD;
  785 : FFDF;
  786 : FFDD;
  787 : 0037;
  788 : FFB8;
  789 : FFBF;
  790 : FFDD;
  791 : FFD2;
  792 : FFD7;
  793 : 002E;
  794 : 000A;
  795 : FFB4;
  796 : FFF5;
  797 : FFF2;
  798 : FFC5;
  799 : 001B;
  800 : 001F;
  801 : 0022;
  802 : 0023;
  803 : FFB3;
  804 : 0046;
  805 : 0030;
  806 : 003E;
  807 : FFB6;
  808 : 0043;
  809 : 0030;
  810 : 0034;
  811 : FFC2;
  812 : 0025;
  813 : 0047;
  814 : 001B;
  815 : 000B;
  816 : 0044;
  817 : FFF7;
  818 : 000F;
  819 : FFFC;
  820 : 0042;
  821 : FFBF;
  822 : 0000;
  823 : 001D;
  824 : 002D;
  825 : 000D;
  826 : 003F;
  827 : 0044;
  828 : FFBD;
  829 : FFF1;
  830 : FFB7;
  831 : FFE6;
  832 : 0006;
  833 : 003F;
  834 : 0035;
  835 : FFC7;
  836 : FFC1;
  837 : 000E;
  838 : 0005;
  839 : FFDC;
  840 : 003D;
  841 : 0042;
  842 : FFF1;
  843 : 003C;
  844 : FFEE;
  845 : 0024;
  846 : FFFC;
  847 : FFC6;
  848 : 0042;
  849 : FFF9;
  850 : 0024;
  851 : FFEC;
  852 : FFB6;
  853 : FFC3;
  854 : FFFF;
  855 : 001D;
  856 : FFE7;
  857 : 001E;
  858 : 001F;
  859 : 001F;
  860 : FFFF;
  861 : 0040;
  862 : FFFE;
  863 : FFF8;
  864 : FFD2;
  865 : FFE2;
  866 : FFBA;
  867 : 0015;
  868 : FFD9;
  869 : FFE2;
  870 : 002A;
  871 : FFE5;
  872 : FFD8;
  873 : FFCD;
  874 : 002A;
  875 : FFC7;
  876 : FFF9;
  877 : 0001;
  878 : 001D;
  879 : 0014;
  880 : 0030;
  881 : FFBA;
  882 : FFE1;
  883 : FFDE;
  884 : FFCA;
  885 : FFE0;
  886 : FFE3;
  887 : 0003;
  888 : 0019;
  889 : FFEE;
  890 : 0022;
  891 : FFE7;
  892 : FFE0;
  893 : 0006;
  894 : FFB7;
  895 : FFBF;
  896 : FFF3;
  897 : 0044;
  898 : 0022;
  899 : FFC1;
  900 : 0035;
  901 : 0024;
  902 : 0011;
  903 : 0031;
  904 : FFF1;
  905 : FFD5;
  906 : 0002;
  907 : 0008;
  908 : 0006;
  909 : 000A;
  910 : 0045;
  911 : 003E;
  912 : 003A;
  913 : 002E;
  914 : 0044;
  915 : FFC2;
  916 : FFDC;
  917 : FFFF;
  918 : 0035;
  919 : 0001;
  920 : 0026;
  921 : FFC9;
  922 : FFDA;
  923 : 0024;
  924 : FFCD;
  925 : FFE9;
  926 : FFDC;
  927 : FFE9;
  928 : 0020;
  929 : FFEC;
  930 : 0008;
  931 : FFC3;
  932 : 002F;
  933 : FFEC;
  934 : 0017;
  935 : 0023;
  936 : FFD3;
  937 : 003B;
  938 : 0012;
  939 : FFF5;
  940 : FFCF;
  941 : 0044;
  942 : 0027;
  943 : FFD3;
  944 : FFE7;
  945 : 0030;
  946 : 001E;
  947 : 0029;
  948 : FFF7;
  949 : 0021;
  950 : FFEF;
  951 : FFD4;
  952 : 0014;
  953 : 0049;
  954 : FFE3;
  955 : FFFA;
  956 : 001B;
  957 : 0006;
  958 : 0035;
  959 : 0028;
  960 : FFBC;
  961 : 004D;
  962 : 0027;
  963 : 0038;
  964 : 0017;
  965 : 0037;
  966 : FFC4;
  967 : FFE9;
  968 : 003A;
  969 : FFD2;
  970 : FFBF;
  971 : 002C;
  972 : 0034;
  973 : FFCC;
  974 : 0036;
  975 : 001D;
  976 : 0003;
  977 : 0033;
  978 : FFF4;
  979 : FFD1;
  980 : FFDF;
  981 : 0001;
  982 : 0005;
  983 : 002F;
  984 : 002D;
  985 : 000C;
  986 : 002B;
  987 : FFD1;
  988 : FFBB;
  989 : 0039;
  990 : FFBF;
  991 : FFD9;
  992 : 001E;
  993 : FFF2;
  994 : 003A;
  995 : FFE1;
  996 : FFB5;
  997 : FFE1;
  998 : 000C;
  999 : FFED;
  1000 : 0005;
  1001 : 003A;
  1002 : 003F;
  1003 : FFDC;
  1004 : FFFA;
  1005 : 0008;
  1006 : 0045;
  1007 : 004D;
  1008 : FFD7;
  1009 : 0023;
  1010 : FFED;
  1011 : FFB4;
  1012 : FFB5;
  1013 : FFFA;
  1014 : FFFE;
  1015 : FFB7;
  1016 : 001D;
  1017 : FFE0;
  1018 : 0009;
  1019 : FFE1;
  1020 : FFCD;
  1021 : FFF2;
  1022 : FFD7;
  1023 : 0005;
  1024 : FFD2;
  1025 : 0001;
  1026 : FFCB;
  1027 : 001A;
  1028 : 0027;
  1029 : FFC4;
  1030 : FFFB;
  1031 : FFBE;
  1032 : 000F;
  1033 : FFDC;
  1034 : 0004;
  1035 : 0003;
  1036 : 0041;
  1037 : 0008;
  1038 : 000D;
  1039 : FFF1;
  1040 : 0045;
  1041 : 002B;
  1042 : FFDF;
  1043 : 0035;
  1044 : FFF6;
  1045 : 0032;
  1046 : 0032;
  1047 : FFD0;
  1048 : 001F;
  1049 : FFE0;
  1050 : FFE1;
  1051 : FFE1;
  1052 : 0023;
  1053 : FFD7;
  1054 : FFB3;
  1055 : 0021;
  1056 : FFCD;
  1057 : FFC3;
  1058 : FFD8;
  1059 : FFEE;
  1060 : FFFC;
  1061 : FFBA;
  1062 : 0048;
  1063 : 0021;
  1064 : FFE5;
  1065 : FFE4;
  1066 : FFF8;
  1067 : 0013;
  1068 : FFCA;
  1069 : FFD0;
  1070 : 0037;
  1071 : FFDB;
  1072 : FFEE;
  1073 : 0039;
  1074 : 0019;
  1075 : FFE8;
  1076 : 001C;
  1077 : FFB6;
  1078 : 0024;
  1079 : FFFE;
  1080 : 0030;
  1081 : 0046;
  1082 : 0041;
  1083 : 003F;
  1084 : 0002;
  1085 : FFEB;
  1086 : FFFB;
  1087 : 001D;
  1088 : 003B;
  1089 : FFD3;
  1090 : 0040;
  1091 : 0030;
  1092 : 004A;
  1093 : 003A;
  1094 : FFDE;
  1095 : FFC3;
  1096 : FFC4;
  1097 : FFE0;
  1098 : 0012;
  1099 : 002F;
  1100 : 003D;
  1101 : 0013;
  1102 : FFB4;
  1103 : FFD0;
  1104 : FFC3;
  1105 : FFEB;
  1106 : 0000;
  1107 : FFBA;
  1108 : FFE9;
  1109 : FFCF;
  1110 : 0017;
  1111 : FFFB;
  1112 : FFFF;
  1113 : FFF5;
  1114 : 0046;
  1115 : FFD4;
  1116 : 0003;
  1117 : 0024;
  1118 : 0009;
  1119 : 0042;
  1120 : FFED;
  1121 : FFFA;
  1122 : FFC1;
  1123 : 0011;
  1124 : FFDF;
  1125 : FFCC;
  1126 : 0007;
  1127 : 0005;
  1128 : FFBF;
  1129 : 001E;
  1130 : 0013;
  1131 : FFD0;
  1132 : FFFB;
  1133 : 0022;
  1134 : 0005;
  1135 : FFF0;
  1136 : FFE5;
  1137 : 0011;
  1138 : 0043;
  1139 : 001A;
  1140 : FFBF;
  1141 : FFFA;
  1142 : 003C;
  1143 : FFC2;
  1144 : 004B;
  1145 : 0045;
  1146 : FFBF;
  1147 : 0043;
  1148 : FFEB;
  1149 : 0035;
  1150 : FFF3;
  1151 : FFF7;
  1152 : 0015;
  1153 : 002A;
  1154 : FFB8;
  1155 : 000E;
  1156 : FFD0;
  1157 : FFE8;
  1158 : FFE9;
  1159 : FFFB;
  1160 : FFE7;
  1161 : FFC4;
  1162 : FFCA;
  1163 : FFB8;
  1164 : FFFB;
  1165 : 0046;
  1166 : FFC5;
  1167 : 0045;
  1168 : 0024;
  1169 : 0015;
  1170 : 0016;
  1171 : 0032;
  1172 : FFC4;
  1173 : 0001;
  1174 : 001E;
  1175 : 000D;
  1176 : 0033;
  1177 : FFBE;
  1178 : 001D;
  1179 : 0005;
  1180 : FFED;
  1181 : FFE7;
  1182 : 0013;
  1183 : 003C;
  1184 : FFFF;
  1185 : 0032;
  1186 : FFF1;
  1187 : FFC3;
  1188 : FFBD;
  1189 : FFBB;
  1190 : FFEE;
  1191 : FFE7;
  1192 : 0021;
  1193 : 0025;
  1194 : FFBB;
  1195 : FFD5;
  1196 : FFDD;
  1197 : 0007;
  1198 : FFC9;
  1199 : FFC8;
  1200 : 0044;
  1201 : 002F;
  1202 : FFCF;
  1203 : FFF2;
  1204 : FFEA;
  1205 : 002D;
  1206 : 0002;
  1207 : FFC7;
  1208 : 0025;
  1209 : FFF0;
  1210 : FFDC;
  1211 : FFED;
  1212 : 0000;
  1213 : FFE8;
  1214 : FFD8;
  1215 : FFF0;
  1216 : FFB6;
  1217 : 002A;
  1218 : FFCD;
  1219 : FFBA;
  1220 : 0018;
  1221 : 002A;
  1222 : 0030;
  1223 : FFFF;
  1224 : FFD3;
  1225 : 0024;
  1226 : 001F;
  1227 : FFD9;
  1228 : 003E;
  1229 : FFC3;
  1230 : 004A;
  1231 : 0037;
  1232 : 001D;
  1233 : 0043;
  1234 : 0022;
  1235 : FFD0;
  1236 : FFF7;
  1237 : FFBE;
  1238 : FFEF;
  1239 : 0025;
  1240 : FFEF;
  1241 : FFE6;
  1242 : 000F;
  1243 : 0039;
  1244 : FFBB;
  1245 : FFEE;
  1246 : FFCC;
  1247 : 001E;
  1248 : FFC3;
  1249 : 0019;
  1250 : FFDF;
  1251 : FFD2;
  1252 : 0043;
  1253 : FFB6;
  1254 : FFF6;
  1255 : FFB7;
  1256 : FFFD;
  1257 : 0000;
  1258 : FFE5;
  1259 : FFC8;
  1260 : FFED;
  1261 : 001A;
  1262 : 002B;
  1263 : 0005;
  1264 : 000E;
  1265 : FFD2;
  1266 : FFDF;
  1267 : FFCC;
  1268 : FFD9;
  1269 : FFD6;
  1270 : 0003;
  1271 : 000A;
  1272 : 0044;
  1273 : FFD1;
  1274 : 0016;
  1275 : 0031;
  1276 : 0009;
  1277 : FFDA;
  1278 : FFDC;
  1279 : FFB9;
  1280 : FFE2;
  1281 : 0026;
  1282 : FFBA;
  1283 : FFD5;
  1284 : 0020;
  1285 : 002B;
  1286 : FFF9;
  1287 : 001E;
  1288 : FFEF;
  1289 : FFCC;
  1290 : FFF0;
  1291 : 000C;
  1292 : 0045;
  1293 : FFBE;
  1294 : 0001;
  1295 : FFE6;
  1296 : 0001;
  1297 : FFB7;
  1298 : FFE3;
  1299 : 0031;
  1300 : 0008;
  1301 : FFF8;
  1302 : FFDF;
  1303 : FFE1;
  1304 : FFEE;
  1305 : 0034;
  1306 : 0048;
  1307 : FFF7;
  1308 : FFF0;
  1309 : 0035;
  1310 : FFF5;
  1311 : 0008;
  1312 : FFD7;
  1313 : 0025;
  1314 : 0005;
  1315 : 002F;
  1316 : 002B;
  1317 : FFD4;
  1318 : 0021;
  1319 : 002E;
  1320 : FFE8;
  1321 : FFCE;
  1322 : FFB4;
  1323 : FFF8;
  1324 : FFE9;
  1325 : 0008;
  1326 : FFD0;
  1327 : 0037;
  1328 : FFDB;
  1329 : FFD6;
  1330 : FFFD;
  1331 : 0000;
  1332 : FFD4;
  1333 : FFDD;
  1334 : FFCD;
  1335 : 0022;
  1336 : 0029;
  1337 : FFFA;
  1338 : 0021;
  1339 : 0024;
  1340 : FFC8;
  1341 : 0048;
  1342 : 0031;
  1343 : FFD3;
  1344 : FFD0;
  1345 : FFC7;
  1346 : FFC8;
  1347 : 0026;
  1348 : FFFB;
  1349 : 002B;
  1350 : 0026;
  1351 : 0010;
  1352 : 001D;
  1353 : FFB6;
  1354 : FFE3;
  1355 : 0015;
  1356 : FFB5;
  1357 : FFB8;
  1358 : 0036;
  1359 : 001C;
  1360 : FFDC;
  1361 : 001D;
  1362 : 002D;
  1363 : FFE2;
  1364 : FFB9;
  1365 : 0042;
  1366 : FFE8;
  1367 : FFC4;
  1368 : FFFF;
  1369 : 0029;
  1370 : FFD5;
  1371 : FFDD;
  1372 : FFD8;
  1373 : 004C;
  1374 : FFD2;
  1375 : 000C;
  1376 : 0041;
  1377 : FFCA;
  1378 : 0048;
  1379 : 0045;
  1380 : 003B;
  1381 : FFD4;
  1382 : 0015;
  1383 : 0028;
  1384 : 004B;
  1385 : FFCF;
  1386 : 0029;
  1387 : FFE7;
  1388 : FFCE;
  1389 : FFF4;
  1390 : 002D;
  1391 : FFFB;
  1392 : 0006;
  1393 : 004C;
  1394 : FFF1;
  1395 : 0012;
  1396 : FFEB;
  1397 : FFF0;
  1398 : 001E;
  1399 : 0043;
  1400 : 0007;
  1401 : 0029;
  1402 : FFC1;
  1403 : FFD4;
  1404 : 0000;
  1405 : FFB6;
  1406 : FFDA;
  1407 : 0003;
  1408 : FFB5;
  1409 : FFDC;
  1410 : 0002;
  1411 : 000B;
  1412 : 0041;
  1413 : 0016;
  1414 : FFF3;
  1415 : 0042;
  1416 : 002C;
  1417 : FFD2;
  1418 : FFC7;
  1419 : 001B;
  1420 : 0009;
  1421 : 002C;
  1422 : 0025;
  1423 : 0013;
  1424 : 004B;
  1425 : 0005;
  1426 : FFC5;
  1427 : 0032;
  1428 : FFDA;
  1429 : 002B;
  1430 : 0046;
  1431 : 001E;
  1432 : 000F;
  1433 : FFFA;
  1434 : FFEB;
  1435 : FFE9;
  1436 : 0015;
  1437 : 0027;
  1438 : 001B;
  1439 : FFD2;
  1440 : FFFF;
  1441 : 002D;
  1442 : FFFC;
  1443 : 0006;
  1444 : 002A;
  1445 : 0019;
  1446 : FFF2;
  1447 : 003D;
  1448 : FFCC;
  1449 : 004C;
  1450 : FFC5;
  1451 : FFB5;
  1452 : 003C;
  1453 : FFD9;
  1454 : 0023;
  1455 : 0030;
  1456 : 0037;
  1457 : 004C;
  1458 : FFE0;
  1459 : 0020;
  1460 : FFC5;
  1461 : FFF2;
  1462 : 0035;
  1463 : FFEC;
  1464 : 000E;
  1465 : 0001;
  1466 : 0016;
  1467 : 0049;
  1468 : FFBC;
  1469 : 000B;
  1470 : 0038;
  1471 : FFFD;
  1472 : FFBF;
  1473 : 0009;
  1474 : FFE6;
  1475 : FFCB;
  1476 : 0036;
  1477 : 0003;
  1478 : 0043;
  1479 : 002F;
  1480 : 001E;
  1481 : FFB4;
  1482 : FFF5;
  1483 : FFD2;
  1484 : 003F;
  1485 : FFCE;
  1486 : FFDF;
  1487 : 0003;
  1488 : FFDC;
  1489 : FFD3;
  1490 : 000F;
  1491 : FFC1;
  1492 : FFBC;
  1493 : FFEC;
  1494 : 0022;
  1495 : 0008;
  1496 : FFF4;
  1497 : 000A;
  1498 : FFEB;
  1499 : 0043;
  1500 : FFBC;
  1501 : 001B;
  1502 : 003C;
  1503 : 002F;
  1504 : FFCF;
  1505 : FFE1;
  1506 : 0021;
  1507 : FFC0;
  1508 : 0030;
  1509 : 0022;
  1510 : 0023;
  1511 : FFC3;
  1512 : 0021;
  1513 : 001C;
  1514 : 0033;
  1515 : FFBA;
  1516 : FFB7;
  1517 : FFEC;
  1518 : FFCA;
  1519 : 0009;
  1520 : 0040;
  1521 : FFEF;
  1522 : 0035;
  1523 : FFB3;
  1524 : FFCD;
  1525 : FFB8;
  1526 : FFE6;
  1527 : 003F;
  1528 : FFC2;
  1529 : 0010;
  1530 : FFF9;
  1531 : 0043;
  1532 : FFC6;
  1533 : FFD4;
  1534 : FFB8;
  1535 : FFF6;
  1536 : FFDE;
  1537 : 0039;
  1538 : 0010;
  1539 : 0012;
  1540 : 0005;
  1541 : FFC1;
  1542 : FFF8;
  1543 : 004D;
  1544 : 0033;
  1545 : 003C;
  1546 : 0032;
  1547 : FFC3;
  1548 : FFD6;
  1549 : FFB4;
  1550 : FFE2;
  1551 : FFC4;
  1552 : FFFC;
  1553 : 001B;
  1554 : 003A;
  1555 : 0026;
  1556 : 0043;
  1557 : FFBB;
  1558 : FFB5;
  1559 : 0019;
  1560 : FFE0;
  1561 : FFDA;
  1562 : FFE6;
  1563 : FFDD;
  1564 : 0002;
  1565 : FFF7;
  1566 : 0002;
  1567 : 001B;
  1568 : FFEF;
  1569 : FFDA;
  1570 : FFCD;
  1571 : FFE9;
  1572 : 0025;
  1573 : 0027;
  1574 : 001A;
  1575 : FFD7;
  1576 : 000E;
  1577 : 000B;
  1578 : FFFE;
  1579 : 0008;
  1580 : FFFF;
  1581 : 000A;
  1582 : 0021;
  1583 : FFC4;
  1584 : 0026;
  1585 : FFC8;
  1586 : FFBD;
  1587 : 0049;
  1588 : 0046;
  1589 : FFBC;
  1590 : FFF7;
  1591 : FFD0;
  1592 : FFFE;
  1593 : 0033;
  1594 : 0045;
  1595 : 0015;
  1596 : FFEA;
  1597 : 0010;
  1598 : FFE3;
  1599 : 003F;
  1600 : 0039;
  1601 : 0009;
  1602 : FFE5;
  1603 : FFE0;
  1604 : FFB8;
  1605 : 0031;
  1606 : FFF8;
  1607 : FFE5;
  1608 : FFFC;
  1609 : 0031;
  1610 : FFC6;
  1611 : 0037;
  1612 : 003D;
  1613 : 0045;
  1614 : FFF0;
  1615 : FFD5;
  1616 : FFED;
  1617 : FFE6;
  1618 : FFCE;
  1619 : 0010;
  1620 : FFFC;
  1621 : 0038;
  1622 : FFB8;
  1623 : 0016;
  1624 : 0028;
  1625 : 0028;
  1626 : 003B;
  1627 : 0023;
  1628 : 0042;
  1629 : FFE6;
  1630 : 0000;
  1631 : FFB5;
  1632 : FFB4;
  1633 : FFD8;
  1634 : FFC3;
  1635 : FFDB;
  1636 : FFCE;
  1637 : FFB8;
  1638 : 003F;
  1639 : FFB4;
  1640 : 0024;
  1641 : FFCB;
  1642 : 003F;
  1643 : 003C;
  1644 : 0018;
  1645 : 001A;
  1646 : FFB4;
  1647 : 004A;
  1648 : 003A;
  1649 : 003D;
  1650 : 0018;
  1651 : FFE8;
  1652 : 003C;
  1653 : FFE0;
  1654 : 000A;
  1655 : FFC3;
  1656 : 0041;
  1657 : FFC9;
  1658 : FFD6;
  1659 : 0009;
  1660 : 0029;
  1661 : 0012;
  1662 : FFD7;
  1663 : FFB3;
  1664 : 0027;
  1665 : 004B;
  1666 : 0030;
  1667 : FFFA;
  1668 : 003E;
  1669 : FFF2;
  1670 : 0004;
  1671 : FFFC;
  1672 : FFF8;
  1673 : 002A;
  1674 : 0004;
  1675 : FFE4;
  1676 : FFDB;
  1677 : FFB9;
  1678 : 000D;
  1679 : FFD7;
  1680 : FFCA;
  1681 : 0018;
  1682 : 001C;
  1683 : 0027;
  1684 : 0001;
  1685 : 003D;
  1686 : 0043;
  1687 : 002F;
  1688 : 0015;
  1689 : FFE2;
  1690 : 004A;
  1691 : FFDD;
  1692 : FFD2;
  1693 : FFF7;
  1694 : FFBC;
  1695 : 0049;
  1696 : 000E;
  1697 : 0009;
  1698 : 0018;
  1699 : 0000;
  1700 : FFB8;
  1701 : 0011;
  1702 : 0021;
  1703 : FFF3;
  1704 : 0028;
  1705 : FFD6;
  1706 : FFD5;
  1707 : FFCC;
  1708 : FFEC;
  1709 : 0035;
  1710 : 0032;
  1711 : FFEE;
  1712 : 000E;
  1713 : 0022;
  1714 : FFD8;
  1715 : FFCD;
  1716 : 0049;
  1717 : 0012;
  1718 : 004A;
  1719 : FFE7;
  1720 : 001F;
  1721 : FFD5;
  1722 : FFDB;
  1723 : 0002;
  1724 : FFE4;
  1725 : FFCD;
  1726 : FFDC;
  1727 : FFB9;
  1728 : 001F;
  1729 : FFFF;
  1730 : FFC2;
  1731 : FFCE;
  1732 : FFC3;
  1733 : 0011;
  1734 : FFC2;
  1735 : 0027;
  1736 : FFB6;
  1737 : FFDA;
  1738 : 003C;
  1739 : 0022;
  1740 : FFBE;
  1741 : 0031;
  1742 : FFFF;
  1743 : 0035;
  1744 : 000F;
  1745 : 001C;
  1746 : 004C;
  1747 : FFD7;
  1748 : 0013;
  1749 : FFFA;
  1750 : FFB9;
  1751 : FFB5;
  1752 : FFC6;
  1753 : 0017;
  1754 : 000A;
  1755 : 0008;
  1756 : FFB8;
  1757 : FFFB;
  1758 : 0041;
  1759 : FFF0;
  1760 : 0013;
  1761 : 002B;
  1762 : 002C;
  1763 : 0003;
  1764 : 0037;
  1765 : FFEF;
  1766 : 003C;
  1767 : FFD8;
  1768 : FFDE;
  1769 : FFBB;
  1770 : 002D;
  1771 : FFF3;
  1772 : FFD6;
  1773 : FFD7;
  1774 : 003E;
  1775 : 0033;
  1776 : 0008;
  1777 : 0012;
  1778 : FFFC;
  1779 : FFEF;
  1780 : 0040;
  1781 : FFC6;
  1782 : FFF3;
  1783 : FFE8;
  1784 : 0000;
  1785 : FFF9;
  1786 : 0003;
  1787 : FFC9;
  1788 : 0002;
  1789 : FFD8;
  1790 : FFD0;
  1791 : FFBD;
  1792 : 0028;
  1793 : FFF5;
  1794 : 0013;
  1795 : 0023;
  1796 : 001C;
  1797 : FFFB;
  1798 : FFEF;
  1799 : FFED;
  1800 : 0016;
  1801 : FFFF;
  1802 : 0036;
  1803 : 003A;
  1804 : FFCD;
  1805 : FFC8;
  1806 : 0014;
  1807 : FFE1;
  1808 : FFB6;
  1809 : 003C;
  1810 : FFD6;
  1811 : 0042;
  1812 : 0021;
  1813 : 0028;
  1814 : FFD2;
  1815 : FFD7;
  1816 : 0003;
  1817 : FFCE;
  1818 : FFE2;
  1819 : FFE5;
  1820 : FFCC;
  1821 : FFD3;
  1822 : 002C;
  1823 : FFCD;
  1824 : FFB8;
  1825 : 0014;
  1826 : 0049;
  1827 : FFE6;
  1828 : FFC5;
  1829 : 000B;
  1830 : 003E;
  1831 : 002C;
  1832 : 0013;
  1833 : FFE4;
  1834 : 0006;
  1835 : FFC1;
  1836 : 001B;
  1837 : 0023;
  1838 : 0047;
  1839 : FFDB;
  1840 : FFB6;
  1841 : 0007;
  1842 : 0020;
  1843 : 002D;
  1844 : FFD1;
  1845 : FFDB;
  1846 : 0002;
  1847 : FFE6;
  1848 : 0037;
  1849 : FFFC;
  1850 : 002E;
  1851 : 000C;
  1852 : 002A;
  1853 : FFE6;
  1854 : 0033;
  1855 : FFDD;
  1856 : 0007;
  1857 : FFD4;
  1858 : FFFC;
  1859 : FFE4;
  1860 : FFDC;
  1861 : 0048;
  1862 : FFCC;
  1863 : 002C;
  1864 : 004A;
  1865 : FFB6;
  1866 : 001F;
  1867 : FFDA;
  1868 : FFB9;
  1869 : FFF1;
  1870 : 0043;
  1871 : FFB5;
  1872 : 000D;
  1873 : 0000;
  1874 : 0039;
  1875 : FFC0;
  1876 : 001C;
  1877 : 001C;
  1878 : 001A;
  1879 : 0044;
  1880 : 0032;
  1881 : FFBA;
  1882 : FFFC;
  1883 : FFF0;
  1884 : FFE3;
  1885 : FFF9;
  1886 : FFEE;
  1887 : FFF6;
  1888 : 004A;
  1889 : FFC1;
  1890 : 0041;
  1891 : FFFD;
  1892 : 0013;
  1893 : 0033;
  1894 : FFEB;
  1895 : FFF5;
  1896 : FFF2;
  1897 : FFED;
  1898 : 0041;
  1899 : 0033;
  1900 : FFC4;
  1901 : FFC4;
  1902 : FFF5;
  1903 : FFC2;
  1904 : 0012;
  1905 : FFC9;
  1906 : 0003;
  1907 : FFB4;
  1908 : FFE4;
  1909 : 001B;
  1910 : FFFE;
  1911 : 0049;
  1912 : 0039;
  1913 : FFEA;
  1914 : FFBA;
  1915 : 0035;
  1916 : 003F;
  1917 : 0031;
  1918 : FFC7;
  1919 : 004C;
  1920 : FFDB;
  1921 : 0022;
  1922 : 003F;
  1923 : FFD7;
  1924 : 003F;
  1925 : FFE3;
  1926 : 0049;
  1927 : FFDE;
  1928 : 0046;
  1929 : FFBB;
  1930 : 0020;
  1931 : 0005;
  1932 : FFFD;
  1933 : FFD6;
  1934 : 0020;
  1935 : FFD1;
  1936 : 0008;
  1937 : FFDA;
  1938 : 0046;
  1939 : FFB8;
  1940 : FFD2;
  1941 : FFD8;
  1942 : FFF3;
  1943 : FFD7;
  1944 : FFFF;
  1945 : 0039;
  1946 : 0021;
  1947 : 000C;
  1948 : FFC1;
  1949 : 001E;
  1950 : FFCD;
  1951 : 002C;
  1952 : FFDA;
  1953 : FFF3;
  1954 : FFE9;
  1955 : 0037;
  1956 : FFC7;
  1957 : 000A;
  1958 : FFC9;
  1959 : 001F;
  1960 : 003E;
  1961 : FFF6;
  1962 : FFFE;
  1963 : 0042;
  1964 : 0003;
  1965 : FFFE;
  1966 : 000C;
  1967 : 001D;
  1968 : FFC4;
  1969 : 0031;
  1970 : FFF6;
  1971 : FFBE;
  1972 : 002C;
  1973 : FFED;
  1974 : FFC3;
  1975 : 0015;
  1976 : 003A;
  1977 : 003C;
  1978 : 0046;
  1979 : 0038;
  1980 : FFB4;
  1981 : FFEE;
  1982 : 0031;
  1983 : FFEB;
  1984 : 0010;
  1985 : 0010;
  1986 : FFEB;
  1987 : 003E;
  1988 : 0000;
  1989 : FFFB;
  1990 : 004C;
  1991 : FFFF;
  1992 : FFCF;
  1993 : 0002;
  1994 : 0030;
  1995 : 002B;
  1996 : 002C;
  1997 : 0020;
  1998 : FFDA;
  1999 : 0038;
  2000 : 003C;
  2001 : FFD1;
  2002 : FFC7;
  2003 : 0049;
  2004 : 0039;
  2005 : 003C;
  2006 : 003B;
  2007 : 0006;
  2008 : 0016;
  2009 : 0007;
  2010 : FFBB;
  2011 : 0026;
  2012 : 0001;
  2013 : 0017;
  2014 : 0000;
  2015 : FFFF;
  2016 : FFCE;
  2017 : FFDE;
  2018 : FFCC;
  2019 : FFD1;
  2020 : 0049;
  2021 : FFCB;
  2022 : FFDD;
  2023 : 000E;
  2024 : 0011;
  2025 : FFCB;
  2026 : 002D;
  2027 : 002C;
  2028 : FFD8;
  2029 : FFE0;
  2030 : 0043;
  2031 : 0032;
  2032 : 001E;
  2033 : FFC0;
  2034 : FFF3;
  2035 : 0009;
  2036 : FFD0;
  2037 : FFF8;
  2038 : 0010;
  2039 : FFE5;
  2040 : 002B;
  2041 : 0034;
  2042 : FFE5;
  2043 : 0034;
  2044 : FFC3;
  2045 : 0034;
  2046 : FFCB;
  2047 : FFC0;
  2048 : 0016;
  2049 : FFFC;
  2050 : 003F;
  2051 : FFEB;
  2052 : FFDF;
  2053 : 0000;
  2054 : FFF9;
  2055 : FFE8;
  2056 : 001E;
  2057 : 0028;
  2058 : 0036;
  2059 : 0049;
  2060 : FFDC;
  2061 : 0021;
  2062 : FFF0;
  2063 : 001B;
  2064 : FFFC;
  2065 : 004C;
  2066 : 0023;
  2067 : 0046;
  2068 : 0033;
  2069 : 003E;
  2070 : 0030;
  2071 : FFFA;
  2072 : FFDA;
  2073 : FFEC;
  2074 : FFB6;
  2075 : 0004;
  2076 : 0001;
  2077 : 0004;
  2078 : 0049;
  2079 : 003F;
  2080 : FFCC;
  2081 : FFEC;
  2082 : FFF4;
  2083 : FFEB;
  2084 : 002E;
  2085 : 0004;
  2086 : 000B;
  2087 : 0036;
  2088 : 002F;
  2089 : FFC8;
  2090 : 0021;
  2091 : FFF6;
  2092 : FFE0;
  2093 : FFBB;
  2094 : FFFE;
  2095 : FFEA;
  2096 : FFDA;
  2097 : 001E;
  2098 : 0029;
  2099 : FFD9;
  2100 : FFBB;
  2101 : 0036;
  2102 : FFB5;
  2103 : 0043;
  2104 : 0014;
  2105 : FFE5;
  2106 : FFD9;
  2107 : FFB5;
  2108 : FFD7;
  2109 : FFC8;
  2110 : 0011;
  2111 : FFCD;
  2112 : 0004;
  2113 : 000E;
  2114 : FFE1;
  2115 : FFB9;
  2116 : FFB9;
  2117 : FFB7;
  2118 : 0025;
  2119 : FFE4;
  2120 : 002E;
  2121 : FFF6;
  2122 : FFF9;
  2123 : 0002;
  2124 : 0021;
  2125 : FFDD;
  2126 : FFC6;
  2127 : 0009;
  2128 : FFE5;
  2129 : FFF7;
  2130 : 0017;
  2131 : FFFF;
  2132 : 0012;
  2133 : 0007;
  2134 : 0025;
  2135 : 0020;
  2136 : 0005;
  2137 : 001B;
  2138 : 0039;
  2139 : FFF6;
  2140 : FFF3;
  2141 : 0029;
  2142 : 000D;
  2143 : FFBE;
  2144 : 003C;
  2145 : FFB8;
  2146 : 0026;
  2147 : 0028;
  2148 : 0046;
  2149 : FFBC;
  2150 : 000F;
  2151 : FFF5;
  2152 : FFE6;
  2153 : FFC1;
  2154 : 000A;
  2155 : FFFD;
  2156 : FFC3;
  2157 : 0011;
  2158 : 0025;
  2159 : 0029;
  2160 : 003E;
  2161 : FFF2;
  2162 : 0046;
  2163 : 0038;
  2164 : FFE1;
  2165 : FFCC;
  2166 : FFF6;
  2167 : FFF1;
  2168 : 000C;
  2169 : 000D;
  2170 : 0026;
  2171 : 0002;
  2172 : FFC3;
  2173 : 0037;
  2174 : FFE3;
  2175 : 0048;
  2176 : FFC5;
  2177 : 0046;
  2178 : FFC1;
  2179 : FFD7;
  2180 : FFBA;
  2181 : 0020;
  2182 : 0036;
  2183 : FFF6;
  2184 : 0042;
  2185 : 000E;
  2186 : 0014;
  2187 : 0035;
  2188 : FFE1;
  2189 : FFEA;
  2190 : 003E;
  2191 : 003E;
  2192 : 0049;
  2193 : 003E;
  2194 : FFC7;
  2195 : 0032;
  2196 : FFF2;
  2197 : 004B;
  2198 : FFFC;
  2199 : 0008;
  2200 : 0005;
  2201 : FFE5;
  2202 : FFBF;
  2203 : 003D;
  2204 : 002E;
  2205 : FFC9;
  2206 : 002B;
  2207 : 0013;
  2208 : FFF2;
  2209 : FFDA;
  2210 : 0037;
  2211 : 001F;
  2212 : 0007;
  2213 : 0011;
  2214 : FFC1;
  2215 : FFFC;
  2216 : FFD1;
  2217 : FFD3;
  2218 : 0019;
  2219 : 003F;
  2220 : FFF1;
  2221 : FFD3;
  2222 : 0017;
  2223 : 0039;
  2224 : 0026;
  2225 : 0039;
  2226 : 0006;
  2227 : 0027;
  2228 : FFC9;
  2229 : FFE9;
  2230 : FFEF;
  2231 : 0002;
  2232 : 0042;
  2233 : 0039;
  2234 : FFC8;
  2235 : FFCE;
  2236 : FFEA;
  2237 : FFE0;
  2238 : 0012;
  2239 : 003E;
  2240 : 0047;
  2241 : 0018;
  2242 : 0034;
  2243 : 0004;
  2244 : FFD3;
  2245 : 0004;
  2246 : 0008;
  2247 : 0025;
  2248 : FFD5;
  2249 : FFEC;
  2250 : FFEB;
  2251 : 0047;
  2252 : FFF7;
  2253 : 0027;
  2254 : 0027;
  2255 : FFDC;
  2256 : 000B;
  2257 : 003D;
  2258 : FFFC;
  2259 : 0044;
  2260 : FFD4;
  2261 : FFBF;
  2262 : 003C;
  2263 : 0035;
  2264 : 004C;
  2265 : 001C;
  2266 : 0043;
  2267 : 0032;
  2268 : 0035;
  2269 : 000B;
  2270 : FFEE;
  2271 : 0043;
  2272 : FFF6;
  2273 : 0006;
  2274 : FFF8;
  2275 : 000A;
  2276 : FFFB;
  2277 : FFBB;
  2278 : 003B;
  2279 : FFF7;
  2280 : 000E;
  2281 : FFC9;
  2282 : FFB4;
  2283 : FFD9;
  2284 : 001F;
  2285 : FFC2;
  2286 : 003F;
  2287 : FFD4;
  2288 : FFD3;
  2289 : FFCF;
  2290 : FFB5;
  2291 : 002A;
  2292 : 003A;
  2293 : 0012;
  2294 : FFD0;
  2295 : FFDF;
  2296 : FFFC;
  2297 : 0046;
  2298 : FFD9;
  2299 : 0024;
  2300 : FFF7;
  2301 : FFE1;
  2302 : FFF9;
  2303 : FFBE;
  2304 : 002E;
  2305 : FFD9;
  2306 : 0023;
  2307 : FFBE;
  2308 : 0046;
  2309 : FFD1;
  2310 : 003B;
  2311 : 0030;
  2312 : 0048;
  2313 : FFFD;
  2314 : 0023;
  2315 : FFEC;
  2316 : FFD0;
  2317 : FFF7;
  2318 : FFCD;
  2319 : 004A;
  2320 : FFC2;
  2321 : 000E;
  2322 : 0013;
  2323 : 0006;
  2324 : 0019;
  2325 : FFC5;
  2326 : 0008;
  2327 : FFDF;
  2328 : 0044;
  2329 : 0028;
  2330 : 0049;
  2331 : FFB9;
  2332 : FFDF;
  2333 : FFD1;
  2334 : FFB5;
  2335 : FFD8;
  2336 : 001B;
  2337 : FFD7;
  2338 : 0001;
  2339 : 003C;
  2340 : 001E;
  2341 : FFF0;
  2342 : FFEC;
  2343 : FFF9;
  2344 : FFCE;
  2345 : 0015;
  2346 : FFEB;
  2347 : 0036;
  2348 : 0027;
  2349 : 0011;
  2350 : FFEB;
  2351 : FFD3;
  2352 : 002A;
  2353 : FFFE;
  2354 : FFD6;
  2355 : FFD1;
  2356 : FFCD;
  2357 : 002B;
  2358 : FFD6;
  2359 : 0004;
  2360 : FFF9;
  2361 : 000C;
  2362 : 003A;
  2363 : 0038;
  2364 : FFF8;
  2365 : FFB6;
  2366 : FFF5;
  2367 : 0010;
  2368 : 0009;
  2369 : 0017;
  2370 : FFCB;
  2371 : 0017;
  2372 : FFCF;
  2373 : 0026;
  2374 : FFE7;
  2375 : 0020;
  2376 : FFBB;
  2377 : FFF2;
  2378 : 001F;
  2379 : FFD6;
  2380 : 002D;
  2381 : 0014;
  2382 : 000D;
  2383 : FFEA;
  2384 : FFFD;
  2385 : 000F;
  2386 : FFFC;
  2387 : 001E;
  2388 : FFF6;
  2389 : FFD2;
  2390 : FFD4;
  2391 : FFB4;
  2392 : FFE1;
  2393 : 0026;
  2394 : 002D;
  2395 : FFD2;
  2396 : 0047;
  2397 : 0000;
  2398 : 0040;
  2399 : 0020;
  2400 : 0022;
  2401 : FFC0;
  2402 : FFD5;
  2403 : FFB5;
  2404 : 0021;
  2405 : FFE8;
  2406 : 002C;
  2407 : FFE7;
  2408 : 0031;
  2409 : FFC7;
  2410 : FFCE;
  2411 : FFE8;
  2412 : FFF2;
  2413 : FFE9;
  2414 : 0028;
  2415 : FFC2;
  2416 : FFE9;
  2417 : 0034;
  2418 : FFBD;
  2419 : 0044;
  2420 : 004B;
  2421 : FFC1;
  2422 : FFE0;
  2423 : FFEC;
  2424 : 002A;
  2425 : 000F;
  2426 : 0016;
  2427 : 0028;
  2428 : FFC5;
  2429 : 0033;
  2430 : 0020;
  2431 : 000C;
  2432 : 003C;
  2433 : 001F;
  2434 : FFD2;
  2435 : FFF5;
  2436 : FFFF;
  2437 : FFBC;
  2438 : 0046;
  2439 : FFC7;
  2440 : 001E;
  2441 : 0001;
  2442 : FFB7;
  2443 : 0041;
  2444 : 0036;
  2445 : 0004;
  2446 : FFD6;
  2447 : FFC6;
  2448 : FFEB;
  2449 : FFDA;
  2450 : 0001;
  2451 : 0048;
  2452 : 000C;
  2453 : 003C;
  2454 : 0017;
  2455 : FFFC;
  2456 : 0036;
  2457 : FFFC;
  2458 : 0039;
  2459 : FFE0;
  2460 : FFC7;
  2461 : 0037;
  2462 : 000D;
  2463 : 003C;
  2464 : 0043;
  2465 : FFBB;
  2466 : 0000;
  2467 : FFED;
  2468 : 0013;
  2469 : 002D;
  2470 : FFDE;
  2471 : 0009;
  2472 : 0020;
  2473 : FFC8;
  2474 : 0030;
  2475 : 0010;
  2476 : 0045;
  2477 : FFE7;
  2478 : FFC4;
  2479 : 0001;
  2480 : FFC0;
  2481 : 0048;
  2482 : FFB9;
  2483 : 0027;
  2484 : 0004;
  2485 : FFEC;
  2486 : FFBD;
  2487 : 0013;
  2488 : 000D;
  2489 : FFDE;
  2490 : 003F;
  2491 : FFE2;
  2492 : FFF8;
  2493 : 0007;
  2494 : FFC3;
  2495 : 0042;
  2496 : FFED;
  2497 : FFC0;
  2498 : FFEF;
  2499 : 000F;
  2500 : 0002;
  2501 : 001E;
  2502 : FFBC;
  2503 : FFDF;
  2504 : 0031;
  2505 : FFBF;
  2506 : 0037;
  2507 : FFC1;
  2508 : 0033;
  2509 : FFEB;
  2510 : 0011;
  2511 : FFCB;
  2512 : FFBD;
  2513 : FFD4;
  2514 : FFC7;
  2515 : FFE3;
  2516 : 0002;
  2517 : 000E;
  2518 : 002D;
  2519 : 0018;
  2520 : 0011;
  2521 : FFF2;
  2522 : FFFC;
  2523 : FFF3;
  2524 : 0035;
  2525 : FFD7;
  2526 : FFB4;
  2527 : 0017;
  2528 : FFD2;
  2529 : 003C;
  2530 : 0037;
  2531 : FFBF;
  2532 : FFC4;
  2533 : FFFF;
  2534 : 0011;
  2535 : FFDD;
  2536 : 0021;
  2537 : 000F;
  2538 : FFE5;
  2539 : FFB7;
  2540 : 0026;
  2541 : FFD4;
  2542 : 0033;
  2543 : FFF4;
  2544 : 000C;
  2545 : 0039;
  2546 : 0038;
  2547 : FFEC;
  2548 : FFD3;
  2549 : 002A;
  2550 : FFF6;
  2551 : FFD1;
  2552 : 003E;
  2553 : FFD2;
  2554 : FFB7;
  2555 : FFB6;
  2556 : 0013;
  2557 : 0019;
  2558 : FFE3;
  2559 : FFE4;
  2560 : FFE7;
  2561 : 001C;
  2562 : FFBC;
  2563 : 0042;
  2564 : FFD5;
  2565 : 004D;
  2566 : FFCE;
  2567 : 002A;
  2568 : FFD6;
  2569 : FFC0;
  2570 : 003A;
  2571 : 0037;
  2572 : FFF1;
  2573 : 001F;
  2574 : 0009;
  2575 : 0036;
  2576 : FFE4;
  2577 : 0004;
  2578 : FFFE;
  2579 : FFEA;
  2580 : 003C;
  2581 : FFCD;
  2582 : FFCA;
  2583 : 000C;
  2584 : 0018;
  2585 : FFD1;
  2586 : FFEF;
  2587 : 0045;
  2588 : FFD9;
  2589 : 001A;
  2590 : 0025;
  2591 : FFF8;
  2592 : 0043;
  2593 : 0024;
  2594 : FFFA;
  2595 : 000B;
  2596 : 001E;
  2597 : 000E;
  2598 : 003A;
  2599 : FFEA;
  2600 : FFE1;
  2601 : FFD4;
  2602 : FFB9;
  2603 : FFBA;
  2604 : 0039;
  2605 : 001B;
  2606 : 0019;
  2607 : 0012;
  2608 : 0036;
  2609 : FFFD;
  2610 : 0039;
  2611 : FFEA;
  2612 : 0042;
  2613 : 001F;
  2614 : FFDB;
  2615 : 000A;
  2616 : 0005;
  2617 : FFC8;
  2618 : 000E;
  2619 : FFE4;
  2620 : FFBB;
  2621 : 0045;
  2622 : 0016;
  2623 : 003A;
  2624 : 001B;
  2625 : FFEA;
  2626 : 0002;
  2627 : 001B;
  2628 : 0047;
  2629 : FFDA;
  2630 : 003A;
  2631 : 0041;
  2632 : 001A;
  2633 : 0042;
  2634 : FFF0;
  2635 : 0046;
  2636 : 001F;
  2637 : FFBA;
  2638 : 003E;
  2639 : FFFE;
  2640 : FFFA;
  2641 : 000A;
  2642 : FFCA;
  2643 : FFFB;
  2644 : 0033;
  2645 : FFB6;
  2646 : FFDD;
  2647 : FFB4;
  2648 : FFF3;
  2649 : 0023;
  2650 : 002E;
  2651 : 0044;
  2652 : 0011;
  2653 : FFDA;
  2654 : 0041;
  2655 : 002A;
  2656 : 000B;
  2657 : 001E;
  2658 : 0041;
  2659 : 0021;
  2660 : FFEC;
  2661 : 0021;
  2662 : FFB9;
  2663 : FFEF;
  2664 : FFF2;
  2665 : FFCD;
  2666 : FFB7;
  2667 : FFC8;
  2668 : 0018;
  2669 : 002E;
  2670 : 004B;
  2671 : FFE8;
  2672 : 000F;
  2673 : 0043;
  2674 : FFCD;
  2675 : 0021;
  2676 : 0027;
  2677 : FFC1;
  2678 : 0037;
  2679 : 0030;
  2680 : FFB8;
  2681 : FFC1;
  2682 : FFBB;
  2683 : FFE7;
  2684 : 0001;
  2685 : 0005;
  2686 : FFDC;
  2687 : 003F;
  2688 : FFEC;
  2689 : FFBA;
  2690 : FFE1;
  2691 : 0005;
  2692 : FFF2;
  2693 : FFDD;
  2694 : FFC7;
  2695 : 0031;
  2696 : 004C;
  2697 : FFE6;
  2698 : FFEE;
  2699 : 0012;
  2700 : 0022;
  2701 : FFEF;
  2702 : 003E;
  2703 : 0009;
  2704 : FFF8;
  2705 : 0017;
  2706 : 0046;
  2707 : 002D;
  2708 : FFB9;
  2709 : FFE6;
  2710 : FFFB;
  2711 : FFE4;
  2712 : 001F;
  2713 : 0032;
  2714 : 0024;
  2715 : 004B;
  2716 : FFDD;
  2717 : 003A;
  2718 : 0029;
  2719 : FFEB;
  2720 : 0024;
  2721 : FFC3;
  2722 : 002C;
  2723 : 0005;
  2724 : FFE0;
  2725 : 0018;
  2726 : 0016;
  2727 : FFD3;
  2728 : FFB8;
  2729 : FFF6;
  2730 : 000B;
  2731 : 003A;
  2732 : 0042;
  2733 : 0004;
  2734 : 0027;
  2735 : FFF7;
  2736 : 0026;
  2737 : FFD3;
  2738 : FFEC;
  2739 : 0015;
  2740 : FFB6;
  2741 : 0022;
  2742 : 0034;
  2743 : FFF1;
  2744 : FFF8;
  2745 : 0036;
  2746 : 002A;
  2747 : FFDF;
  2748 : FFE5;
  2749 : 001B;
  2750 : 000A;
  2751 : FFCC;
  2752 : FFE3;
  2753 : 003D;
  2754 : 001D;
  2755 : 004B;
  2756 : 0029;
  2757 : 0044;
  2758 : FFD4;
  2759 : 002A;
  2760 : FFB6;
  2761 : 001A;
  2762 : FFFB;
  2763 : FFE8;
  2764 : 0038;
  2765 : 0036;
  2766 : FFB7;
  2767 : 0011;
  2768 : FFEC;
  2769 : FFF3;
  2770 : 0033;
  2771 : FFE3;
  2772 : 0044;
  2773 : FFCF;
  2774 : 0019;
  2775 : 001A;
  2776 : FFDA;
  2777 : FFE5;
  2778 : 0033;
  2779 : 0028;
  2780 : FFE6;
  2781 : 0005;
  2782 : FFBD;
  2783 : FFD3;
  2784 : FFFE;
  2785 : FFC0;
  2786 : 0035;
  2787 : 0021;
  2788 : 0044;
  2789 : 001E;
  2790 : 0044;
  2791 : 0008;
  2792 : 000F;
  2793 : 0049;
  2794 : 0016;
  2795 : FFB8;
  2796 : 0022;
  2797 : 003E;
  2798 : 002D;
  2799 : 000D;
  2800 : 001A;
  2801 : 004B;
  2802 : FFC1;
  2803 : 001A;
  2804 : FFDF;
  2805 : 0016;
  2806 : 0011;
  2807 : FFCB;
  2808 : FFD3;
  2809 : 0013;
  2810 : FFC7;
  2811 : FFDC;
  2812 : 0033;
  2813 : FFE5;
  2814 : FFFE;
  2815 : 0044;
  2816 : FFD6;
  2817 : FFEF;
  2818 : 0010;
  2819 : 0027;
  2820 : 003E;
  2821 : 0040;
  2822 : 002A;
  2823 : FFD6;
  2824 : FFB7;
  2825 : FFEE;
  2826 : FFC9;
  2827 : 0020;
  2828 : 0019;
  2829 : FFBA;
  2830 : 0034;
  2831 : FFD9;
  2832 : FFF6;
  2833 : 001A;
  2834 : FFF5;
  2835 : FFF7;
  2836 : FFBD;
  2837 : FFF1;
  2838 : 0029;
  2839 : 0040;
  2840 : FFF3;
  2841 : FFF4;
  2842 : 001F;
  2843 : 0044;
  2844 : FFDC;
  2845 : FFF7;
  2846 : 002D;
  2847 : 0011;
  2848 : FFC4;
  2849 : 0014;
  2850 : FFD0;
  2851 : 0002;
  2852 : 0004;
  2853 : 003A;
  2854 : FFFA;
  2855 : FFDE;
  2856 : FFD7;
  2857 : 0039;
  2858 : FFCD;
  2859 : FFF5;
  2860 : FFD0;
  2861 : 002A;
  2862 : FFFC;
  2863 : FFE9;
  2864 : FFEB;
  2865 : 0036;
  2866 : 0008;
  2867 : 0021;
  2868 : 003D;
  2869 : 003E;
  2870 : FFE6;
  2871 : 0045;
  2872 : FFB7;
  2873 : FFED;
  2874 : 003D;
  2875 : FFDD;
  2876 : FFDD;
  2877 : FFE2;
  2878 : 0011;
  2879 : FFF7;
  2880 : 0023;
  2881 : 003D;
  2882 : 001B;
  2883 : FFD3;
  2884 : 0042;
  2885 : FFDC;
  2886 : FFCA;
  2887 : FFC1;
  2888 : 000A;
  2889 : FFC5;
  2890 : FFC9;
  2891 : FFE1;
  2892 : FFDE;
  2893 : 0010;
  2894 : 0031;
  2895 : 0028;
  2896 : FFDC;
  2897 : FFD9;
  2898 : 0048;
  2899 : FFB4;
  2900 : 003A;
  2901 : FFD2;
  2902 : 0045;
  2903 : FFE8;
  2904 : FFF7;
  2905 : 0020;
  2906 : 000D;
  2907 : FFE4;
  2908 : 0008;
  2909 : 0023;
  2910 : FFBA;
  2911 : FFB5;
  2912 : FFFA;
  2913 : FFC7;
  2914 : 0019;
  2915 : FFD4;
  2916 : FFF6;
  2917 : FFD2;
  2918 : 0007;
  2919 : FFC5;
  2920 : FFB7;
  2921 : FFBB;
  2922 : 0046;
  2923 : FFC9;
  2924 : 0020;
  2925 : FFBE;
  2926 : FFC4;
  2927 : 0001;
  2928 : FFFB;
  2929 : 0045;
  2930 : 0044;
  2931 : 002B;
  2932 : 0010;
  2933 : FFF9;
  2934 : FFEA;
  2935 : 0045;
  2936 : 0010;
  2937 : 000C;
  2938 : FFD7;
  2939 : FFBA;
  2940 : 0044;
  2941 : FFE3;
  2942 : FFF7;
  2943 : FFC5;
  2944 : 0034;
  2945 : FFB7;
  2946 : 0033;
  2947 : FFC9;
  2948 : 003B;
  2949 : 0023;
  2950 : FFCC;
  2951 : 000A;
  2952 : FFE3;
  2953 : FFCF;
  2954 : 0037;
  2955 : FFF1;
  2956 : FFF0;
  2957 : FFCD;
  2958 : FFEE;
  2959 : 0039;
  2960 : FFEB;
  2961 : 0045;
  2962 : 0045;
  2963 : FFC9;
  2964 : FFCE;
  2965 : 0038;
  2966 : FFF0;
  2967 : FFB4;
  2968 : FFDD;
  2969 : 000F;
  2970 : 002E;
  2971 : FFC8;
  2972 : FFC4;
  2973 : 0041;
  2974 : 0027;
  2975 : 000E;
  2976 : 0029;
  2977 : FFF5;
  2978 : 0028;
  2979 : FFEC;
  2980 : FFD9;
  2981 : 0023;
  2982 : FFF4;
  2983 : 004A;
  2984 : FFE9;
  2985 : 0041;
  2986 : 0043;
  2987 : FFD8;
  2988 : 002E;
  2989 : FFF6;
  2990 : 0040;
  2991 : FFF8;
  2992 : 0026;
  2993 : FFFB;
  2994 : FFD6;
  2995 : FFD2;
  2996 : FFF5;
  2997 : 0027;
  2998 : 0010;
  2999 : 001D;
  3000 : FFDF;
  3001 : FFFD;
  3002 : FFBA;
  3003 : 0031;
  3004 : 004B;
  3005 : FFF2;
  3006 : FFB5;
  3007 : FFCD;
  3008 : 0017;
  3009 : 0011;
  3010 : 002C;
  3011 : FFDA;
  3012 : 0028;
  3013 : 001D;
  3014 : FFE5;
  3015 : 0007;
  3016 : FFCA;
  3017 : FFF9;
  3018 : 003B;
  3019 : FFF4;
  3020 : 0034;
  3021 : 000E;
  3022 : FFD1;
  3023 : 000C;
  3024 : 0001;
  3025 : FFF0;
  3026 : FFC6;
  3027 : FFF3;
  3028 : FFBE;
  3029 : FFC2;
  3030 : FFF3;
  3031 : FFE2;
  3032 : 0041;
  3033 : FFED;
  3034 : 0028;
  3035 : 0005;
  3036 : 001F;
  3037 : FFDB;
  3038 : 0044;
  3039 : 0005;
  3040 : 0033;
  3041 : FFEB;
  3042 : FFC3;
  3043 : 001B;
  3044 : FFB4;
  3045 : FFFC;
  3046 : FFD1;
  3047 : 0014;
  3048 : 004A;
  3049 : FFFB;
  3050 : 0031;
  3051 : 0001;
  3052 : FFFF;
  3053 : 0042;
  3054 : 003C;
  3055 : 002C;
  3056 : FFE1;
  3057 : 0007;
  3058 : FFD6;
  3059 : FFF7;
  3060 : FFFE;
  3061 : 0033;
  3062 : 003D;
  3063 : FFF3;
  3064 : FFB6;
  3065 : 0038;
  3066 : FFCE;
  3067 : 0013;
  3068 : FFB7;
  3069 : FFF1;
  3070 : 004B;
  3071 : FFC3;
  3072 : FFF4;
  3073 : FFE2;
  3074 : 003E;
  3075 : 0039;
  3076 : FFD8;
  3077 : FFC0;
  3078 : 0014;
  3079 : FFE7;
  3080 : 001A;
  3081 : FFB8;
  3082 : FFC8;
  3083 : 001D;
  3084 : FFD4;
  3085 : 0037;
  3086 : FFBC;
  3087 : FFD4;
  3088 : 004D;
  3089 : FFF6;
  3090 : 001F;
  3091 : FFCF;
  3092 : 0011;
  3093 : 0023;
  3094 : FFE4;
  3095 : 0033;
  3096 : 0010;
  3097 : FFEF;
  3098 : 0009;
  3099 : 000C;
  3100 : FFCD;
  3101 : FFF1;
  3102 : FFE8;
  3103 : FFF1;
  3104 : 0028;
  3105 : FFFD;
  3106 : 0044;
  3107 : FFE0;
  3108 : FFF3;
  3109 : 002C;
  3110 : 0007;
  3111 : 0007;
  3112 : FFBB;
  3113 : FFF0;
  3114 : FFDD;
  3115 : 004D;
  3116 : FFE3;
  3117 : 003B;
  3118 : 001B;
  3119 : FFE8;
  3120 : 0007;
  3121 : 0034;
  3122 : 003B;
  3123 : FFCC;
  3124 : FFE7;
  3125 : FFE7;
  3126 : FFBA;
  3127 : 000F;
  3128 : 0037;
  3129 : FFEE;
  3130 : 0025;
  3131 : 0014;
  3132 : FFED;
  3133 : FFC9;
  3134 : 0020;
  3135 : 0036;
  3136 : 001D;
  3137 : FFB6;
  3138 : FFD4;
  3139 : FFBE;
  3140 : 000B;
  3141 : 0027;
  3142 : FFC4;
  3143 : 0034;
  3144 : 0009;
  3145 : 001D;
  3146 : 0048;
  3147 : FFC0;
  3148 : 003E;
  3149 : FFC7;
  3150 : FFF0;
  3151 : 0036;
  3152 : 003E;
  3153 : 0001;
  3154 : 000E;
  3155 : 0020;
  3156 : 0033;
  3157 : FFC6;
  3158 : 0030;
  3159 : FFFD;
  3160 : FFF8;
  3161 : FFF4;
  3162 : 0001;
  3163 : 0044;
  3164 : 0007;
  3165 : 0046;
  3166 : FFCF;
  3167 : 0022;
  3168 : 0030;
  3169 : 001C;
  3170 : 0010;
  3171 : 000A;
  3172 : 0037;
  3173 : 0031;
  3174 : FFC6;
  3175 : 0036;
  3176 : FFF3;
  3177 : FFDA;
  3178 : 0039;
  3179 : FFF6;
  3180 : 002F;
  3181 : FFDC;
  3182 : FFB4;
  3183 : FFFF;
  3184 : FFC3;
  3185 : 0027;
  3186 : FFDE;
  3187 : FFF7;
  3188 : FFC1;
  3189 : FFDF;
  3190 : 002B;
  3191 : FFCA;
  3192 : 0017;
  3193 : 0040;
  3194 : 001C;
  3195 : 0030;
  3196 : FFC4;
  3197 : FFDA;
  3198 : 003D;
  3199 : 0021;
  3200 : 0015;
  3201 : 0019;
  3202 : FFF3;
  3203 : FFBA;
  3204 : 002C;
  3205 : 001B;
  3206 : FFFC;
  3207 : 003D;
  3208 : FFE7;
  3209 : FFE0;
  3210 : 0039;
  3211 : 002E;
  3212 : 0002;
  3213 : FFC7;
  3214 : FFD4;
  3215 : 0018;
  3216 : FFEE;
  3217 : 0034;
  3218 : 0045;
  3219 : 002F;
  3220 : FFED;
  3221 : 002C;
  3222 : FFE9;
  3223 : FFCD;
  3224 : FFB8;
  3225 : FFEE;
  3226 : 003E;
  3227 : FFD8;
  3228 : FFD3;
  3229 : 0048;
  3230 : FFB7;
  3231 : 002C;
  3232 : FFE5;
  3233 : FFB9;
  3234 : 0040;
  3235 : FFC9;
  3236 : 0008;
  3237 : FFDD;
  3238 : FFBD;
  3239 : FFBB;
  3240 : FFC5;
  3241 : FFBE;
  3242 : 0028;
  3243 : FFFE;
  3244 : FFE8;
  3245 : FFF3;
  3246 : 0042;
  3247 : 003F;
  3248 : 0021;
  3249 : 003B;
  3250 : FFE4;
  3251 : FFEE;
  3252 : 0011;
  3253 : 0013;
  3254 : FFFD;
  3255 : FFF1;
  3256 : 004B;
  3257 : 0031;
  3258 : FFF6;
  3259 : 0023;
  3260 : FFDD;
  3261 : FFC3;
  3262 : FFE9;
  3263 : FFF1;
  3264 : FFB6;
  3265 : 0030;
  3266 : FFEA;
  3267 : 000C;
  3268 : FFBF;
  3269 : FFCE;
  3270 : 003C;
  3271 : 0011;
  3272 : 0045;
  3273 : 004D;
  3274 : FFEC;
  3275 : FFE1;
  3276 : 0037;
  3277 : 004D;
  3278 : 0014;
  3279 : 002D;
  3280 : 002B;
  3281 : FFEA;
  3282 : 000B;
  3283 : 0033;
  3284 : 001D;
  3285 : FFB6;
  3286 : FFE7;
  3287 : FFC9;
  3288 : FFD7;
  3289 : 003E;
  3290 : FFB9;
  3291 : FFD5;
  3292 : FFE3;
  3293 : 0012;
  3294 : 0005;
  3295 : FFD5;
  3296 : FFCC;
  3297 : FFD8;
  3298 : 0000;
  3299 : FFDD;
  3300 : 0045;
  3301 : FFFA;
  3302 : FFBC;
  3303 : 0023;
  3304 : FFE6;
  3305 : 0018;
  3306 : FFDE;
  3307 : 000B;
  3308 : 002A;
  3309 : 0042;
  3310 : FFDB;
  3311 : FFE7;
  3312 : FFFB;
  3313 : 0042;
  3314 : 003E;
  3315 : FFC1;
  3316 : FFC7;
  3317 : FFFF;
  3318 : FFC4;
  3319 : FFE8;
  3320 : FFCA;
  3321 : 0015;
  3322 : 0045;
  3323 : 004C;
  3324 : FFED;
  3325 : 000F;
  3326 : 0037;
  3327 : FFC5;
  3328 : 001D;
  3329 : FFF2;
  3330 : FFD3;
  3331 : FFF1;
  3332 : FFBF;
  3333 : 001E;
  3334 : FFDA;
  3335 : FFE3;
  3336 : FFC6;
  3337 : 0038;
  3338 : FFFF;
  3339 : 000B;
  3340 : 000B;
  3341 : FFF2;
  3342 : FFD1;
  3343 : 0026;
  3344 : FFC7;
  3345 : FFC3;
  3346 : 0020;
  3347 : FFD3;
  3348 : FFE2;
  3349 : FFFC;
  3350 : FFF8;
  3351 : 0020;
  3352 : 0013;
  3353 : 0016;
  3354 : 0021;
  3355 : FFE0;
  3356 : FFE5;
  3357 : FFF6;
  3358 : FFE2;
  3359 : 004A;
  3360 : 0030;
  3361 : FFCC;
  3362 : FFB4;
  3363 : FFBA;
  3364 : FFD9;
  3365 : FFC5;
  3366 : 0005;
  3367 : 0037;
  3368 : 0024;
  3369 : FFD4;
  3370 : FFF1;
  3371 : 0001;
  3372 : 0030;
  3373 : 0034;
  3374 : 003F;
  3375 : 0001;
  3376 : 001E;
  3377 : FFC4;
  3378 : 000A;
  3379 : FFD9;
  3380 : FFF6;
  3381 : 0015;
  3382 : FFDB;
  3383 : FFBB;
  3384 : FFB5;
  3385 : FFB7;
  3386 : FFB4;
  3387 : FFC4;
  3388 : FFD8;
  3389 : FFD5;
  3390 : 004B;
  3391 : FFE2;
  3392 : FFC7;
  3393 : 0007;
  3394 : 0037;
  3395 : 001B;
  3396 : FFE1;
  3397 : 0009;
  3398 : 0021;
  3399 : 0023;
  3400 : 001A;
  3401 : 0039;
  3402 : 0039;
  3403 : 000C;
  3404 : FFF5;
  3405 : 0016;
  3406 : 0031;
  3407 : FFB4;
  3408 : 004C;
  3409 : FFCF;
  3410 : FFFB;
  3411 : 0039;
  3412 : FFD6;
  3413 : FFFC;
  3414 : FFC8;
  3415 : FFF0;
  3416 : FFCE;
  3417 : FFEB;
  3418 : FFED;
  3419 : 004C;
  3420 : 004C;
  3421 : FFC5;
  3422 : 0023;
  3423 : FFBB;
  3424 : FFB8;
  3425 : FFC3;
  3426 : 0047;
  3427 : 0044;
  3428 : FFD1;
  3429 : FFCC;
  3430 : FFD8;
  3431 : 0002;
  3432 : 000B;
  3433 : FFD5;
  3434 : 0027;
  3435 : FFE3;
  3436 : 0041;
  3437 : 0018;
  3438 : FFF6;
  3439 : 002D;
  3440 : 0031;
  3441 : FFE0;
  3442 : FFE7;
  3443 : 0043;
  3444 : FFCD;
  3445 : FFBA;
  3446 : FFF9;
  3447 : 002E;
  3448 : 002A;
  3449 : 0040;
  3450 : 0005;
  3451 : FFC3;
  3452 : 000E;
  3453 : 002B;
  3454 : FFC2;
  3455 : FFCE;
  3456 : FFB5;
  3457 : 000E;
  3458 : 003B;
  3459 : 001A;
  3460 : 004A;
  3461 : FFBD;
  3462 : 003E;
  3463 : 0030;
  3464 : FFE3;
  3465 : 0049;
  3466 : FFDF;
  3467 : 003C;
  3468 : 003A;
  3469 : 0028;
  3470 : 000A;
  3471 : FFC6;
  3472 : 0005;
  3473 : FFEA;
  3474 : 002D;
  3475 : 0028;
  3476 : 003F;
  3477 : FFB5;
  3478 : 002F;
  3479 : 0043;
  3480 : 002C;
  3481 : FFC7;
  3482 : FFC0;
  3483 : FFB6;
  3484 : 0014;
  3485 : 0014;
  3486 : 004B;
  3487 : FFF0;
  3488 : FFE6;
  3489 : 0013;
  3490 : 0032;
  3491 : 0043;
  3492 : 002F;
  3493 : FFF5;
  3494 : 0015;
  3495 : 0037;
  3496 : FFFF;
  3497 : FFD4;
  3498 : FFCD;
  3499 : FFB3;
  3500 : 0022;
  3501 : FFC4;
  3502 : FFD9;
  3503 : FFE1;
  3504 : 0009;
  3505 : FFF0;
  3506 : 001B;
  3507 : FFBC;
  3508 : FFC6;
  3509 : 0000;
  3510 : FFE7;
  3511 : FFE1;
  3512 : FFBD;
  3513 : 003D;
  3514 : 001D;
  3515 : FFC6;
  3516 : FFBD;
  3517 : 0049;
  3518 : 001C;
  3519 : FFF3;
  3520 : 001F;
  3521 : 0027;
  3522 : 002B;
  3523 : FFFD;
  3524 : FFF5;
  3525 : FFB5;
  3526 : 0042;
  3527 : 0010;
  3528 : FFD2;
  3529 : 0040;
  3530 : 0040;
  3531 : 004B;
  3532 : 0039;
  3533 : 004C;
  3534 : FFD9;
  3535 : 0035;
  3536 : 0032;
  3537 : FFD7;
  3538 : FFC2;
  3539 : 004A;
  3540 : FFE1;
  3541 : 0039;
  3542 : FFB4;
  3543 : FFB6;
  3544 : FFFB;
  3545 : FFD8;
  3546 : 001D;
  3547 : 000A;
  3548 : FFBF;
  3549 : FFCC;
  3550 : FFEF;
  3551 : FFD0;
  3552 : 002D;
  3553 : FFF3;
  3554 : FFC2;
  3555 : FFFE;
  3556 : FFC1;
  3557 : FFC7;
  3558 : FFD8;
  3559 : 0037;
  3560 : 0041;
  3561 : 0032;
  3562 : FFE7;
  3563 : FFDD;
  3564 : 0008;
  3565 : 0022;
  3566 : 004C;
  3567 : FFC7;
  3568 : FFBB;
  3569 : 001E;
  3570 : 0033;
  3571 : 0035;
  3572 : 001B;
  3573 : 0046;
  3574 : 0002;
  3575 : 0040;
  3576 : 0048;
  3577 : 0035;
  3578 : FFE3;
  3579 : FFD1;
  3580 : 0007;
  3581 : FFF9;
  3582 : 003A;
  3583 : FFC3;
  3584 : FFDB;
  3585 : 0027;
  3586 : FFC2;
  3587 : FFE4;
  3588 : FFEF;
  3589 : 0013;
  3590 : FFCB;
  3591 : 0037;
  3592 : FFF8;
  3593 : 0040;
  3594 : FFFB;
  3595 : FFDD;
  3596 : FFC9;
  3597 : FFB4;
  3598 : 0005;
  3599 : FFC4;
  3600 : FFEF;
  3601 : 000E;
  3602 : FFDE;
  3603 : FFCE;
  3604 : 002A;
  3605 : 0045;
  3606 : FFC3;
  3607 : FFCB;
  3608 : 0047;
  3609 : FFB9;
  3610 : 0049;
  3611 : FFB4;
  3612 : 0039;
  3613 : FFE2;
  3614 : 0043;
  3615 : FFE4;
  3616 : 0018;
  3617 : FFBF;
  3618 : FFD8;
  3619 : 002A;
  3620 : 0004;
  3621 : 0042;
  3622 : FFF5;
  3623 : 0039;
  3624 : FFF8;
  3625 : 004A;
  3626 : 0047;
  3627 : FFE6;
  3628 : 003B;
  3629 : 0035;
  3630 : FFD4;
  3631 : 0013;
  3632 : FFBE;
  3633 : 0034;
  3634 : FFCE;
  3635 : FFBE;
  3636 : FFF1;
  3637 : 000C;
  3638 : 0037;
  3639 : 0049;
  3640 : FFF7;
  3641 : FFBC;
  3642 : 0026;
  3643 : 000A;
  3644 : FFF8;
  3645 : FFE3;
  3646 : 0000;
  3647 : FFE7;
  3648 : 0027;
  3649 : 0007;
  3650 : 003A;
  3651 : 0007;
  3652 : FFD8;
  3653 : 0036;
  3654 : 0009;
  3655 : FFD3;
  3656 : 0013;
  3657 : FFEA;
  3658 : 0035;
  3659 : FFF9;
  3660 : 0023;
  3661 : FFC2;
  3662 : FFF0;
  3663 : 004A;
  3664 : 002F;
  3665 : FFCC;
  3666 : FFDE;
  3667 : FFE6;
  3668 : 0017;
  3669 : 0027;
  3670 : 0026;
  3671 : 0002;
  3672 : 0030;
  3673 : FFF6;
  3674 : FFC6;
  3675 : 000A;
  3676 : 0045;
  3677 : 002D;
  3678 : 000C;
  3679 : 0017;
  3680 : 0042;
  3681 : FFF5;
  3682 : FFE6;
  3683 : 0049;
  3684 : 0038;
  3685 : FFE5;
  3686 : FFFA;
  3687 : FFF3;
  3688 : FFCA;
  3689 : 0046;
  3690 : FFF1;
  3691 : 003A;
  3692 : FFD0;
  3693 : 0007;
  3694 : FFB7;
  3695 : 0029;
  3696 : 000C;
  3697 : 0013;
  3698 : FFBB;
  3699 : FFD4;
  3700 : FFBF;
  3701 : FFE0;
  3702 : 0014;
  3703 : 000A;
  3704 : 0011;
  3705 : 0008;
  3706 : FFDD;
  3707 : FFD9;
  3708 : FFC8;
  3709 : 0036;
  3710 : 0012;
  3711 : FFD0;
  3712 : FFCE;
  3713 : 0039;
  3714 : 0025;
  3715 : 0018;
  3716 : FFF2;
  3717 : FFDB;
  3718 : 004A;
  3719 : 002E;
  3720 : FFE2;
  3721 : 0035;
  3722 : 0028;
  3723 : FFE1;
  3724 : FFF5;
  3725 : FFD0;
  3726 : FFC4;
  3727 : 0022;
  3728 : FFDC;
  3729 : 0031;
  3730 : 004C;
  3731 : FFBF;
  3732 : FFFC;
  3733 : 002E;
  3734 : 002C;
  3735 : 0028;
  3736 : FFE9;
  3737 : FFF9;
  3738 : 000F;
  3739 : 0049;
  3740 : FFE6;
  3741 : 0041;
  3742 : FFDD;
  3743 : 004B;
  3744 : 001A;
  3745 : FFFA;
  3746 : 0011;
  3747 : FFDD;
  3748 : FFDD;
  3749 : FFC5;
  3750 : FFC5;
  3751 : FFE9;
  3752 : 0028;
  3753 : 0011;
  3754 : FFC3;
  3755 : 0036;
  3756 : 0010;
  3757 : 0047;
  3758 : 001A;
  3759 : FFCE;
  3760 : FFFC;
  3761 : 0017;
  3762 : FFB8;
  3763 : FFB5;
  3764 : FFC7;
  3765 : FFDA;
  3766 : FFF5;
  3767 : FFFE;
  3768 : FFC8;
  3769 : 001B;
  3770 : 000F;
  3771 : FFE0;
  3772 : FFB5;
  3773 : FFBF;
  3774 : FFEF;
  3775 : FFCB;
  3776 : FFED;
  3777 : 0014;
  3778 : 0007;
  3779 : FFD7;
  3780 : FFE8;
  3781 : 0012;
  3782 : 0037;
  3783 : 0027;
  3784 : 0008;
  3785 : FFEB;
  3786 : FFEB;
  3787 : 003A;
  3788 : FFB9;
  3789 : 004B;
  3790 : 0019;
  3791 : 001C;
  3792 : FFB9;
  3793 : 0010;
  3794 : FFFE;
  3795 : FFC3;
  3796 : FFDE;
  3797 : 003C;
  3798 : 0008;
  3799 : FFF3;
  3800 : FFBE;
  3801 : 0021;
  3802 : 001F;
  3803 : 0012;
  3804 : 0002;
  3805 : FFF6;
  3806 : 000E;
  3807 : FFD7;
  3808 : 0044;
  3809 : 000E;
  3810 : FFE3;
  3811 : FFF8;
  3812 : 002F;
  3813 : FFCC;
  3814 : FFE0;
  3815 : 001C;
  3816 : FFE4;
  3817 : 002D;
  3818 : FFC7;
  3819 : 0028;
  3820 : FFBE;
  3821 : FFB5;
  3822 : 003D;
  3823 : 000C;
  3824 : FFE9;
  3825 : FFD7;
  3826 : 0012;
  3827 : 0001;
  3828 : 004C;
  3829 : 004A;
  3830 : 0015;
  3831 : FFF7;
  3832 : FFFF;
  3833 : 001C;
  3834 : FFC3;
  3835 : FFE6;
  3836 : FFBF;
  3837 : FFBE;
  3838 : FFD1;
  3839 : FFFE;
  3840 : 002C;
  3841 : FFFE;
  3842 : FFE7;
  3843 : FFC0;
  3844 : 0008;
  3845 : FFDD;
  3846 : 0012;
  3847 : 0049;
  3848 : FFC4;
  3849 : FFD4;
  3850 : FFFC;
  3851 : 0048;
  3852 : 002A;
  3853 : 003D;
  3854 : FFE6;
  3855 : 004C;
  3856 : FFC3;
  3857 : FFBB;
  3858 : 0037;
  3859 : 0042;
  3860 : FFC1;
  3861 : FFC5;
  3862 : FFB8;
  3863 : FFC3;
  3864 : FFD3;
  3865 : 0048;
  3866 : 001A;
  3867 : 002B;
  3868 : 002A;
  3869 : 0005;
  3870 : 002E;
  3871 : 000F;
  3872 : FFE4;
  3873 : 0009;
  3874 : 0005;
  3875 : 0032;
  3876 : 004A;
  3877 : FFF2;
  3878 : 0028;
  3879 : FFC3;
  3880 : 002B;
  3881 : FFEC;
  3882 : FFB9;
  3883 : FFEB;
  3884 : 0011;
  3885 : FFC6;
  3886 : 0041;
  3887 : FFBF;
  3888 : 0042;
  3889 : 0020;
  3890 : FFE6;
  3891 : FFEF;
  3892 : 0025;
  3893 : 0010;
  3894 : 001A;
  3895 : FFEF;
  3896 : FFFE;
  3897 : 004B;
  3898 : FFD4;
  3899 : FFF3;
  3900 : FFE0;
  3901 : 0029;
  3902 : 0029;
  3903 : FFE0;
  3904 : FFC0;
  3905 : FFB5;
  3906 : FFF5;
  3907 : FFF2;
  3908 : 004B;
  3909 : FFFB;
  3910 : FFDB;
  3911 : 003C;
  3912 : FFFF;
  3913 : 000F;
  3914 : FFC2;
  3915 : FFEE;
  3916 : 0044;
  3917 : 000E;
  3918 : FFE8;
  3919 : 0013;
  3920 : 003F;
  3921 : FFDD;
  3922 : 0001;
  3923 : 0046;
  3924 : FFCE;
  3925 : 0022;
  3926 : 0012;
  3927 : 001C;
  3928 : FFE9;
  3929 : FFE3;
  3930 : 001C;
  3931 : FFD4;
  3932 : FFF4;
  3933 : FFD0;
  3934 : FFB4;
  3935 : 0048;
  3936 : FFF6;
  3937 : 0048;
  3938 : FFC9;
  3939 : 000D;
  3940 : FFD2;
  3941 : 002D;
  3942 : 002C;
  3943 : FFC4;
  3944 : 003F;
  3945 : FFD1;
  3946 : 0011;
  3947 : 004B;
  3948 : 003B;
  3949 : 0046;
  3950 : FFE8;
  3951 : FFC3;
  3952 : FFD0;
  3953 : 0000;
  3954 : 002D;
  3955 : FFCA;
  3956 : 0019;
  3957 : FFE5;
  3958 : FFE8;
  3959 : 0019;
  3960 : FFFB;
  3961 : 0030;
  3962 : FFCB;
  3963 : 002D;
  3964 : FFBD;
  3965 : FFD1;
  3966 : 0018;
  3967 : 0037;
  3968 : FFDA;
  3969 : FFE5;
  3970 : 0006;
  3971 : FFD4;
  3972 : 0030;
  3973 : 002A;
  3974 : FFCA;
  3975 : FFFA;
  3976 : 002A;
  3977 : FFE7;
  3978 : 0014;
  3979 : FFBB;
  3980 : 0011;
  3981 : FFCB;
  3982 : 0033;
  3983 : FFEA;
  3984 : FFDE;
  3985 : 0034;
  3986 : FFBB;
  3987 : FFF0;
  3988 : FFEC;
  3989 : FFDF;
  3990 : 003F;
  3991 : 0027;
  3992 : FFBD;
  3993 : 0021;
  3994 : 0004;
  3995 : 003E;
  3996 : FFE3;
  3997 : 000B;
  3998 : 0000;
  3999 : FFFE;
  4000 : FFF9;
  4001 : FFD3;
  4002 : 0027;
  4003 : FFF9;
  4004 : 0046;
  4005 : FFDB;
  4006 : 001C;
  4007 : 0044;
  4008 : 0019;
  4009 : 0039;
  4010 : 0032;
  4011 : FFEB;
  4012 : 000F;
  4013 : FFCB;
  4014 : 0005;
  4015 : FFD7;
  4016 : 0025;
  4017 : 0004;
  4018 : FFF2;
  4019 : FFDC;
  4020 : 004D;
  4021 : FFBE;
  4022 : FFBA;
  4023 : FFD5;
  4024 : 0048;
  4025 : 004A;
  4026 : 0018;
  4027 : 003A;
  4028 : FFD4;
  4029 : 0049;
  4030 : FFC9;
  4031 : FFC3;
  4032 : FFC4;
  4033 : 000B;
  4034 : 002B;
  4035 : FFEC;
  4036 : 0049;
  4037 : FFF6;
  4038 : FFCA;
  4039 : FFFB;
  4040 : 001C;
  4041 : 0033;
  4042 : FFFA;
  4043 : 000E;
  4044 : FFDC;
  4045 : 0016;
  4046 : 004B;
  4047 : FFBB;
  4048 : 003B;
  4049 : 000A;
  4050 : FFDA;
  4051 : 0046;
  4052 : FFFD;
  4053 : FFE6;
  4054 : FFCF;
  4055 : FFD9;
  4056 : 0033;
  4057 : 0012;
  4058 : 003F;
  4059 : FFD7;
  4060 : FFC6;
  4061 : FFB4;
  4062 : 0001;
  4063 : 004D;
  4064 : 001E;
  4065 : FFE3;
  4066 : 003A;
  4067 : 002B;
  4068 : FFB6;
  4069 : 0031;
  4070 : FFE1;
  4071 : FFCA;
  4072 : FFD6;
  4073 : FFFB;
  4074 : FFF4;
  4075 : FFE0;
  4076 : FFCE;
  4077 : 0028;
  4078 : 004B;
  4079 : 002B;
  4080 : FFE1;
  4081 : FFD9;
  4082 : FFD5;
  4083 : FFC8;
  4084 : 0008;
  4085 : 0010;
  4086 : 0020;
  4087 : 001C;
  4088 : FFE0;
  4089 : FFE6;
  4090 : 001C;
  4091 : FFE9;
  4092 : FFD4;
  4093 : FFED;
  4094 : FFDD;
  4095 : FFC1;
END;
