FFDB
FFFF
0049
FFE6
000F
FFC1
0010
FFC1
0047
0021
002C
001F
000E
FFF8
0037
0046
0000
0042
000D
0006
FFF9
FFD3
FFB4
FFD8
0001
FFEE
FFF8
004A
FFE9
FFF9
FFC8
FFBB
002A
000B
0028
FFCA
000B
FFDA
FFD6
FFB5
FFC7
FFE3
FFC5
004B
FFE3
FFC7
FFD2
000D
FFBD
0038
0047
FFD9
FFF8
FFB7
0016
FFF3
FFDD
FFD3
0018
FFF3
FFCF
001D
000A
0037
FFC5
002C
001B
FFC5
001E
FFF7
0044
FFC9
0016
FFEE
0046
FFE6
0047
003E
FFDD
002F
004C
FFDA
FFF6
0003
FFE1
FFB6
FFD5
FFDF
FFF7
FFCD
0039
001F
FFC0
0017
0018
0046
FFB4
FFD9
0042
0042
0022
0029
FFC1
0002
FFD7
FFCF
0030
FFC8
FFFB
0043
FFD0
0049
004C
0009
FFCD
FFE4
FFF4
FFE3
FFDE
0049
FFCB
0024
FFB3
000F
0040
FFDF
FFD0
0017
0021
001D
FFE4
FFDA
0046
0041
FFF9
0035
FFF9
FFF4
FFCB
FFF5
0006
FFB7
FFF7
002B
001C
0015
003F
FFB6
0009
002C
0006
FFE5
FFC8
003C
FFFC
003A
000D
001B
002F
0018
FFF0
0002
002F
FFED
FFEF
FFC2
0040
FFC1
0017
FFF3
FFF2
001C
FFBE
000E
002A
0032
FFCD
003D
0018
003B
FFFE
0006
0040
003D
FFF8
FFDD
FFF0
FFEF
FFDF
FFDC
0037
FFBE
001B
FFCE
FFE8
FFBD
FFDD
0029
003B
FFD5
FFFA
FFFB
0039
0028
0002
001A
0035
FFB5
FFF1
003F
0025
0007
0005
FFE9
0003
0018
FFF3
0021
0037
FFCB
FFF9
FFF2
001D
FFDA
0016
003A
FFF3
003F
004C
FFC3
FFD7
0045
0046
FFC2
FFB6
FFCC
004C
FFCF
0000
0036
FFB6
0010
FFDE
0038
FFDF
001D
001B
FFD5
FFB9
FFF2
FFE0
002F
002E
FFF9
0010
0010
0032
FFF4
FFDE
FFDC
0006
FFF8
FFF7
FFC1
0022
FFD4
FFD1
FFF3
FFD6
000D
FFEC
FFF8
0006
FFD2
FFCB
003A
FFF6
FFF2
FFB9
0000
0008
0009
0020
FFCE
FFDA
0030
0045
FFC8
0000
FFD4
FFBC
FFE5
FFC9
0020
0005
FFC9
FFB5
002F
FFCE
0010
FFE7
000D
FFE4
FFC1
FFD5
FFD0
FFF5
0018
FFDC
FFB5
0003
0010
0047
000E
FFFC
000B
0042
0032
FFE5
FFD8
FFDC
0001
0025
0000
FFBE
0022
002F
FFE0
0019
FFF5
003C
0035
0004
001D
003B
FFFF
FFE3
0027
FFD5
FFEF
0038
0022
FFF1
FFD4
FFEA
FFDF
FFCE
0025
FFDA
FFF9
FFEE
004A
FFEF
FFBF
FFC1
000E
000F
FFF4
FFF6
FFBB
0003
0001
FFCA
FFC3
FFC6
FFC3
0011
FFD1
FFDA
FFCE
0046
0036
FFD7
FFE6
FFD3
FFFF
FFB6
001A
0004
003D
FFCC
002F
002D
FFC7
FFF0
FFCD
FFDA
FFDC
0009
FFF2
0045
FFC7
0049
FFD7
002A
FFE7
FFC9
0037
FFE3
0018
000A
FFFC
FFFF
0024
FFC1
001A
003D
FFBC
FFC9
0021
FFF6
FFF1
FFC8
0001
FFC7
FFFC
0028
FFDB
FFFD
004C
001D
0034
FFF3
0029
FFB9
FFC6
FFD2
FFF1
0035
FFE8
0018
0020
000D
FFEA
000C
FFE8
FFC0
004C
FFC7
FFBE
003A
FFE2
0017
FFE6
FFEF
FFDB
FFE8
FFF2
0022
0002
0044
FFBA
0000
000D
0041
FFBB
000B
0036
FFD8
003A
FFB6
0024
0043
0018
FFF7
FFBA
0041
FFFB
FFB8
001D
FFFD
FFC6
FFD4
FFBD
000B
0013
0001
0031
0037
0012
FFB5
001E
FFF3
000A
0017
FFE9
0040
FFC8
001A
FFB4
0041
FFC4
FFC2
FFE6
FFED
FFD4
000D
FFF7
FFB8
FFE4
0030
001D
0023
001E
FFE3
FFC3
FFDD
0033
004A
FFFF
FFB5
FFC9
FFE5
000C
FFBF
0044
FFEB
003F
002B
0027
0010
0013
0015
0014
0008
004B
0024
002B
0039
FFD4
FFC0
FFFD
0002
0033
FFF7
000B
0004
FFB9
0012
0032
FFCB
000E
000E
FFCC
FFC6
004A
FFF0
FFD6
FFCE
001A
0011
0016
FFC1
003C
FFEF
FFE3
FFFA
FFEF
0038
0042
FFE2
0038
002B
0042
FFD9
000C
FFDD
0032
FFB4
000A
FFE7
FFE5
0016
0036
0011
0036
FFDC
0003
FFF8
FFB5
0009
0019
000E
0024
000B
FFBD
FFC5
000F
FFDD
FFBF
FFF5
0008
FFE6
0022
0016
FFE6
0027
0017
0015
0008
FFB5
001E
FFED
0044
0031
000D
FFDA
FFD2
FFE7
FFFC
FFE1
0002
FFCD
0049
FFC4
0042
0040
0004
0023
FFF6
0014
FFE8
FFE1
000C
0000
000C
FFDF
FFEC
FFC0
FFBB
FFDA
FFBF
FFC3
0030
FFB9
0018
FFDD
0039
FFFE
FFE2
0003
FFEE
000A
FFC5
004C
FFF5
FFE9
0020
FFEB
0033
FFF9
0022
FFC4
0035
0024
FFD4
FFCA
FFE4
0049
FFDB
FFF9
FFB8
FFF0
000B
0046
0003
0031
0007
FFB9
FFE4
000C
0045
0037
FFD6
FFD5
FFD2
0041
0036
002A
FFF0
0001
FFFB
FFDA
0001
FFB8
FFC7
003B
0027
FFF4
0003
FFEC
0025
002C
0028
0022
FFD3
FFE7
FFFB
FFE6
0027
FFE6
FFC8
FFF0
004A
FFD6
0011
FFF6
FFBE
FFFE
001F
0002
0039
FFE0
FFC0
0043
FFED
000C
002D
FFE5
0021
FFC8
FFE0
FFC9
0030
FFD5
0021
0044
0004
0006
FFFA
FFE5
FFFC
0010
004B
0043
0038
003C
FFFB
0018
003D
FFF0
0047
FFF3
0010
0020
0045
FFD9
0026
0003
FFDC
002A
0008
0019
FFE5
FFFD
0012
FFF1
FFD2
0047
0002
0024
FFF2
FFEA
FFF2
FFF2
0007
0007
0000
FFC8
FFFF
FFCD
FFC7
0042
0010
0018
FFF1
003F
0015
0029
FFEC
0047
0031
0036
FFCE
FFDD
FFDF
FFDD
0037
FFB8
FFBF
FFDD
FFD2
FFD7
002E
000A
FFB4
FFF5
FFF2
FFC5
001B
001F
0022
0023
FFB3
0046
0030
003E
FFB6
0043
0030
0034
FFC2
0025
0047
001B
000B
0044
FFF7
000F
FFFC
0042
FFBF
0000
001D
002D
000D
003F
0044
FFBD
FFF1
FFB7
FFE6
0006
003F
0035
FFC7
FFC1
000E
0005
FFDC
003D
0042
FFF1
003C
FFEE
0024
FFFC
FFC6
0042
FFF9
0024
FFEC
FFB6
FFC3
FFFF
001D
FFE7
001E
001F
001F
FFFF
0040
FFFE
FFF8
FFD2
FFE2
FFBA
0015
FFD9
FFE2
002A
FFE5
FFD8
FFCD
002A
FFC7
FFF9
0001
001D
0014
0030
FFBA
FFE1
FFDE
FFCA
FFE0
FFE3
0003
0019
FFEE
0022
FFE7
FFE0
0006
FFB7
FFBF
FFF3
0044
0022
FFC1
0035
0024
0011
0031
FFF1
FFD5
0002
0008
0006
000A
0045
003E
003A
002E
0044
FFC2
FFDC
FFFF
0035
0001
0026
FFC9
FFDA
0024
FFCD
FFE9
FFDC
FFE9
0020
FFEC
0008
FFC3
002F
FFEC
0017
0023
FFD3
003B
0012
FFF5
FFCF
0044
0027
FFD3
FFE7
0030
001E
0029
FFF7
0021
FFEF
FFD4
0014
0049
FFE3
FFFA
001B
0006
0035
0028
FFBC
004D
0027
0038
0017
0037
FFC4
FFE9
003A
FFD2
FFBF
002C
0034
FFCC
0036
001D
0003
0033
FFF4
FFD1
FFDF
0001
0005
002F
002D
000C
002B
FFD1
FFBB
0039
FFBF
FFD9
001E
FFF2
003A
FFE1
FFB5
FFE1
000C
FFED
0005
003A
003F
FFDC
FFFA
0008
0045
004D
FFD7
0023
FFED
FFB4
FFB5
FFFA
FFFE
FFB7
001D
FFE0
0009
FFE1
FFCD
FFF2
FFD7
0005
FFD2
0001
FFCB
001A
0027
FFC4
FFFB
FFBE
000F
FFDC
0004
0003
0041
0008
000D
FFF1
0045
002B
FFDF
0035
FFF6
0032
0032
FFD0
001F
FFE0
FFE1
FFE1
0023
FFD7
FFB3
0021
FFCD
FFC3
FFD8
FFEE
FFFC
FFBA
0048
0021
FFE5
FFE4
FFF8
0013
FFCA
FFD0
0037
FFDB
FFEE
0039
0019
FFE8
001C
FFB6
0024
FFFE
0030
0046
0041
003F
0002
FFEB
FFFB
001D
003B
FFD3
0040
0030
004A
003A
FFDE
FFC3
FFC4
FFE0
0012
002F
003D
0013
FFB4
FFD0
FFC3
FFEB
0000
FFBA
FFE9
FFCF
0017
FFFB
FFFF
FFF5
0046
FFD4
0003
0024
0009
0042
FFED
FFFA
FFC1
0011
FFDF
FFCC
0007
0005
FFBF
001E
0013
FFD0
FFFB
0022
0005
FFF0
FFE5
0011
0043
001A
FFBF
FFFA
003C
FFC2
004B
0045
FFBF
0043
FFEB
0035
FFF3
FFF7
0015
002A
FFB8
000E
FFD0
FFE8
FFE9
FFFB
FFE7
FFC4
FFCA
FFB8
FFFB
0046
FFC5
0045
0024
0015
0016
0032
FFC4
0001
001E
000D
0033
FFBE
001D
0005
FFED
FFE7
0013
003C
FFFF
0032
FFF1
FFC3
FFBD
FFBB
FFEE
FFE7
0021
0025
FFBB
FFD5
FFDD
0007
FFC9
FFC8
0044
002F
FFCF
FFF2
FFEA
002D
0002
FFC7
0025
FFF0
FFDC
FFED
0000
FFE8
FFD8
FFF0
FFB6
002A
FFCD
FFBA
0018
002A
0030
FFFF
FFD3
0024
001F
FFD9
003E
FFC3
004A
0037
001D
0043
0022
FFD0
FFF7
FFBE
FFEF
0025
FFEF
FFE6
000F
0039
FFBB
FFEE
FFCC
001E
FFC3
0019
FFDF
FFD2
0043
FFB6
FFF6
FFB7
FFFD
0000
FFE5
FFC8
FFED
001A
002B
0005
000E
FFD2
FFDF
FFCC
FFD9
FFD6
0003
000A
0044
FFD1
0016
0031
0009
FFDA
FFDC
FFB9
FFE2
0026
FFBA
FFD5
0020
002B
FFF9
001E
FFEF
FFCC
FFF0
000C
0045
FFBE
0001
FFE6
0001
FFB7
FFE3
0031
0008
FFF8
FFDF
FFE1
FFEE
0034
0048
FFF7
FFF0
0035
FFF5
0008
FFD7
0025
0005
002F
002B
FFD4
0021
002E
FFE8
FFCE
FFB4
FFF8
FFE9
0008
FFD0
0037
FFDB
FFD6
FFFD
0000
FFD4
FFDD
FFCD
0022
0029
FFFA
0021
0024
FFC8
0048
0031
FFD3
FFD0
FFC7
FFC8
0026
FFFB
002B
0026
0010
001D
FFB6
FFE3
0015
FFB5
FFB8
0036
001C
FFDC
001D
002D
FFE2
FFB9
0042
FFE8
FFC4
FFFF
0029
FFD5
FFDD
FFD8
004C
FFD2
000C
0041
FFCA
0048
0045
003B
FFD4
0015
0028
004B
FFCF
0029
FFE7
FFCE
FFF4
002D
FFFB
0006
004C
FFF1
0012
FFEB
FFF0
001E
0043
0007
0029
FFC1
FFD4
0000
FFB6
FFDA
0003
FFB5
FFDC
0002
000B
0041
0016
FFF3
0042
002C
FFD2
FFC7
001B
0009
002C
0025
0013
004B
0005
FFC5
0032
FFDA
002B
0046
001E
000F
FFFA
FFEB
FFE9
0015
0027
001B
FFD2
FFFF
002D
FFFC
0006
002A
0019
FFF2
003D
FFCC
004C
FFC5
FFB5
003C
FFD9
0023
0030
0037
004C
FFE0
0020
FFC5
FFF2
0035
FFEC
000E
0001
0016
0049
FFBC
000B
0038
FFFD
FFBF
0009
FFE6
FFCB
0036
0003
0043
002F
001E
FFB4
FFF5
FFD2
003F
FFCE
FFDF
0003
FFDC
FFD3
000F
FFC1
FFBC
FFEC
0022
0008
FFF4
000A
FFEB
0043
FFBC
001B
003C
002F
FFCF
FFE1
0021
FFC0
0030
0022
0023
FFC3
0021
001C
0033
FFBA
FFB7
FFEC
FFCA
0009
0040
FFEF
0035
FFB3
FFCD
FFB8
FFE6
003F
FFC2
0010
FFF9
0043
FFC6
FFD4
FFB8
FFF6
FFDE
0039
0010
0012
0005
FFC1
FFF8
004D
0033
003C
0032
FFC3
FFD6
FFB4
FFE2
FFC4
FFFC
001B
003A
0026
0043
FFBB
FFB5
0019
FFE0
FFDA
FFE6
FFDD
0002
FFF7
0002
001B
FFEF
FFDA
FFCD
FFE9
0025
0027
001A
FFD7
000E
000B
FFFE
0008
FFFF
000A
0021
FFC4
0026
FFC8
FFBD
0049
0046
FFBC
FFF7
FFD0
FFFE
0033
0045
0015
FFEA
0010
FFE3
003F
0039
0009
FFE5
FFE0
FFB8
0031
FFF8
FFE5
FFFC
0031
FFC6
0037
003D
0045
FFF0
FFD5
FFED
FFE6
FFCE
0010
FFFC
0038
FFB8
0016
0028
0028
003B
0023
0042
FFE6
0000
FFB5
FFB4
FFD8
FFC3
FFDB
FFCE
FFB8
003F
FFB4
0024
FFCB
003F
003C
0018
001A
FFB4
004A
003A
003D
0018
FFE8
003C
FFE0
000A
FFC3
0041
FFC9
FFD6
0009
0029
0012
FFD7
FFB3
0027
004B
0030
FFFA
003E
FFF2
0004
FFFC
FFF8
002A
0004
FFE4
FFDB
FFB9
000D
FFD7
FFCA
0018
001C
0027
0001
003D
0043
002F
0015
FFE2
004A
FFDD
FFD2
FFF7
FFBC
0049
000E
0009
0018
0000
FFB8
0011
0021
FFF3
0028
FFD6
FFD5
FFCC
FFEC
0035
0032
FFEE
000E
0022
FFD8
FFCD
0049
0012
004A
FFE7
001F
FFD5
FFDB
0002
FFE4
FFCD
FFDC
FFB9
001F
FFFF
FFC2
FFCE
FFC3
0011
FFC2
0027
FFB6
FFDA
003C
0022
FFBE
0031
FFFF
0035
000F
001C
004C
FFD7
0013
FFFA
FFB9
FFB5
FFC6
0017
000A
0008
FFB8
FFFB
0041
FFF0
0013
002B
002C
0003
0037
FFEF
003C
FFD8
FFDE
FFBB
002D
FFF3
FFD6
FFD7
003E
0033
0008
0012
FFFC
FFEF
0040
FFC6
FFF3
FFE8
0000
FFF9
0003
FFC9
0002
FFD8
FFD0
FFBD
0028
FFF5
0013
0023
001C
FFFB
FFEF
FFED
0016
FFFF
0036
003A
FFCD
FFC8
0014
FFE1
FFB6
003C
FFD6
0042
0021
0028
FFD2
FFD7
0003
FFCE
FFE2
FFE5
FFCC
FFD3
002C
FFCD
FFB8
0014
0049
FFE6
FFC5
000B
003E
002C
0013
FFE4
0006
FFC1
001B
0023
0047
FFDB
FFB6
0007
0020
002D
FFD1
FFDB
0002
FFE6
0037
FFFC
002E
000C
002A
FFE6
0033
FFDD
0007
FFD4
FFFC
FFE4
FFDC
0048
FFCC
002C
004A
FFB6
001F
FFDA
FFB9
FFF1
0043
FFB5
000D
0000
0039
FFC0
001C
001C
001A
0044
0032
FFBA
FFFC
FFF0
FFE3
FFF9
FFEE
FFF6
004A
FFC1
0041
FFFD
0013
0033
FFEB
FFF5
FFF2
FFED
0041
0033
FFC4
FFC4
FFF5
FFC2
0012
FFC9
0003
FFB4
FFE4
001B
FFFE
0049
0039
FFEA
FFBA
0035
003F
0031
FFC7
004C
FFDB
0022
003F
FFD7
003F
FFE3
0049
FFDE
0046
FFBB
0020
0005
FFFD
FFD6
0020
FFD1
0008
FFDA
0046
FFB8
FFD2
FFD8
FFF3
FFD7
FFFF
0039
0021
000C
FFC1
001E
FFCD
002C
FFDA
FFF3
FFE9
0037
FFC7
000A
FFC9
001F
003E
FFF6
FFFE
0042
0003
FFFE
000C
001D
FFC4
0031
FFF6
FFBE
002C
FFED
FFC3
0015
003A
003C
0046
0038
FFB4
FFEE
0031
FFEB
0010
0010
FFEB
003E
0000
FFFB
004C
FFFF
FFCF
0002
0030
002B
002C
0020
FFDA
0038
003C
FFD1
FFC7
0049
0039
003C
003B
0006
0016
0007
FFBB
0026
0001
0017
0000
FFFF
FFCE
FFDE
FFCC
FFD1
0049
FFCB
FFDD
000E
0011
FFCB
002D
002C
FFD8
FFE0
0043
0032
001E
FFC0
FFF3
0009
FFD0
FFF8
0010
FFE5
002B
0034
FFE5
0034
FFC3
0034
FFCB
FFC0
0016
FFFC
003F
FFEB
FFDF
0000
FFF9
FFE8
001E
0028
0036
0049
FFDC
0021
FFF0
001B
FFFC
004C
0023
0046
0033
003E
0030
FFFA
FFDA
FFEC
FFB6
0004
0001
0004
0049
003F
FFCC
FFEC
FFF4
FFEB
002E
0004
000B
0036
002F
FFC8
0021
FFF6
FFE0
FFBB
FFFE
FFEA
FFDA
001E
0029
FFD9
FFBB
0036
FFB5
0043
0014
FFE5
FFD9
FFB5
FFD7
FFC8
0011
FFCD
0004
000E
FFE1
FFB9
FFB9
FFB7
0025
FFE4
002E
FFF6
FFF9
0002
0021
FFDD
FFC6
0009
FFE5
FFF7
0017
FFFF
0012
0007
0025
0020
0005
001B
0039
FFF6
FFF3
0029
000D
FFBE
003C
FFB8
0026
0028
0046
FFBC
000F
FFF5
FFE6
FFC1
000A
FFFD
FFC3
0011
0025
0029
003E
FFF2
0046
0038
FFE1
FFCC
FFF6
FFF1
000C
000D
0026
0002
FFC3
0037
FFE3
0048
FFC5
0046
FFC1
FFD7
FFBA
0020
0036
FFF6
0042
000E
0014
0035
FFE1
FFEA
003E
003E
0049
003E
FFC7
0032
FFF2
004B
FFFC
0008
0005
FFE5
FFBF
003D
002E
FFC9
002B
0013
FFF2
FFDA
0037
001F
0007
0011
FFC1
FFFC
FFD1
FFD3
0019
003F
FFF1
FFD3
0017
0039
0026
0039
0006
0027
FFC9
FFE9
FFEF
0002
0042
0039
FFC8
FFCE
FFEA
FFE0
0012
003E
0047
0018
0034
0004
FFD3
0004
0008
0025
FFD5
FFEC
FFEB
0047
FFF7
0027
0027
FFDC
000B
003D
FFFC
0044
FFD4
FFBF
003C
0035
004C
001C
0043
0032
0035
000B
FFEE
0043
FFF6
0006
FFF8
000A
FFFB
FFBB
003B
FFF7
000E
FFC9
FFB4
FFD9
001F
FFC2
003F
FFD4
FFD3
FFCF
FFB5
002A
003A
0012
FFD0
FFDF
FFFC
0046
FFD9
0024
FFF7
FFE1
FFF9
FFBE
002E
FFD9
0023
FFBE
0046
FFD1
003B
0030
0048
FFFD
0023
FFEC
FFD0
FFF7
FFCD
004A
FFC2
000E
0013
0006
0019
FFC5
0008
FFDF
0044
0028
0049
FFB9
FFDF
FFD1
FFB5
FFD8
001B
FFD7
0001
003C
001E
FFF0
FFEC
FFF9
FFCE
0015
FFEB
0036
0027
0011
FFEB
FFD3
002A
FFFE
FFD6
FFD1
FFCD
002B
FFD6
0004
FFF9
000C
003A
0038
FFF8
FFB6
FFF5
0010
0009
0017
FFCB
0017
FFCF
0026
FFE7
0020
FFBB
FFF2
001F
FFD6
002D
0014
000D
FFEA
FFFD
000F
FFFC
001E
FFF6
FFD2
FFD4
FFB4
FFE1
0026
002D
FFD2
0047
0000
0040
0020
0022
FFC0
FFD5
FFB5
0021
FFE8
002C
FFE7
0031
FFC7
FFCE
FFE8
FFF2
FFE9
0028
FFC2
FFE9
0034
FFBD
0044
004B
FFC1
FFE0
FFEC
002A
000F
0016
0028
FFC5
0033
0020
000C
003C
001F
FFD2
FFF5
FFFF
FFBC
0046
FFC7
001E
0001
FFB7
0041
0036
0004
FFD6
FFC6
FFEB
FFDA
0001
0048
000C
003C
0017
FFFC
0036
FFFC
0039
FFE0
FFC7
0037
000D
003C
0043
FFBB
0000
FFED
0013
002D
FFDE
0009
0020
FFC8
0030
0010
0045
FFE7
FFC4
0001
FFC0
0048
FFB9
0027
0004
FFEC
FFBD
0013
000D
FFDE
003F
FFE2
FFF8
0007
FFC3
0042
FFED
FFC0
FFEF
000F
0002
001E
FFBC
FFDF
0031
FFBF
0037
FFC1
0033
FFEB
0011
FFCB
FFBD
FFD4
FFC7
FFE3
0002
000E
002D
0018
0011
FFF2
FFFC
FFF3
0035
FFD7
FFB4
0017
FFD2
003C
0037
FFBF
FFC4
FFFF
0011
FFDD
0021
000F
FFE5
FFB7
0026
FFD4
0033
FFF4
000C
0039
0038
FFEC
FFD3
002A
FFF6
FFD1
003E
FFD2
FFB7
FFB6
0013
0019
FFE3
FFE4
FFE7
001C
FFBC
0042
FFD5
004D
FFCE
002A
FFD6
FFC0
003A
0037
FFF1
001F
0009
0036
FFE4
0004
FFFE
FFEA
003C
FFCD
FFCA
000C
0018
FFD1
FFEF
0045
FFD9
001A
0025
FFF8
0043
0024
FFFA
000B
001E
000E
003A
FFEA
FFE1
FFD4
FFB9
FFBA
0039
001B
0019
0012
0036
FFFD
0039
FFEA
0042
001F
FFDB
000A
0005
FFC8
000E
FFE4
FFBB
0045
0016
003A
001B
FFEA
0002
001B
0047
FFDA
003A
0041
001A
0042
FFF0
0046
001F
FFBA
003E
FFFE
FFFA
000A
FFCA
FFFB
0033
FFB6
FFDD
FFB4
FFF3
0023
002E
0044
0011
FFDA
0041
002A
000B
001E
0041
0021
FFEC
0021
FFB9
FFEF
FFF2
FFCD
FFB7
FFC8
0018
002E
004B
FFE8
000F
0043
FFCD
0021
0027
FFC1
0037
0030
FFB8
FFC1
FFBB
FFE7
0001
0005
FFDC
003F
FFEC
FFBA
FFE1
0005
FFF2
FFDD
FFC7
0031
004C
FFE6
FFEE
0012
0022
FFEF
003E
0009
FFF8
0017
0046
002D
FFB9
FFE6
FFFB
FFE4
001F
0032
0024
004B
FFDD
003A
0029
FFEB
0024
FFC3
002C
0005
FFE0
0018
0016
FFD3
FFB8
FFF6
000B
003A
0042
0004
0027
FFF7
0026
FFD3
FFEC
0015
FFB6
0022
0034
FFF1
FFF8
0036
002A
FFDF
FFE5
001B
000A
FFCC
FFE3
003D
001D
004B
0029
0044
FFD4
002A
FFB6
001A
FFFB
FFE8
0038
0036
FFB7
0011
FFEC
FFF3
0033
FFE3
0044
FFCF
0019
001A
FFDA
FFE5
0033
0028
FFE6
0005
FFBD
FFD3
FFFE
FFC0
0035
0021
0044
001E
0044
0008
000F
0049
0016
FFB8
0022
003E
002D
000D
001A
004B
FFC1
001A
FFDF
0016
0011
FFCB
FFD3
0013
FFC7
FFDC
0033
FFE5
FFFE
0044
FFD6
FFEF
0010
0027
003E
0040
002A
FFD6
FFB7
FFEE
FFC9
0020
0019
FFBA
0034
FFD9
FFF6
001A
FFF5
FFF7
FFBD
FFF1
0029
0040
FFF3
FFF4
001F
0044
FFDC
FFF7
002D
0011
FFC4
0014
FFD0
0002
0004
003A
FFFA
FFDE
FFD7
0039
FFCD
FFF5
FFD0
002A
FFFC
FFE9
FFEB
0036
0008
0021
003D
003E
FFE6
0045
FFB7
FFED
003D
FFDD
FFDD
FFE2
0011
FFF7
0023
003D
001B
FFD3
0042
FFDC
FFCA
FFC1
000A
FFC5
FFC9
FFE1
FFDE
0010
0031
0028
FFDC
FFD9
0048
FFB4
003A
FFD2
0045
FFE8
FFF7
0020
000D
FFE4
0008
0023
FFBA
FFB5
FFFA
FFC7
0019
FFD4
FFF6
FFD2
0007
FFC5
FFB7
FFBB
0046
FFC9
0020
FFBE
FFC4
0001
FFFB
0045
0044
002B
0010
FFF9
FFEA
0045
0010
000C
FFD7
FFBA
0044
FFE3
FFF7
FFC5
0034
FFB7
0033
FFC9
003B
0023
FFCC
000A
FFE3
FFCF
0037
FFF1
FFF0
FFCD
FFEE
0039
FFEB
0045
0045
FFC9
FFCE
0038
FFF0
FFB4
FFDD
000F
002E
FFC8
FFC4
0041
0027
000E
0029
FFF5
0028
FFEC
FFD9
0023
FFF4
004A
FFE9
0041
0043
FFD8
002E
FFF6
0040
FFF8
0026
FFFB
FFD6
FFD2
FFF5
0027
0010
001D
FFDF
FFFD
FFBA
0031
004B
FFF2
FFB5
FFCD
0017
0011
002C
FFDA
0028
001D
FFE5
0007
FFCA
FFF9
003B
FFF4
0034
000E
FFD1
000C
0001
FFF0
FFC6
FFF3
FFBE
FFC2
FFF3
FFE2
0041
FFED
0028
0005
001F
FFDB
0044
0005
0033
FFEB
FFC3
001B
FFB4
FFFC
FFD1
0014
004A
FFFB
0031
0001
FFFF
0042
003C
002C
FFE1
0007
FFD6
FFF7
FFFE
0033
003D
FFF3
FFB6
0038
FFCE
0013
FFB7
FFF1
004B
FFC3
FFF4
FFE2
003E
0039
FFD8
FFC0
0014
FFE7
001A
FFB8
FFC8
001D
FFD4
0037
FFBC
FFD4
004D
FFF6
001F
FFCF
0011
0023
FFE4
0033
0010
FFEF
0009
000C
FFCD
FFF1
FFE8
FFF1
0028
FFFD
0044
FFE0
FFF3
002C
0007
0007
FFBB
FFF0
FFDD
004D
FFE3
003B
001B
FFE8
0007
0034
003B
FFCC
FFE7
FFE7
FFBA
000F
0037
FFEE
0025
0014
FFED
FFC9
0020
0036
001D
FFB6
FFD4
FFBE
000B
0027
FFC4
0034
0009
001D
0048
FFC0
003E
FFC7
FFF0
0036
003E
0001
000E
0020
0033
FFC6
0030
FFFD
FFF8
FFF4
0001
0044
0007
0046
FFCF
0022
0030
001C
0010
000A
0037
0031
FFC6
0036
FFF3
FFDA
0039
FFF6
002F
FFDC
FFB4
FFFF
FFC3
0027
FFDE
FFF7
FFC1
FFDF
002B
FFCA
0017
0040
001C
0030
FFC4
FFDA
003D
0021
0015
0019
FFF3
FFBA
002C
001B
FFFC
003D
FFE7
FFE0
0039
002E
0002
FFC7
FFD4
0018
FFEE
0034
0045
002F
FFED
002C
FFE9
FFCD
FFB8
FFEE
003E
FFD8
FFD3
0048
FFB7
002C
FFE5
FFB9
0040
FFC9
0008
FFDD
FFBD
FFBB
FFC5
FFBE
0028
FFFE
FFE8
FFF3
0042
003F
0021
003B
FFE4
FFEE
0011
0013
FFFD
FFF1
004B
0031
FFF6
0023
FFDD
FFC3
FFE9
FFF1
FFB6
0030
FFEA
000C
FFBF
FFCE
003C
0011
0045
004D
FFEC
FFE1
0037
004D
0014
002D
002B
FFEA
000B
0033
001D
FFB6
FFE7
FFC9
FFD7
003E
FFB9
FFD5
FFE3
0012
0005
FFD5
FFCC
FFD8
0000
FFDD
0045
FFFA
FFBC
0023
FFE6
0018
FFDE
000B
002A
0042
FFDB
FFE7
FFFB
0042
003E
FFC1
FFC7
FFFF
FFC4
FFE8
FFCA
0015
0045
004C
FFED
000F
0037
FFC5
001D
FFF2
FFD3
FFF1
FFBF
001E
FFDA
FFE3
FFC6
0038
FFFF
000B
000B
FFF2
FFD1
0026
FFC7
FFC3
0020
FFD3
FFE2
FFFC
FFF8
0020
0013
0016
0021
FFE0
FFE5
FFF6
FFE2
004A
0030
FFCC
FFB4
FFBA
FFD9
FFC5
0005
0037
0024
FFD4
FFF1
0001
0030
0034
003F
0001
001E
FFC4
000A
FFD9
FFF6
0015
FFDB
FFBB
FFB5
FFB7
FFB4
FFC4
FFD8
FFD5
004B
FFE2
FFC7
0007
0037
001B
FFE1
0009
0021
0023
001A
0039
0039
000C
FFF5
0016
0031
FFB4
004C
FFCF
FFFB
0039
FFD6
FFFC
FFC8
FFF0
FFCE
FFEB
FFED
004C
004C
FFC5
0023
FFBB
FFB8
FFC3
0047
0044
FFD1
FFCC
FFD8
0002
000B
FFD5
0027
FFE3
0041
0018
FFF6
002D
0031
FFE0
FFE7
0043
FFCD
FFBA
FFF9
002E
002A
0040
0005
FFC3
000E
002B
FFC2
FFCE
FFB5
000E
003B
001A
004A
FFBD
003E
0030
FFE3
0049
FFDF
003C
003A
0028
000A
FFC6
0005
FFEA
002D
0028
003F
FFB5
002F
0043
002C
FFC7
FFC0
FFB6
0014
0014
004B
FFF0
FFE6
0013
0032
0043
002F
FFF5
0015
0037
FFFF
FFD4
FFCD
FFB3
0022
FFC4
FFD9
FFE1
0009
FFF0
001B
FFBC
FFC6
0000
FFE7
FFE1
FFBD
003D
001D
FFC6
FFBD
0049
001C
FFF3
001F
0027
002B
FFFD
FFF5
FFB5
0042
0010
FFD2
0040
0040
004B
0039
004C
FFD9
0035
0032
FFD7
FFC2
004A
FFE1
0039
FFB4
FFB6
FFFB
FFD8
001D
000A
FFBF
FFCC
FFEF
FFD0
002D
FFF3
FFC2
FFFE
FFC1
FFC7
FFD8
0037
0041
0032
FFE7
FFDD
0008
0022
004C
FFC7
FFBB
001E
0033
0035
001B
0046
0002
0040
0048
0035
FFE3
FFD1
0007
FFF9
003A
FFC3
FFDB
0027
FFC2
FFE4
FFEF
0013
FFCB
0037
FFF8
0040
FFFB
FFDD
FFC9
FFB4
0005
FFC4
FFEF
000E
FFDE
FFCE
002A
0045
FFC3
FFCB
0047
FFB9
0049
FFB4
0039
FFE2
0043
FFE4
0018
FFBF
FFD8
002A
0004
0042
FFF5
0039
FFF8
004A
0047
FFE6
003B
0035
FFD4
0013
FFBE
0034
FFCE
FFBE
FFF1
000C
0037
0049
FFF7
FFBC
0026
000A
FFF8
FFE3
0000
FFE7
0027
0007
003A
0007
FFD8
0036
0009
FFD3
0013
FFEA
0035
FFF9
0023
FFC2
FFF0
004A
002F
FFCC
FFDE
FFE6
0017
0027
0026
0002
0030
FFF6
FFC6
000A
0045
002D
000C
0017
0042
FFF5
FFE6
0049
0038
FFE5
FFFA
FFF3
FFCA
0046
FFF1
003A
FFD0
0007
FFB7
0029
000C
0013
FFBB
FFD4
FFBF
FFE0
0014
000A
0011
0008
FFDD
FFD9
FFC8
0036
0012
FFD0
FFCE
0039
0025
0018
FFF2
FFDB
004A
002E
FFE2
0035
0028
FFE1
FFF5
FFD0
FFC4
0022
FFDC
0031
004C
FFBF
FFFC
002E
002C
0028
FFE9
FFF9
000F
0049
FFE6
0041
FFDD
004B
001A
FFFA
0011
FFDD
FFDD
FFC5
FFC5
FFE9
0028
0011
FFC3
0036
0010
0047
001A
FFCE
FFFC
0017
FFB8
FFB5
FFC7
FFDA
FFF5
FFFE
FFC8
001B
000F
FFE0
FFB5
FFBF
FFEF
FFCB
FFED
0014
0007
FFD7
FFE8
0012
0037
0027
0008
FFEB
FFEB
003A
FFB9
004B
0019
001C
FFB9
0010
FFFE
FFC3
FFDE
003C
0008
FFF3
FFBE
0021
001F
0012
0002
FFF6
000E
FFD7
0044
000E
FFE3
FFF8
002F
FFCC
FFE0
001C
FFE4
002D
FFC7
0028
FFBE
FFB5
003D
000C
FFE9
FFD7
0012
0001
004C
004A
0015
FFF7
FFFF
001C
FFC3
FFE6
FFBF
FFBE
FFD1
FFFE
002C
FFFE
FFE7
FFC0
0008
FFDD
0012
0049
FFC4
FFD4
FFFC
0048
002A
003D
FFE6
004C
FFC3
FFBB
0037
0042
FFC1
FFC5
FFB8
FFC3
FFD3
0048
001A
002B
002A
0005
002E
000F
FFE4
0009
0005
0032
004A
FFF2
0028
FFC3
002B
FFEC
FFB9
FFEB
0011
FFC6
0041
FFBF
0042
0020
FFE6
FFEF
0025
0010
001A
FFEF
FFFE
004B
FFD4
FFF3
FFE0
0029
0029
FFE0
FFC0
FFB5
FFF5
FFF2
004B
FFFB
FFDB
003C
FFFF
000F
FFC2
FFEE
0044
000E
FFE8
0013
003F
FFDD
0001
0046
FFCE
0022
0012
001C
FFE9
FFE3
001C
FFD4
FFF4
FFD0
FFB4
0048
FFF6
0048
FFC9
000D
FFD2
002D
002C
FFC4
003F
FFD1
0011
004B
003B
0046
FFE8
FFC3
FFD0
0000
002D
FFCA
0019
FFE5
FFE8
0019
FFFB
0030
FFCB
002D
FFBD
FFD1
0018
0037
FFDA
FFE5
0006
FFD4
0030
002A
FFCA
FFFA
002A
FFE7
0014
FFBB
0011
FFCB
0033
FFEA
FFDE
0034
FFBB
FFF0
FFEC
FFDF
003F
0027
FFBD
0021
0004
003E
FFE3
000B
0000
FFFE
FFF9
FFD3
0027
FFF9
0046
FFDB
001C
0044
0019
0039
0032
FFEB
000F
FFCB
0005
FFD7
0025
0004
FFF2
FFDC
004D
FFBE
FFBA
FFD5
0048
004A
0018
003A
FFD4
0049
FFC9
FFC3
FFC4
000B
002B
FFEC
0049
FFF6
FFCA
FFFB
001C
0033
FFFA
000E
FFDC
0016
004B
FFBB
003B
000A
FFDA
0046
FFFD
FFE6
FFCF
FFD9
0033
0012
003F
FFD7
FFC6
FFB4
0001
004D
001E
FFE3
003A
002B
FFB6
0031
FFE1
FFCA
FFD6
FFFB
FFF4
FFE0
FFCE
0028
004B
002B
FFE1
FFD9
FFD5
FFC8
0008
0010
0020
001C
FFE0
FFE6
001C
FFE9
FFD4
FFED
FFDD
FFC1
