003E
0014
FFE7
FFE9
0023
003D
003B
002B
0016
FFC0
FFCC
003D
0010
FFB5
FFC3
0019
FFB4
FFCC
0007
001D
0017
FFD6
0021
FFD8
FFE5
0026
0017
0036
0018
000A
FFC2
FFEC
FFDC
FFD9
0049
FFF0
003C
0014
002D
0000
000C
FFFF
FFD1
0022
FFDE
FFB7
0016
FFCE
0044
0046
0040
FFEC
FFB6
0042
FFF5
0048
0047
0036
FFE0
FFEE
0036
FFE4
FFCD
0009
0043
001E
000B
FFC2
0012
004B
FFC9
0003
003A
0025
001E
001F
FFEA
FFE0
0030
0030
0038
003F
0002
0000
002E
0017
001F
002D
003C
FFE7
FFED
FFC2
000C
FFB9
FFFB
0007
FFDF
000E
FFB8
FFB9
0032
FFEB
FFC7
0003
0029
FFD4
0013
FFC0
FFBB
0005
0006
0015
0023
0049
0003
FFE5
002D
FFDD
FFF7
FFBF
FFB7
0047
0034
001E
FFF2
FFCE
FFCB
FFDA
0008
0021
0019
FFDE
0046
0025
0008
0011
FFF4
FFD9
FFEA
0028
FFB5
FFC5
FFBA
FFB9
0037
001F
FFFC
FFC2
FFFF
FFFC
FFCE
FFF6
FFF0
0012
0015
FFBA
FFED
0013
0000
0037
0018
FFCC
FFBE
0016
FFB7
000D
0044
000C
FFEF
0016
FFFA
0007
0044
FFEF
0047
003E
FFD1
FFBE
FFC3
FFB6
FFC2
001C
FFBE
FFE4
0035
FFB7
0030
FFDE
FFC5
001E
0014
003A
0024
002F
FFDF
FFCE
0026
002F
004B
FFF3
FFEC
002A
FFE8
0042
0037
FFF5
0027
0027
FFC3
003E
0001
0032
FFE4
003D
FFEF
FFB5
003E
FFC1
FFE4
0045
0045
000B
0014
FFF8
FFE0
FFE6
001A
0027
002D
002C
FFC1
FFFF
FFBC
0008
FFF7
003C
FFE9
FFC5
FFC9
0028
0012
FFC3
FFC0
001F
FFBE
0031
0020
FFC0
FFC0
004B
FFED
FFEC
0030
0045
004B
0027
FFED
FFC0
002B
0009
FFF4
003E
FFC4
FFFF
FFB5
FFFB
FFBC
FFC5
FFC5
0017
0026
000D
0047
FFED
FFDF
0039
FFD6
0047
FFB5
0048
FFBA
003C
0004
004C
FFBF
0008
0048
0004
0014
001E
FFF9
0014
000D
003E
FFBA
FFDE
0045
003C
FFF9
0012
FFDE
FFD0
FFFA
FFE9
000D
FFBF
0049
004B
001E
0006
FFE3
0030
001C
FFCC
003F
0032
0045
0023
0011
FFF3
0042
0038
FFBA
FFB7
FFED
0030
004B
FFCA
000E
FFEE
0048
0035
0034
FFFB
FFF3
FFDD
FFBC
0038
0030
004D
004C
0009
0029
0044
0036
FFD9
FFF8
FFC7
0046
0010
FFD6
001A
0012
FFEA
FFC5
001A
0003
002A
0003
0036
0008
0009
003A
FFF1
FFC8
FFB8
0027
0012
001F
FFD4
FFC8
FFB5
FFE9
000E
FFEF
FFF6
003E
FFE9
0002
002C
FFF0
0013
0038
0045
FFCA
0042
FFFF
FFDB
FFFA
004A
FFFF
FFE6
0014
FFD8
FFBF
FFC7
FFC7
FFCB
FFC9
0016
FFCF
FFE8
003D
FFFC
001A
FFCE
FFD1
FFB9
FFCD
FFDE
FFCE
FFC1
FFC6
FFFA
FFD3
FFEB
0001
001D
FFB9
002E
0014
FFC0
0039
0041
FFBD
FFDE
002F
0026
FFD0
FFD3
FFEC
FFFE
0012
FFEC
FFFA
0026
FFB9
FFDA
0021
003D
0002
0005
FFC4
FFF8
0005
FFD8
FFDD
FFED
FFB6
FFE5
FFD4
FFE6
FFC6
003C
000E
001C
002C
0000
FFC1
0006
000D
0026
FFF6
FFC7
FFDF
FFEB
0016
000B
FFEA
004B
0010
FFD8
FFC3
FFCB
FFD9
FFCC
FFD0
FFDF
FFCE
003D
FFC0
0004
FFF2
004A
FFC4
FFF0
0048
0038
0031
FFDB
FFCD
001A
0042
0009
000B
FFDE
0029
FFD0
FFE5
FFF5
0001
FFD8
FFC5
0011
FFE0
000C
FFCB
FFFD
0005
FFBB
FFE7
FFC8
FFBD
004B
FFE5
0030
FFDA
001C
0028
000F
FFFC
FFF2
FFE9
0042
0033
0047
FFC6
0023
0043
FFCF
FFBD
0025
000B
0035
FFC9
002D
FFD2
FFCC
FFCC
0030
0019
0004
FFEA
003A
FFEF
0031
FFF7
FFED
FFFA
FFE1
0026
0000
FFD7
003D
FFEE
0007
003E
0013
FFC5
0044
0014
FFE7
FFC9
002D
0012
0005
003D
002C
FFCA
FFE3
FFD9
0025
FFB8
000B
0028
003A
FFE8
0031
FFC4
0035
FFC7
FFF0
002E
FFCA
FFD6
0022
0022
0016
001E
0007
FFDA
FFE8
FFCF
003F
000D
FFF1
FFFA
0045
FFCB
000D
0001
0011
FFB6
0039
0042
000A
001E
0041
0020
FFCB
000C
0010
FFF4
0024
0043
0041
FFF8
FFC5
004A
0034
FFC6
0041
0039
0003
000E
FFF0
FFBC
FFE7
002F
FFB4
FFE6
FFF0
0006
0040
FFE8
FFE8
0024
FFF9
FFD6
FFF9
FFC9
FFCE
0000
FFF4
0040
FFEB
000C
0014
FFB5
0019
FFCF
0047
FFCA
FFF3
FFC0
004C
0000
000F
FFBE
0026
FFD3
003D
FFD3
FFD0
FFB9
FFFC
000A
FFBD
002A
FFF9
0004
FFF7
FFF1
0009
FFCB
FFCF
0038
0045
FFED
FFDD
0016
FFF2
FFB7
FFCB
0021
0018
FFB7
FFD5
FFD7
001A
FFB6
FFC3
002E
FFCF
0017
FFD8
FFC2
FFD9
0022
0037
0033
FFF0
001A
FFD3
FFE0
003D
FFB5
FFC0
FFD3
FFB7
FFCF
000D
FFF4
003C
0031
FFE8
FFDB
FFEE
000E
FFDC
0013
FFF2
0008
FFF6
FFE0
0045
0028
FFC9
0039
FFFE
003D
002E
FFF5
FFB7
FFDC
0006
0015
FFDB
FFC9
0033
004A
0004
FFCE
FFDD
FFB6
0040
FFC5
000C
FFDD
0008
0017
0033
FFD3
FFB5
FFC8
003D
0039
000F
000F
0019
FFCE
0040
FFF4
FFEE
0003
FFBA
FFCD
0025
FFC0
0010
FFD9
FFEF
FFE0
FFEA
0022
FFE1
000A
FFFC
0019
0043
0024
FFD4
FFB8
FFDB
000F
FFBB
FFFF
000F
FFE7
002A
FFC4
FFBF
0023
FFFF
001D
FFF6
FFD9
0031
002E
001E
FFDD
000E
FFEB
FFC1
0040
FFC8
0045
FFF8
FFD0
0006
0039
0024
002F
0018
001E
0036
FFDA
FFFE
FFD5
004B
0044
FFB9
0020
0041
FFCF
000A
0040
FFB8
001E
FFE1
0041
0048
0044
FFFC
0038
0035
FFE4
0033
FFB9
000F
FFD7
FFC6
FFBF
001E
FFE7
0023
FFBD
FFE4
0006
002D
FFE4
0013
003B
0012
FFD7
FFB7
0039
FFB6
003A
0004
0043
002E
004C
FFE9
0029
FFF1
FFFD
0014
0039
004A
0029
FFF3
FFF4
0024
FFD8
FFC4
FFEA
FFDF
FFE1
FFD7
FFBA
FFB6
004B
FFF5
FFEE
001C
FFD5
0045
002C
FFC1
FFF3
003A
0044
FFFB
0011
FFCD
004B
FFD7
0044
0017
0011
0002
FFD7
FFCE
FFD5
FFD0
002B
FFE9
FFBC
0048
003B
0042
004C
FFCE
FFF0
0028
001E
FFCB
0031
FFD6
FFD6
0006
000E
000C
FFC1
003A
FFDC
FFC7
003C
0046
0038
0030
0018
0008
FFC1
FFF2
FFEC
FFDB
0022
FFFF
FFC0
FFD5
001C
FFBF
0036
FFFF
FFFD
000E
0032
FFE9
001B
000A
FFDC
003A
002E
0018
0036
0038
0020
0034
001E
001C
0012
0027
FFCC
003B
0039
FFB8
0032
FFC7
FFE7
0025
FFCC
0031
0033
0001
FFB4
FFDF
0012
004A
0014
FFDB
0015
0006
002B
FFC4
0028
0006
0047
FFE8
0014
0042
FFC3
0043
001D
FFBE
FFE1
0020
FFBE
000D
FFE8
0013
FFBA
0039
0049
0048
0026
FFC7
0028
FFB7
FFB7
FFE5
FFFE
002A
001C
FFF8
FFDD
004C
FFF5
FFF9
FFCC
002D
001E
FFD5
FFC0
001C
0018
FFDD
0045
FFCA
FFF6
0044
FFF4
0015
FFF0
FFDD
004A
FFF2
003D
FFD7
FFD4
FFB8
0017
FFEC
0038
FFFC
0048
FFD0
0039
002A
002A
0035
0028
0013
FFC7
FFB8
0041
0012
002E
FFFD
FFC5
FFC6
001D
FFF5
FFD2
FFFF
FFBD
000D
FFDD
002E
FFE3
FFF9
FFB5
FFBE
FFEF
FFFD
000F
FFE0
001E
0037
002B
FFB9
FFFD
FFC3
FFD8
004B
FFC9
0000
0012
001F
0009
FFB5
FFE5
0003
FFC1
FFE9
FFB8
FFBF
FFF0
FFC8
000A
001D
002E
FFD2
FFCD
FFC3
0015
0020
FFB8
0043
FFBB
0006
0020
0039
0021
002E
FFE7
0030
FFC0
003D
0007
0031
FFF9
0016
0004
0024
FFC0
FFBC
FFD9
FFCC
0039
FFD5
0049
FFE7
FFCF
002C
0018
0000
0009
0022
FFD6
004C
0049
0017
FFD2
001C
FFBE
FFB8
FFDB
FFFA
0039
0023
0025
FFF5
FFE8
FFEC
004B
FFB9
0038
000C
FFF7
0023
FFFE
0039
003E
FFF4
FFDE
000E
003F
FFD4
0013
0014
0024
FFC7
0021
003F
FFCF
FFD8
0048
FFCF
0036
FFFF
FFD9
0039
FFF8
0002
FFEA
000E
FFCC
FFEF
0048
FFDB
0018
FFE5
002A
FFC7
0048
FFF9
FFD7
FFBE
FFCD
0003
FFE7
0033
FFF5
FFD9
0012
0020
FFCD
FFCD
FFB9
0024
0019
FFFC
0035
002F
000D
0039
FFD3
FFC4
FFDD
FFBC
0005
0043
FFB9
FFC6
FFF9
0043
FFE4
0001
FFBA
FFCA
004B
0047
FFB4
0045
0015
0039
FFF9
0002
FFFE
001A
FFC9
FFB8
FFE2
001F
FFD2
001B
0048
FFC2
001B
FFF7
0039
FFCE
001E
0034
0044
001C
0000
0012
0039
000B
FFB8
0042
001D
001B
FFD4
0018
FFF0
0017
FFC4
0018
004D
FFBB
0049
FFF2
0039
002B
000A
0025
003A
FFF1
FFE5
001A
002F
0028
002E
FFF6
0031
FFC6
0007
FFB4
FFE5
FFEB
FFF0
001E
FFEF
FFF8
FFD8
FFED
FFD6
FFBE
0010
001A
0012
FFFA
FFEE
0038
0003
FFFD
FFB7
FFE8
FFEE
FFF0
000C
0005
0011
0029
0030
0022
0046
FFB6
FFD1
FFB4
0017
003D
FFD9
0042
FFBC
0043
FFE9
FFC3
FFFE
FFDB
FFDF
FFE2
002F
0006
FFE3
0011
0021
FFDD
FFF3
FFC6
FFCF
001C
FFCF
0004
0020
FFC4
000A
FFDB
0047
FFFD
002F
0008
FFBA
0014
0045
0010
0031
003B
FFD6
FFD4
0011
FFF2
0034
003D
FFE9
FFD8
002B
FFDD
0032
FFF4
001A
FFC2
0013
FFF9
000D
FFCD
0024
0038
FFD4
FFC2
FFB7
0016
0010
0007
FFD7
FFEF
000F
0000
004B
FFC8
001E
FFF1
FFF5
0021
001E
004B
FFC7
FFC3
0022
000C
FFDD
FFBF
FFC0
003D
FFD1
FFE5
FFD6
FFEA
FFBE
0003
FFBE
002E
FFD7
0006
003A
0017
0005
FFE5
FFE6
001A
004C
0019
0009
0023
FFFB
FFBC
000A
0046
FFCE
001D
FFD2
0006
FFC2
FFF8
0027
FFE9
0019
002D
0042
FFD7
FFF1
FFCB
004C
0042
0006
0035
0003
0013
FFC1
0027
FFC7
0032
002B
0020
FFB9
FFE2
FFDC
FFEB
FFC1
0043
0008
FFE2
FFF0
FFF8
000F
0002
0040
0000
004C
0036
FFD3
0042
FFC5
0031
FFEE
003A
0039
002F
002D
FFE2
FFC0
FFF1
FFCE
001E
FFE8
0049
0016
0032
FFC8
0038
0041
FFFE
0010
0029
FFCE
0000
FFF0
FFCA
FFEC
FFBE
FFB7
FFC8
0047
0008
0048
FFF6
FFE3
0001
FFF7
FFC3
0016
FFD4
0012
0017
FFCB
FFBD
002B
FFFA
FFBC
004C
FFBC
001E
004A
FFD8
FFC9
FFC6
FFE2
FFC3
001E
FFBD
0001
004C
0030
0012
FFE2
0013
0004
FFF5
FFC7
003B
FFF8
FFD1
FFEC
FFF3
0032
0024
0029
FFB5
FFF3
FFFD
FFB6
FFDB
0028
FFC8
0005
FFD4
FFB5
FFD8
0049
002E
0047
FFFE
FFC4
0007
FFF9
0035
FFC2
FFFE
FFCA
FFE5
0024
FFFC
FFED
FFF0
FFFA
002C
003C
0046
002C
FFE4
001D
FFF6
FFDA
0034
FFB9
003E
FFFA
0015
0018
003D
0015
0012
FFBD
0003
FFCA
0024
0002
001C
FFBA
FFC0
0021
FFBE
FFBE
FFB5
0046
0024
FFE9
FFE1
FFE9
002A
0019
FFD0
FFCE
FFC2
0019
0029
FFDC
FFB6
FFC0
0048
FFE1
0029
0013
FFEE
FFD3
FFC6
0012
002A
0016
0005
FFBA
0048
002E
FFE0
004A
0010
000D
0026
0030
0018
FFC7
FFE7
0042
FFD6
FFEC
FFF6
FFF7
0011
0044
FFD8
FFC6
FFD2
003B
0016
FFDF
0031
0038
0035
0040
FFDA
0027
FFFA
0035
0023
002A
0018
FFCE
0007
004A
0043
FFBA
FFCD
FFC7
0023
0031
FFD4
0001
0034
0024
0006
000E
0001
FFE1
000A
001D
0039
0015
0028
FFCC
FFFA
FFB5
FFD9
0023
004C
FFC2
FFF1
002E
FFD3
0008
0024
0012
FFD0
FFEA
002C
0008
FFB4
0028
FFB9
0026
FFD2
0046
FFEC
FFE5
FFCA
FFE2
003A
004C
FFEC
FFF8
0022
003B
000E
FFEF
FFF3
001E
FFB4
0012
FFEA
002D
FFC1
000E
FFFD
0016
FFBD
000C
0009
0009
0010
001B
002F
FFDD
0032
0000
FFBF
FFBC
FFE7
002C
0020
002C
0003
FFF7
FFCA
FFE6
FFF6
FFC1
FFD5
000F
0024
004D
0043
0016
FFF4
0015
002C
FFC5
FFF2
0034
FFEE
000B
000D
FFD0
FFEB
FFE7
FFB7
FFB7
0033
FFDD
0003
FFE1
0044
FFDB
FFF5
0039
0035
FFD0
002E
FFFA
FFFD
FFC8
FFC0
0023
FFFF
FFF6
0023
0029
FFCC
0011
FFC8
0027
0018
0046
FFBE
FFBC
FFDF
FFDB
FFD9
003E
FFDA
FFDD
0028
FFF8
002B
FFBD
FFFE
FFB8
FFBD
003E
FFC9
0005
FFF2
FFE9
003D
FFB7
0019
0047
0009
0043
FFBB
FFF4
FFDB
0023
004A
FFDB
0018
FFD2
000A
FFFA
0049
0011
FFE9
FFC5
FFCA
FFD6
FFDA
0036
0009
0004
FFC5
0037
0022
FFBE
0020
0007
FFC0
FFFA
FFFE
FFCD
0044
0036
001A
FFFA
FFF2
0017
0007
FFBD
0002
002F
FFFA
FFBB
002C
FFD2
FFDB
FFCC
FFE6
0027
0003
FFD3
003A
003A
0039
FFD8
FFF9
004A
002A
FFB7
FFBD
FFFA
003F
0006
0000
FFC3
0018
0031
FFEE
002A
0047
FFD2
0004
FFDF
002D
000C
0015
002E
FFF0
0040
0005
FFCB
001E
002D
FFE4
0037
003E
FFDE
004A
FFC9
FFD2
FFCF
003D
0018
FFCB
FFF7
0012
FFC0
003B
002F
0001
0048
FFF3
004A
001A
0015
FFCD
003B
FFF5
FFCC
FFB5
0009
0004
0022
003C
FFBF
0024
FFD0
0037
0031
0006
0020
FFE3
FFFC
0031
FFFA
FFEA
FFFF
0032
FFE7
FFCE
0021
0032
FFC3
FFD8
FFC9
FFE9
FFF8
0026
0017
0013
FFE9
0034
FFFC
004A
0015
FFC7
001B
FFE5
001D
FFBE
FFCE
0037
FFD6
0034
FFDE
0016
001E
0002
FFE2
FFD4
FFB8
FFE2
0018
0043
0039
0029
002C
0019
FFDB
003F
001A
0009
FFC4
FFF8
FFFA
0038
0007
FFEE
0049
FFC4
FFF4
FFBA
0025
0040
FFDE
0037
FFE0
003F
0027
002F
FFB6
0047
0023
FFE2
0033
FFDE
0039
FFC4
001F
0006
FFC2
FFD8
FFB5
FFFB
FFE1
000F
FFE1
FFE1
0025
FFBB
003E
0036
001A
000E
003C
FFD0
FFBF
FFD8
002D
FFB9
000D
004C
0037
0003
FFBD
0033
000F
FFC5
FFC2
003F
001A
0033
003A
000B
0003
FFF5
FFE4
FFF6
002A
0010
003C
FFF7
0010
0014
000E
001F
FFD8
0002
FFC3
FFEE
FFFE
0017
0045
000F
0025
0001
0015
FFBE
FFDA
FFEB
FFFC
FFBA
FFC9
FFDE
0048
FFE6
FFFD
FFD1
0011
FFDE
FFD3
0003
FFB4
FFB4
FFD5
FFB9
FFC4
FFE7
002E
000B
0002
FFE0
0042
FFF0
FFC1
0012
FFC5
FFE8
0001
0039
FFFF
001F
004C
FFC7
FFDD
FFF0
FFF4
FFF2
003F
0021
0011
FFE3
0032
0046
0031
FFB3
0015
FFBB
FFDB
FFBC
0010
001D
FFC5
FFEE
FFF9
FFEC
FFC6
FFF4
0027
FFBE
FFC0
FFEA
0044
001A
001B
FFEB
000E
FFB5
0015
003F
0011
0039
0022
FFC6
003E
FFBD
0005
FFC9
FFB5
FFF4
FFE1
FFFE
000C
FFBA
FFC6
0009
FFE8
0023
0017
0035
001E
FFF5
001B
FFDD
FFE2
002C
FFF8
002E
0032
0037
0040
FFF5
FFE4
000D
FFEC
0010
0020
001D
FFED
FFCD
FFF5
FFC9
003C
FFE8
FFCB
FFB7
0016
0015
FFE8
FFBE
FFF2
FFE3
001B
0010
FFEB
FFD5
004B
FFF9
001D
FFC9
FFFE
FFB7
0001
0047
FFEE
FFB9
FFB8
FFEF
FFCC
FFB7
0027
FFFA
FFE0
003D
FFC5
0046
FFE3
003C
0010
0032
004A
FFDF
0047
FFEF
FFEE
FFE7
0006
FFCB
0008
0006
0028
0033
FFF7
FFE2
FFDB
FFD1
FFBC
FFE8
FFDD
0048
0009
FFE9
000C
FFC9
FFF7
0013
FFFE
FFF1
004C
003A
0013
000B
0013
FFD2
FFF0
FFB9
FFFC
0007
FFD6
0047
003F
0022
0005
0039
FFC7
002D
FFC6
002D
FFDE
003A
0044
FFCA
FFFA
004A
FFFD
0038
000E
FFED
FFDF
FFD2
0028
FFEF
0002
FFFF
000C
0038
004A
FFF2
0032
0029
000B
0046
FFD2
FFC4
0036
FFF7
0035
003C
FFBD
003B
FFF8
0002
0013
0041
FFB6
FFFC
001D
0022
001E
FFC8
FFE1
FFEA
002F
FFDE
FFD4
0046
FFB5
004C
001B
0032
FFE0
FFB5
0025
0033
0025
FFC9
0027
0029
0018
0029
0035
0011
FFC1
FFFE
FFBF
FFF2
FFF2
FFBD
FFE9
FFC4
002F
0045
FFBE
0046
0003
FFE1
FFBF
0000
002D
0020
FFBB
FFBE
FFF1
FFE1
FFD7
FFDE
002F
0042
FFF1
003E
FFE5
FFFC
FFD6
0016
004A
0010
FFEA
0017
FFC6
003C
0000
FFF8
000D
0013
FFBE
001C
FFD8
0021
0032
002F
0008
0003
FFC9
002A
FFDD
FFFF
FFDF
FFC8
0014
FFBC
0026
FFE4
FFB3
0002
FFBA
FFDE
0020
FFBD
0034
FFB4
FFD9
0025
FFE4
FFC3
FFEB
FFDD
0035
FFE3
002C
003C
FFF6
003F
FFED
0047
FFC1
001D
FFFF
FFEF
0014
001F
FFB4
FFCD
0021
001A
0048
0028
0045
001F
FFE1
FFC3
002B
0016
FFBB
FFEB
0046
0000
FFF6
FFFA
FFD3
FFEC
FFEC
FFBB
0029
FFF3
0031
0036
FFD4
0018
FFFC
003A
FFD4
001B
0011
FFE1
FFC8
0017
0025
FFE4
0016
FFF0
0021
FFD2
003C
FFDF
FFEC
FFBC
FFC4
0002
FFDC
0034
FFB5
FFED
FFE7
FFB6
FFC6
FFF3
FFFF
FFF1
0005
000F
FFB5
FFFA
0047
0003
001B
FFE3
002A
002A
0003
0049
FFC6
FFB6
0029
002F
FFC6
FFDC
FFB6
FFE0
002A
0003
FFE9
FFEC
FFB3
FFE1
0016
0049
0035
FFB7
003D
002B
002B
FFFA
FFF0
FFE2
FFBD
FFD6
FFD9
FFFE
0026
FFFC
FFBC
0046
0044
002C
004B
0007
0047
FFBF
FFEB
FFD6
FFD1
FFC9
0013
002B
000C
FFCA
0030
0015
FFEF
001B
FFDB
FFE8
0040
FFE0
FFFB
003C
0020
FFBD
FFCA
FFB4
0014
FFF8
FFC8
0046
0005
FFD8
0000
001C
FFBF
FFDD
002F
FFFA
0007
FFF6
FFBA
FFCD
FFF8
FFD3
FFBB
0035
004A
002D
0036
FFD8
0047
FFD1
0045
004C
0021
004A
000B
FFDB
FFF6
000E
FFBE
0013
004A
FFD0
002D
003F
0044
0047
0003
0049
0028
FFCC
FFFC
0022
FFD9
0016
001A
FFCC
000A
002A
0000
FFB5
FFB5
FFEA
0041
FFD6
0015
FFD5
FFE5
0035
0023
FFC2
FFF5
FFB8
FFFD
0019
FFC5
FFE0
FFF0
0040
004C
FFBA
0028
FFEC
FFEF
0027
0040
0045
000C
FFEA
002C
FFDA
000A
FFEA
0018
FFD8
FFD1
0040
FFC3
0001
FFD5
FFB9
FFB9
FFCE
0038
FFDF
0045
000D
FFF6
000C
0003
0028
FFDF
FFE9
003D
0045
003C
FFF4
002B
FFFC
0000
FFD3
000E
FFD0
FFE6
0037
FFD3
FFBE
FFBE
0044
0001
FFF2
0030
0034
FFE6
001E
002A
0018
FFCA
003A
0006
FFDF
FFF5
FFB9
FFC7
0029
FFB3
FFF3
0003
FFBC
0049
FFD6
FFE2
FFE2
FFD7
FFB3
0023
0048
FFD6
0019
0025
0036
FFF4
FFE2
FFE5
0021
0031
FFCF
FFEC
003E
002F
004A
0027
FFF0
000E
0019
FFBF
0007
0020
FFCD
002B
000D
0045
FFBA
FFDC
0010
FFE1
0021
0028
FFC3
0002
0001
FFEC
0042
0032
001E
0021
FFFA
0041
001E
0023
0038
FFDD
002F
FFD1
FFE8
FFE7
004A
0037
001F
0023
000A
0045
FFFF
FFEE
FFCC
002C
0024
FFEE
FFB7
0034
FFB5
001F
0048
FFF6
FFD7
001F
0031
0007
0048
FFBB
0001
0022
0038
FFCF
002E
0008
FFF0
FFC7
0038
FFCB
FFE3
FFE0
0039
001B
002E
FFDA
0013
000B
0033
003E
FFB5
001B
FFBB
0008
FFDF
FFE2
FFE9
0013
FFE7
0024
FFF1
FFBE
002C
FFDF
FFF6
001C
FFE6
FFBC
FFED
0044
0016
001A
0014
FFD2
FFF3
0027
FFC3
FFDE
FFDE
FFF6
004A
FFBE
0003
FFCF
0048
FFC5
FFF1
0025
001F
FFF4
FFE8
FFF0
FFDC
FFD3
FFFD
FFDC
FFDF
0018
0048
0010
FFBF
FFBF
0045
FFE1
FFC1
000F
0013
0017
FFDC
FFB6
0047
FFDA
001B
0020
0011
FFE3
FFDD
000F
0038
0045
FFC3
FFCB
0044
0024
003B
FFD2
000D
001F
001C
FFF2
FFB6
000D
FFDA
FFF8
0046
FFF0
0034
FFD0
001A
0049
FFC3
FFB4
FFF6
FFC1
0026
0040
FFF6
FFDB
FFF6
0022
FFB5
000E
0011
0015
FFD8
0021
FFC1
FFD2
003A
0025
FFB5
FFD9
FFD4
FFDD
FFD9
FFBD
FFFA
0024
0010
001B
FFC0
0045
0034
002F
0032
0042
0007
FFD2
0012
0025
0025
0003
FFBE
FFEC
0041
000D
0006
FFDC
FFEC
003D
001A
002C
FFF9
0014
FFD9
0020
FFF5
FFF7
0017
0043
FFBD
0032
FFE0
FFF7
FFB7
FFE1
0000
FFBC
FFFF
0042
FFC3
0029
FFF2
0018
FFDB
FFCC
FFCC
FFBE
FFD0
0019
003B
0030
001C
FFC4
FFE0
FFE3
FFDA
0002
0005
FFEA
FFEA
0032
002C
FFE2
0040
0046
FFE5
FFEA
0001
0044
003A
FFC3
FFF0
0008
0000
FFD1
0037
001B
0034
0037
0026
FFF7
0011
FFCC
001B
FFCF
001E
FFD6
FFC5
FFCD
FFB4
0022
0024
0002
FFCC
FFC0
FFB6
FFCD
003C
FFD8
FFEA
FFC3
FFD5
0003
0011
FFD9
FFBC
FFEF
FFD7
FFD5
0047
0012
0009
FFF3
FFF5
0006
001E
001F
FFCE
0000
FFF2
0039
0014
0005
FFC5
0010
FFC5
FFE7
FFC9
001E
FFD3
FFEF
003D
FFD3
0001
FFF4
FFB6
002D
FFBE
FFFC
0009
0014
001D
FFDA
FFB5
0022
0005
0034
0031
0035
FFFE
FFE6
002D
FFF9
FFCF
0037
003B
FFFB
FFBF
FFEF
002F
003E
FFD2
FFBD
003A
FFEF
0006
0048
FFBD
0017
FFBF
FFED
002F
FFF6
004C
0009
FFE5
FFD5
FFE9
FFEC
FFBE
FFEC
FFFB
0022
0018
0020
FFB4
FFD5
0019
FFFE
FFB4
002F
002A
0007
FFBD
0029
000D
002B
0027
002F
0003
FFC9
001A
0013
0025
FFCD
FFD1
003C
0026
003F
0028
000F
0018
003C
000C
0014
FFCB
FFFC
0021
FFDD
FFD2
FFE3
FFD8
FFD4
FFF4
003F
0001
FFD0
FFBF
001E
FFEE
0031
0019
002E
FFDD
001E
FFDC
0043
0015
FFE5
FFDD
FFD1
001E
FFD5
000F
FFDC
0019
0030
002B
0028
FFD0
FFC1
001F
FFEC
FFF6
FFB8
FFDB
FFB8
003A
FFD9
0009
FFB9
001A
FFE5
003D
003C
FFE5
003E
004C
0032
0035
FFD9
000C
FFBE
FFC2
004D
FFE5
0026
002F
0037
004C
FFD8
FFB9
FFF2
FFC7
FFB7
FFEB
002C
000A
FFE3
0018
FFD7
FFB5
0029
0013
0028
FFB9
0034
0012
000A
0013
0038
000D
000C
004B
0027
FFF7
0020
FFEF
FFD6
000F
0042
0042
FFE8
0004
FFD4
004C
004A
0017
002F
0021
000E
FFBB
FFF9
001B
001B
FFED
0044
FFCD
0000
001D
001E
0017
FFDD
FFCB
0015
000F
FFCF
0020
FFF9
001A
0034
FFCD
FFB6
002B
0011
001F
0034
002F
0047
0006
FFFE
FFF1
FFCB
000B
FFDE
0041
000D
000E
FFEA
FFBB
FFB8
FFF4
FFC0
0010
003B
003B
0018
FFD4
0038
003B
FFD1
0024
FFDF
002E
004C
FFB8
003D
0013
0049
FFFB
0035
FFBD
FFE7
FFBD
0049
0031
0036
0043
FFC0
FFEE
FFBE
FFD4
FFD6
FFFB
FFDC
FFC3
FFCD
FFCA
0049
0028
0048
FFF7
FFDE
002E
FFE5
FFE1
FFD7
FFC7
FFDB
FFEA
001B
FFBD
FFD4
002F
FFCA
FFE8
0038
FFCB
FFC0
FFFE
FFE2
000A
002F
FFC8
000C
0001
FFC9
0013
FFDD
FFFE
FFC0
FFFA
FFE2
0032
FFBC
FFF3
FFFA
0023
000B
001A
002B
0038
FFE3
0006
0034
004B
003C
FFEC
FFD1
FFFE
0025
FFFF
FFFD
0034
FFEB
0037
FFF2
FFE6
FFF9
0028
FFC7
FFD1
0045
FFCE
000A
000C
FFFE
0016
FFD7
0008
FFEC
0019
FFC9
000B
FFD0
FFDE
FFD5
FFCF
0032
FFDF
0042
0048
000B
FFC9
FFED
002E
FFEC
FFC1
0009
0035
002D
FFCE
001B
FFD5
FFD5
0039
FFDA
FFDC
FFB3
0039
002D
0014
0026
FFCB
FFFA
FFE9
FFC2
FFFE
0041
FFB9
FFE0
FFD3
FFD8
003F
FFFB
FFFB
0028
FFCB
FFFE
FFF5
000F
004D
0029
FFF0
0032
FFCD
FFB8
FFD3
FFE7
0002
0012
003F
0002
0000
FFBB
FFB9
0008
FFF7
0034
FFCC
FFB7
FFF8
FFD8
FFBB
0022
FFC4
0011
FFDE
FFCE
FFEE
002E
FFEF
0027
FFC6
002A
FFD8
001B
000A
0042
FFEF
FFBD
FFB6
0032
0004
002A
FFD7
FFE8
FFB8
0047
001A
0043
FFDC
0011
001B
FFE4
0035
0045
003B
0025
FFDE
FFDE
0047
FFB5
0021
0020
0013
004B
FFE3
FFE7
FFBF
FFF7
FFDB
FFE8
0033
0043
FFD0
FFEC
0042
FFBD
FFC1
FFCC
000F
FFCA
0048
FFF8
0000
FFD9
FFFC
0019
0027
0027
000C
003E
0031
0027
FFBC
FFB4
FFD4
0019
FFF2
FFF1
003B
003D
003F
FFE3
001D
FFDD
FFD0
FFD0
FFE8
FFF5
0033
FFC6
0024
0005
FFDF
FFFF
FFE1
000F
FFF6
FFCC
FFC5
0007
003E
FFE8
0024
0018
0042
0031
000A
0018
003D
FFF1
FFE5
FFB5
0032
002E
FFC3
000C
FFFA
FFC5
004A
FFD4
FFBE
000F
0025
FFB8
0018
0005
FFC3
FFCE
000A
FFE1
0043
0031
004A
FFDB
0048
FFF5
FFE9
FFBB
FFBB
001D
FFFA
FFD6
0012
FFDA
000C
FFEA
0032
0031
FFFD
FFE9
FFEB
002F
FFE6
FFD3
FFC0
FFFB
FFFD
0034
FFD5
FFEE
002F
0032
FFEE
FFFA
FFE2
0042
FFC5
0043
001C
0005
FFB8
FFFC
FFF2
FFCC
0018
0048
000A
0021
FFBE
FFF3
FFC5
0011
0043
0019
FFBF
FFEA
0008
FFF1
0033
0030
0011
FFED
FFDA
FFC3
FFEA
FFF3
001B
0018
FFBE
FFF0
FFCF
FFCB
0032
FFBA
FFF4
FFCD
003A
0009
FFD7
0000
0024
0046
FFD5
003B
0043
0040
0015
0014
FFF1
0027
0005
001B
FFF5
0024
0032
FFCA
0033
0006
0035
FFF5
FFED
0040
FFDA
0035
FFFE
0002
FFE3
000B
FFE5
FFB9
FFDD
FFB4
0049
0048
FFF0
0023
FFE8
001A
002F
0045
FFF1
002C
FFDC
004B
FFB7
0010
0019
001D
FFC6
0043
FFCF
0013
FFD5
FFE2
0007
FFF3
FFCC
FFCD
FFF3
0028
003D
FFC0
FFF0
FFC3
FFB6
0019
0010
FFCC
FFD7
FFB7
0033
0049
FFC8
FFD7
0039
0042
FFF4
FFBB
FFB9
000B
FFF0
FFB8
000D
FFB5
002C
FFE2
FFB9
000E
FFF0
0049
0007
FFDD
0020
FFDD
003E
FFED
0008
FFBB
FFF5
0033
002F
FFD6
FFD6
0031
0042
FFC2
FFF8
FFE7
0039
FFC0
FFD4
0027
FFBB
FFFF
FFF7
FFE7
FFF0
0005
FFCC
000B
002F
0028
FFCB
FFCA
FFDC
FFEB
FFF2
001C
FFBC
FFB9
FFEF
001E
FFD1
0016
FFDB
003B
003D
FFE1
FFD7
FFF2
FFD8
001A
0032
001B
0032
FFF0
FFCB
0025
FFEB
001A
FFDD
FFC0
004C
FFCB
004B
0049
002D
0018
000C
0038
FFE0
FFFB
0012
FFF2
FFF5
FFE6
000A
0036
FFD2
0043
001D
0032
0009
002B
FFB6
0031
FFB9
003C
004C
FFE0
FFD4
0029
FFDA
0038
FFC3
FFC7
004A
001B
0035
FFE5
001B
000E
0010
001C
000C
FFF5
FFDE
0029
FFD6
001E
FFD7
0013
0026
FFD5
FFBC
FFC7
0010
0036
FFBA
0024
FFE8
FFFD
0042
FFE6
FFFB
FFB5
FFC0
FFDB
FFB7
0014
FFF5
0007
FFCE
FFE1
0019
0047
FFBB
003C
000C
000A
0000
FFBE
FFC1
0010
FFE8
0040
FFF2
FFC9
0021
FFE0
0004
001E
003D
002D
001B
001C
0044
FFE1
FFB3
FFDD
FFD5
0019
0015
000E
FFB6
0023
FFE5
0019
0009
FFE8
FFC8
FFC2
0033
0040
0017
FFC3
FFF1
0023
002B
FFC5
FFB3
0021
FFEA
FFDA
FFB5
0006
0036
0046
000A
0002
FFC0
0008
FFEE
0010
FFEF
FFD8
FFC2
FFE4
FFC2
FFCE
004B
FFF7
0005
0039
004C
000D
0030
FFE5
FFE2
FFF1
001A
001C
FFE4
FFC8
0014
FFC7
000C
001E
001F
0027
0039
0000
0023
0012
FFD0
FFB7
FFDF
FFF7
0012
0036
FFD1
FFC6
0047
FFC4
FFFD
000D
0006
FFC0
FFBC
FFC3
000D
0007
FFD7
0015
0031
FFBA
0000
001D
FFDA
FFE2
0011
003D
0030
000D
0023
FFEB
0016
FFFB
FFD0
001F
0009
FFEA
003F
FFB6
FFE4
FFBC
0029
001F
FFE6
001B
FFF0
0027
FFF9
FFF3
0043
FFDA
FFC6
000D
0048
FFED
FFBD
FFE7
0001
FFCC
0018
004C
FFF9
FFEA
FFF1
FFC5
003B
FFF3
FFEF
0019
FFF7
0017
FFBD
0030
0044
0017
0046
FFCA
FFFD
0010
000D
FFF1
FFE7
FFC7
FFEF
FFCC
0024
FFD3
FFBC
0008
000F
0039
000C
