DEPTH = 4096;
WIDTH = 16;
ADDRESS_RADIX = DEC;
DATA_RADIX = HEX;
CONTENT BEGIN
  0 : FFE8;
  1 : 002F;
  2 : 0006;
  3 : FFBF;
  4 : 000A;
  5 : 003F;
  6 : FFF0;
  7 : FFE1;
  8 : FFC9;
  9 : FFCA;
  10 : FFF6;
  11 : 000F;
  12 : FFC0;
  13 : 0044;
  14 : 0027;
  15 : 000D;
  16 : 0032;
  17 : FFC0;
  18 : FFFC;
  19 : 0014;
  20 : 0032;
  21 : 002C;
  22 : FFDE;
  23 : 0044;
  24 : FFC6;
  25 : 003A;
  26 : 0048;
  27 : FFCE;
  28 : 0022;
  29 : FFB9;
  30 : FFF1;
  31 : 0003;
  32 : 000C;
  33 : 0043;
  34 : 001A;
  35 : FFFD;
  36 : 0030;
  37 : 0045;
  38 : FFB7;
  39 : 004A;
  40 : FFC0;
  41 : 0030;
  42 : FFDE;
  43 : FFC8;
  44 : FFF7;
  45 : 0016;
  46 : FFEE;
  47 : FFBC;
  48 : 000F;
  49 : 003E;
  50 : FFEE;
  51 : FFD4;
  52 : FFF7;
  53 : FFBB;
  54 : 0031;
  55 : 0032;
  56 : 000E;
  57 : FFE9;
  58 : 002E;
  59 : 0008;
  60 : 0032;
  61 : 0014;
  62 : 002C;
  63 : 000F;
  64 : FFF3;
  65 : 0046;
  66 : 0006;
  67 : 0010;
  68 : FFD5;
  69 : 0013;
  70 : 000B;
  71 : FFD0;
  72 : FFBC;
  73 : 0010;
  74 : 0029;
  75 : 0004;
  76 : FFD6;
  77 : 001A;
  78 : FFC0;
  79 : FFF7;
  80 : FFCC;
  81 : FFD0;
  82 : FFD2;
  83 : FFEF;
  84 : FFBB;
  85 : FFF0;
  86 : 0002;
  87 : FFFD;
  88 : FFEE;
  89 : 0034;
  90 : FFCA;
  91 : 0001;
  92 : FFBD;
  93 : FFBE;
  94 : 000B;
  95 : 000A;
  96 : 003A;
  97 : 0009;
  98 : 0047;
  99 : FFBB;
  100 : FFC2;
  101 : FFBA;
  102 : FFD0;
  103 : 0006;
  104 : 0016;
  105 : FFBA;
  106 : 0045;
  107 : 0035;
  108 : FFE1;
  109 : FFBF;
  110 : FFCD;
  111 : FFC7;
  112 : FFC6;
  113 : 0003;
  114 : FFD9;
  115 : FFEA;
  116 : 004B;
  117 : 001C;
  118 : 0045;
  119 : FFC9;
  120 : FFEE;
  121 : 0008;
  122 : FFBF;
  123 : FFB4;
  124 : 001A;
  125 : 0016;
  126 : FFF2;
  127 : FFFE;
  128 : FFF3;
  129 : FFB7;
  130 : FFE7;
  131 : FFCE;
  132 : FFC2;
  133 : 0046;
  134 : 000F;
  135 : 0023;
  136 : FFE4;
  137 : FFF0;
  138 : FFD8;
  139 : FFC2;
  140 : FFCF;
  141 : 002E;
  142 : 001B;
  143 : 0007;
  144 : FFFC;
  145 : 0041;
  146 : FFBE;
  147 : FFDE;
  148 : FFE9;
  149 : 002B;
  150 : 004C;
  151 : FFD8;
  152 : 0039;
  153 : 0033;
  154 : FFD6;
  155 : FFF1;
  156 : FFF2;
  157 : 0049;
  158 : FFCF;
  159 : 002E;
  160 : FFE7;
  161 : 0023;
  162 : FFF4;
  163 : 000C;
  164 : 0033;
  165 : 002F;
  166 : 0038;
  167 : FFBC;
  168 : 001D;
  169 : FFC9;
  170 : FFF3;
  171 : 0007;
  172 : FFF1;
  173 : 0003;
  174 : 004C;
  175 : FFC8;
  176 : 001B;
  177 : FFF0;
  178 : FFC8;
  179 : FFCC;
  180 : 0045;
  181 : 003A;
  182 : 003F;
  183 : 004B;
  184 : FFD3;
  185 : FFEA;
  186 : 001A;
  187 : FFFE;
  188 : FFF3;
  189 : FFEA;
  190 : 000E;
  191 : 000C;
  192 : FFCC;
  193 : FFFC;
  194 : 0008;
  195 : 000B;
  196 : FFD3;
  197 : 0025;
  198 : FFB7;
  199 : FFEA;
  200 : 002B;
  201 : 000A;
  202 : FFDB;
  203 : 001E;
  204 : 000A;
  205 : 002E;
  206 : 0024;
  207 : 0011;
  208 : FFFE;
  209 : FFC8;
  210 : FFDB;
  211 : FFF4;
  212 : 000F;
  213 : 0002;
  214 : FFDF;
  215 : FFB4;
  216 : FFFF;
  217 : FFDF;
  218 : 0024;
  219 : FFB7;
  220 : 000D;
  221 : 0044;
  222 : FFCE;
  223 : FFFC;
  224 : FFC1;
  225 : 0013;
  226 : 0008;
  227 : FFF2;
  228 : 0003;
  229 : 003D;
  230 : FFD1;
  231 : FFB7;
  232 : 0038;
  233 : 000C;
  234 : 003C;
  235 : 000F;
  236 : 0030;
  237 : FFF5;
  238 : 0026;
  239 : 003F;
  240 : 000B;
  241 : FFCF;
  242 : FFDC;
  243 : FFD2;
  244 : FFD9;
  245 : FFE2;
  246 : 0008;
  247 : 000E;
  248 : FFF5;
  249 : 0012;
  250 : FFC0;
  251 : FFC1;
  252 : FFCE;
  253 : 0003;
  254 : FFD4;
  255 : FFDF;
  256 : FFF1;
  257 : 0030;
  258 : FFB5;
  259 : 0017;
  260 : 001A;
  261 : 002E;
  262 : 0042;
  263 : FFB6;
  264 : FFCB;
  265 : 003B;
  266 : FFFA;
  267 : 000A;
  268 : 0019;
  269 : 001C;
  270 : 0042;
  271 : 004C;
  272 : 0022;
  273 : FFDF;
  274 : 003A;
  275 : FFBB;
  276 : FFD7;
  277 : 003D;
  278 : FFDB;
  279 : FFD5;
  280 : FFC8;
  281 : 0037;
  282 : 0000;
  283 : 001B;
  284 : FFD8;
  285 : 0028;
  286 : 0028;
  287 : FFE3;
  288 : FFF2;
  289 : FFD3;
  290 : 0049;
  291 : 0016;
  292 : 0043;
  293 : FFE2;
  294 : 002B;
  295 : 0029;
  296 : 001D;
  297 : 0048;
  298 : FFF0;
  299 : FFC7;
  300 : 001A;
  301 : 0023;
  302 : 000C;
  303 : FFD3;
  304 : 0001;
  305 : FFE3;
  306 : FFF5;
  307 : 0016;
  308 : 0026;
  309 : FFD7;
  310 : FFF1;
  311 : FFDD;
  312 : FFD2;
  313 : 002C;
  314 : 003F;
  315 : FFEC;
  316 : 0027;
  317 : 003D;
  318 : 0035;
  319 : FFCF;
  320 : 0046;
  321 : FFED;
  322 : FFE7;
  323 : FFBD;
  324 : FFFE;
  325 : FFC4;
  326 : FFD9;
  327 : FFE4;
  328 : 002F;
  329 : 003A;
  330 : FFE2;
  331 : 0037;
  332 : 0037;
  333 : 0029;
  334 : FFCA;
  335 : 001D;
  336 : 0044;
  337 : 001C;
  338 : FFE6;
  339 : 0000;
  340 : 0016;
  341 : 0002;
  342 : FFC6;
  343 : FFE3;
  344 : 002E;
  345 : 0038;
  346 : FFC8;
  347 : 0045;
  348 : FFE6;
  349 : 0019;
  350 : 0027;
  351 : 0030;
  352 : 0044;
  353 : FFE3;
  354 : 0037;
  355 : FFC7;
  356 : 001F;
  357 : 0025;
  358 : 001B;
  359 : FFDA;
  360 : 0039;
  361 : FFCD;
  362 : FFBB;
  363 : 0021;
  364 : FFFC;
  365 : 0036;
  366 : FFEE;
  367 : FFCD;
  368 : 0034;
  369 : 0008;
  370 : FFD0;
  371 : 0022;
  372 : 0002;
  373 : 0010;
  374 : FFFA;
  375 : 0032;
  376 : 0033;
  377 : 0020;
  378 : FFC3;
  379 : 0034;
  380 : 001A;
  381 : 001E;
  382 : FFEB;
  383 : 003A;
  384 : 0023;
  385 : FFC4;
  386 : FFF2;
  387 : 003B;
  388 : FFBA;
  389 : 0047;
  390 : 001C;
  391 : 0014;
  392 : FFDD;
  393 : FFD9;
  394 : 0044;
  395 : FFE1;
  396 : 002A;
  397 : FFF0;
  398 : FFC9;
  399 : FFB5;
  400 : 0007;
  401 : 0049;
  402 : FFEC;
  403 : FFEA;
  404 : FFE8;
  405 : 0003;
  406 : FFF7;
  407 : 003A;
  408 : 0001;
  409 : 0001;
  410 : FFC8;
  411 : 004A;
  412 : FFDA;
  413 : FFBE;
  414 : 0019;
  415 : 000F;
  416 : FFF3;
  417 : FFF4;
  418 : 002C;
  419 : FFD1;
  420 : 0031;
  421 : 0017;
  422 : FFF4;
  423 : FFFA;
  424 : FFDB;
  425 : 0027;
  426 : 0002;
  427 : FFE4;
  428 : 000F;
  429 : 004C;
  430 : FFF6;
  431 : 0041;
  432 : FFE8;
  433 : FFBC;
  434 : FFD3;
  435 : FFF4;
  436 : FFD5;
  437 : FFB3;
  438 : 0040;
  439 : 0035;
  440 : 0025;
  441 : FFCD;
  442 : FFC6;
  443 : FFBE;
  444 : 0022;
  445 : 0042;
  446 : FFF5;
  447 : FFC6;
  448 : 0002;
  449 : FFE9;
  450 : FFED;
  451 : 0013;
  452 : 0022;
  453 : FFC4;
  454 : FFB9;
  455 : 004C;
  456 : FFD7;
  457 : FFBB;
  458 : FFD0;
  459 : FFB9;
  460 : FFEF;
  461 : 002E;
  462 : FFE8;
  463 : FFF7;
  464 : 001B;
  465 : 0001;
  466 : 0038;
  467 : 0038;
  468 : FFB5;
  469 : 002B;
  470 : FFFA;
  471 : 004B;
  472 : FFFD;
  473 : 004B;
  474 : 0027;
  475 : FFD9;
  476 : 0006;
  477 : 004C;
  478 : 0037;
  479 : FFC2;
  480 : 0020;
  481 : FFE8;
  482 : FFB4;
  483 : FFF1;
  484 : FFD7;
  485 : 0031;
  486 : FFE7;
  487 : 0032;
  488 : FFB3;
  489 : FFE2;
  490 : FFD8;
  491 : FFD7;
  492 : FFBE;
  493 : FFD0;
  494 : 0009;
  495 : FFE0;
  496 : FFF3;
  497 : FFED;
  498 : 003A;
  499 : 003E;
  500 : FFFF;
  501 : FFE6;
  502 : FFC4;
  503 : 0046;
  504 : FFBC;
  505 : FFE1;
  506 : FFE1;
  507 : FFE4;
  508 : FFCC;
  509 : 002B;
  510 : FFC6;
  511 : 0015;
  512 : FFC6;
  513 : FFBE;
  514 : 003F;
  515 : FFD0;
  516 : 0031;
  517 : 0007;
  518 : FFBF;
  519 : 0046;
  520 : FFD9;
  521 : 0037;
  522 : FFCD;
  523 : 0036;
  524 : FFB5;
  525 : 0002;
  526 : 0029;
  527 : 0043;
  528 : 003F;
  529 : 0031;
  530 : 003C;
  531 : FFD2;
  532 : FFDF;
  533 : FFE0;
  534 : FFED;
  535 : FFF0;
  536 : 0007;
  537 : FFCC;
  538 : 001D;
  539 : FFCD;
  540 : FFE3;
  541 : 0001;
  542 : 002E;
  543 : 0025;
  544 : 0016;
  545 : FFCB;
  546 : 0007;
  547 : FFC1;
  548 : FFED;
  549 : FFF3;
  550 : FFB9;
  551 : FFDD;
  552 : 0046;
  553 : 0046;
  554 : FFE9;
  555 : FFBA;
  556 : FFCF;
  557 : FFEF;
  558 : 0045;
  559 : FFC9;
  560 : 0028;
  561 : FFC4;
  562 : 004A;
  563 : FFEE;
  564 : 002A;
  565 : FFE8;
  566 : 0014;
  567 : FFD1;
  568 : FFCA;
  569 : 0043;
  570 : 0040;
  571 : 003C;
  572 : 0013;
  573 : 002F;
  574 : FFBE;
  575 : FFE7;
  576 : FFE3;
  577 : 0015;
  578 : FFEA;
  579 : FFCA;
  580 : 000F;
  581 : 0030;
  582 : FFEE;
  583 : FFC8;
  584 : FFD1;
  585 : FFD8;
  586 : FFE1;
  587 : 0016;
  588 : 0010;
  589 : 001E;
  590 : FFEB;
  591 : 0032;
  592 : FFD3;
  593 : FFFB;
  594 : 002E;
  595 : FFCF;
  596 : FFC4;
  597 : 003B;
  598 : FFE8;
  599 : 001C;
  600 : FFB7;
  601 : 001D;
  602 : FFE4;
  603 : FFBC;
  604 : 0011;
  605 : FFD8;
  606 : FFEF;
  607 : FFC0;
  608 : FFCA;
  609 : FFE1;
  610 : FFC1;
  611 : 003F;
  612 : FFB4;
  613 : FFFE;
  614 : FFC6;
  615 : FFE2;
  616 : 0041;
  617 : FFCC;
  618 : 0048;
  619 : FFD3;
  620 : 0025;
  621 : 0007;
  622 : 003B;
  623 : 0008;
  624 : 0005;
  625 : FFD1;
  626 : FFCD;
  627 : 0040;
  628 : FFE6;
  629 : FFEC;
  630 : 0028;
  631 : FFE7;
  632 : 0045;
  633 : 0025;
  634 : 000F;
  635 : 003B;
  636 : FFBB;
  637 : FFDB;
  638 : FFFB;
  639 : FFD6;
  640 : 0025;
  641 : 0040;
  642 : FFF4;
  643 : FFE8;
  644 : 0047;
  645 : FFF8;
  646 : FFFE;
  647 : FFE9;
  648 : 003F;
  649 : 000B;
  650 : 0028;
  651 : 0030;
  652 : FFE8;
  653 : FFF6;
  654 : 0036;
  655 : FFEB;
  656 : 002D;
  657 : 0044;
  658 : 0013;
  659 : 0025;
  660 : 002F;
  661 : 0035;
  662 : FFF0;
  663 : FFBB;
  664 : FFF1;
  665 : 001B;
  666 : FFF8;
  667 : 0026;
  668 : FFEA;
  669 : 0015;
  670 : FFD0;
  671 : 0026;
  672 : 0007;
  673 : FFD3;
  674 : FFE0;
  675 : 0026;
  676 : FFFD;
  677 : FFD4;
  678 : 0048;
  679 : 0021;
  680 : 0046;
  681 : FFF5;
  682 : FFFC;
  683 : 003D;
  684 : 0004;
  685 : 0020;
  686 : FFDA;
  687 : FFF8;
  688 : FFC6;
  689 : FFD3;
  690 : FFB3;
  691 : FFB9;
  692 : 0049;
  693 : FFD8;
  694 : 0019;
  695 : 0034;
  696 : 0008;
  697 : FFCB;
  698 : 0023;
  699 : 000F;
  700 : 0024;
  701 : 0029;
  702 : 0049;
  703 : 000B;
  704 : FFE8;
  705 : 0017;
  706 : FFBE;
  707 : 003D;
  708 : FFC6;
  709 : FFE6;
  710 : 0030;
  711 : 000F;
  712 : FFF0;
  713 : FFFC;
  714 : 0036;
  715 : FFE7;
  716 : 0039;
  717 : FFC1;
  718 : 002B;
  719 : 0035;
  720 : FFCF;
  721 : FFF5;
  722 : FFCD;
  723 : 0020;
  724 : 0005;
  725 : 0015;
  726 : FFD1;
  727 : FFD4;
  728 : FFBA;
  729 : FFE5;
  730 : 0009;
  731 : 0037;
  732 : 001A;
  733 : FFF6;
  734 : 0046;
  735 : 0022;
  736 : 0042;
  737 : 0004;
  738 : FFDB;
  739 : FFBB;
  740 : 0023;
  741 : FFC6;
  742 : FFE2;
  743 : 0005;
  744 : 000A;
  745 : 000F;
  746 : FFCD;
  747 : FFEE;
  748 : 0012;
  749 : 0048;
  750 : 0023;
  751 : 0041;
  752 : 0028;
  753 : 000E;
  754 : FFD1;
  755 : 001A;
  756 : 0013;
  757 : 0010;
  758 : FFFE;
  759 : 0004;
  760 : FFE7;
  761 : 0003;
  762 : FFD2;
  763 : 002F;
  764 : FFD0;
  765 : FFC0;
  766 : FFF6;
  767 : 0018;
  768 : FFF6;
  769 : FFDE;
  770 : 0009;
  771 : FFE8;
  772 : 0042;
  773 : 0041;
  774 : 0000;
  775 : FFE6;
  776 : 0024;
  777 : FFB9;
  778 : FFFC;
  779 : FFE7;
  780 : 0041;
  781 : FFB5;
  782 : 0008;
  783 : 0025;
  784 : FFFE;
  785 : FFC0;
  786 : 0049;
  787 : 0003;
  788 : 0012;
  789 : FFD8;
  790 : FFFD;
  791 : FFF5;
  792 : FFBF;
  793 : FFC4;
  794 : 0034;
  795 : FFD8;
  796 : FFD1;
  797 : 0001;
  798 : 0029;
  799 : FFBD;
  800 : 000C;
  801 : FFC6;
  802 : FFB9;
  803 : FFBB;
  804 : 0033;
  805 : FFC5;
  806 : FFBA;
  807 : FFF6;
  808 : 0035;
  809 : FFDC;
  810 : FFF4;
  811 : FFB9;
  812 : FFF8;
  813 : 000C;
  814 : 000B;
  815 : FFE6;
  816 : FFE4;
  817 : FFC4;
  818 : FFEC;
  819 : FFC2;
  820 : 0029;
  821 : 0048;
  822 : 0048;
  823 : 0038;
  824 : 000F;
  825 : 001F;
  826 : FFDF;
  827 : 0014;
  828 : FFF9;
  829 : FFFD;
  830 : 0028;
  831 : FFDF;
  832 : FFE4;
  833 : 0041;
  834 : FFBC;
  835 : FFFE;
  836 : 003F;
  837 : 0011;
  838 : 0007;
  839 : FFDA;
  840 : FFE8;
  841 : 0036;
  842 : 0009;
  843 : 0002;
  844 : FFC2;
  845 : FFB6;
  846 : 0047;
  847 : FFED;
  848 : 0010;
  849 : FFBF;
  850 : 001C;
  851 : 0042;
  852 : 000C;
  853 : FFC7;
  854 : 000D;
  855 : 0029;
  856 : FFF2;
  857 : 003A;
  858 : 0017;
  859 : 003D;
  860 : 0013;
  861 : FFC7;
  862 : FFE3;
  863 : FFD2;
  864 : 003F;
  865 : 0028;
  866 : 001B;
  867 : FFE1;
  868 : FFCF;
  869 : 0027;
  870 : FFFC;
  871 : FFD6;
  872 : 0012;
  873 : FFB9;
  874 : FFE5;
  875 : FFFB;
  876 : FFCA;
  877 : 004A;
  878 : FFD3;
  879 : FFC7;
  880 : FFD2;
  881 : 0029;
  882 : FFF5;
  883 : 000A;
  884 : FFB6;
  885 : FFB8;
  886 : FFF8;
  887 : 0031;
  888 : 003B;
  889 : FFC1;
  890 : 0006;
  891 : 003F;
  892 : FFEF;
  893 : 0033;
  894 : FFC8;
  895 : 0043;
  896 : 0027;
  897 : 0044;
  898 : 001B;
  899 : FFEB;
  900 : 0043;
  901 : FFDE;
  902 : FFE6;
  903 : 001F;
  904 : 0029;
  905 : 0042;
  906 : FFD3;
  907 : 002E;
  908 : 0025;
  909 : FFBD;
  910 : FFEF;
  911 : FFDF;
  912 : FFE2;
  913 : 004A;
  914 : 0016;
  915 : 0021;
  916 : 0049;
  917 : FFED;
  918 : 002E;
  919 : FFF6;
  920 : 0039;
  921 : FFCF;
  922 : 0045;
  923 : FFD5;
  924 : FFE5;
  925 : 0027;
  926 : FFF0;
  927 : 0011;
  928 : FFF7;
  929 : 0025;
  930 : FFD6;
  931 : FFBC;
  932 : FFE1;
  933 : FFFC;
  934 : FFCD;
  935 : FFEA;
  936 : FFF1;
  937 : FFBC;
  938 : 000D;
  939 : 003B;
  940 : FFCB;
  941 : 000F;
  942 : 0019;
  943 : FFF4;
  944 : 001F;
  945 : FFF2;
  946 : 0001;
  947 : FFB4;
  948 : 001D;
  949 : 0019;
  950 : FFB9;
  951 : FFEC;
  952 : 004A;
  953 : FFF4;
  954 : 0000;
  955 : 003F;
  956 : 0021;
  957 : 000D;
  958 : 002E;
  959 : 0038;
  960 : FFF9;
  961 : FFFC;
  962 : FFEE;
  963 : 0048;
  964 : 001E;
  965 : FFC0;
  966 : 0038;
  967 : FFFD;
  968 : FFBE;
  969 : 0008;
  970 : FFF3;
  971 : 003A;
  972 : FFD3;
  973 : 0032;
  974 : 0009;
  975 : FFBC;
  976 : 0048;
  977 : 0002;
  978 : FFE0;
  979 : FFFB;
  980 : 0037;
  981 : FFE2;
  982 : FFD1;
  983 : FFC7;
  984 : FFE1;
  985 : 002B;
  986 : FFFC;
  987 : FFD6;
  988 : FFCD;
  989 : FFE6;
  990 : 0044;
  991 : FFE8;
  992 : 004B;
  993 : FFFE;
  994 : FFCF;
  995 : 003C;
  996 : FFFA;
  997 : 0020;
  998 : 004A;
  999 : FFBB;
  1000 : FFC2;
  1001 : 0022;
  1002 : FFDE;
  1003 : FFD0;
  1004 : FFB9;
  1005 : FFB7;
  1006 : 002A;
  1007 : FFC8;
  1008 : FFFB;
  1009 : 0010;
  1010 : FFF5;
  1011 : FFB7;
  1012 : 002C;
  1013 : FFB5;
  1014 : 0028;
  1015 : 003C;
  1016 : FFF6;
  1017 : 0005;
  1018 : FFFC;
  1019 : FFEF;
  1020 : 003C;
  1021 : 003D;
  1022 : FFE7;
  1023 : 0012;
  1024 : 0042;
  1025 : 0047;
  1026 : 0001;
  1027 : FFF9;
  1028 : FFDE;
  1029 : 0046;
  1030 : FFC9;
  1031 : 000C;
  1032 : FFDF;
  1033 : FFDE;
  1034 : FFF1;
  1035 : 004D;
  1036 : FFBC;
  1037 : 000C;
  1038 : FFC0;
  1039 : FFCB;
  1040 : FFF7;
  1041 : 0002;
  1042 : FFDB;
  1043 : FFE4;
  1044 : FFC1;
  1045 : FFE2;
  1046 : 0048;
  1047 : 0044;
  1048 : FFE7;
  1049 : 000B;
  1050 : 003F;
  1051 : FFB4;
  1052 : 0030;
  1053 : 0045;
  1054 : FFC1;
  1055 : FFCC;
  1056 : 0047;
  1057 : 0006;
  1058 : FFB5;
  1059 : FFDB;
  1060 : FFF8;
  1061 : 001E;
  1062 : 0024;
  1063 : 004C;
  1064 : FFDF;
  1065 : 0006;
  1066 : 0005;
  1067 : FFF2;
  1068 : FFCD;
  1069 : 0049;
  1070 : 0036;
  1071 : 0000;
  1072 : 0010;
  1073 : FFD6;
  1074 : 0007;
  1075 : 001E;
  1076 : 0002;
  1077 : 004B;
  1078 : 0011;
  1079 : FFEC;
  1080 : 002A;
  1081 : FFCD;
  1082 : FFEE;
  1083 : FFE8;
  1084 : FFF6;
  1085 : 002B;
  1086 : FFFE;
  1087 : 002D;
  1088 : 000C;
  1089 : FFE8;
  1090 : 0030;
  1091 : FFD8;
  1092 : FFD6;
  1093 : 0001;
  1094 : FFDB;
  1095 : FFB5;
  1096 : 0017;
  1097 : 0002;
  1098 : FFF8;
  1099 : 0048;
  1100 : 000B;
  1101 : 0038;
  1102 : FFC9;
  1103 : 000B;
  1104 : 0039;
  1105 : 000D;
  1106 : 0021;
  1107 : FFEC;
  1108 : FFC1;
  1109 : FFFA;
  1110 : FFF0;
  1111 : 0038;
  1112 : FFD9;
  1113 : 0048;
  1114 : 0046;
  1115 : FFD9;
  1116 : FFE9;
  1117 : 003D;
  1118 : 0048;
  1119 : FFF7;
  1120 : FFE5;
  1121 : 0004;
  1122 : 001D;
  1123 : FFDD;
  1124 : 0024;
  1125 : FFBB;
  1126 : FFBB;
  1127 : FFEF;
  1128 : FFE9;
  1129 : FFE4;
  1130 : FFFF;
  1131 : FFE4;
  1132 : FFD1;
  1133 : FFE3;
  1134 : 0049;
  1135 : FFF2;
  1136 : FFF8;
  1137 : 000C;
  1138 : 004A;
  1139 : FFD8;
  1140 : 001C;
  1141 : 0021;
  1142 : 0010;
  1143 : FFC1;
  1144 : 001B;
  1145 : FFBD;
  1146 : 000F;
  1147 : 0025;
  1148 : FFD4;
  1149 : 0034;
  1150 : FFB8;
  1151 : 0035;
  1152 : FFFA;
  1153 : FFD5;
  1154 : FFC8;
  1155 : 0046;
  1156 : FFBE;
  1157 : FFD2;
  1158 : FFE9;
  1159 : 0012;
  1160 : 0007;
  1161 : FFC6;
  1162 : FFE0;
  1163 : FFD8;
  1164 : FFD4;
  1165 : FFF2;
  1166 : 001F;
  1167 : FFD5;
  1168 : FFEC;
  1169 : FFEF;
  1170 : 0049;
  1171 : 0046;
  1172 : 002E;
  1173 : FFD8;
  1174 : FFBE;
  1175 : FFE4;
  1176 : FFDC;
  1177 : 0001;
  1178 : 002B;
  1179 : 0037;
  1180 : 0035;
  1181 : FFEA;
  1182 : 001D;
  1183 : FFE3;
  1184 : FFBD;
  1185 : 001F;
  1186 : FFB5;
  1187 : FFF2;
  1188 : FFE6;
  1189 : 001E;
  1190 : 0029;
  1191 : FFE2;
  1192 : 0030;
  1193 : FFE0;
  1194 : FFF8;
  1195 : 0023;
  1196 : 001E;
  1197 : 004B;
  1198 : FFD6;
  1199 : 0019;
  1200 : 0011;
  1201 : 0040;
  1202 : FFCB;
  1203 : 0027;
  1204 : 000A;
  1205 : FFDD;
  1206 : FFFC;
  1207 : FFE6;
  1208 : 000C;
  1209 : 003C;
  1210 : 000B;
  1211 : 0014;
  1212 : 0003;
  1213 : FFBB;
  1214 : FFD7;
  1215 : FFFF;
  1216 : FFE3;
  1217 : FFCF;
  1218 : 0001;
  1219 : FFE5;
  1220 : FFDB;
  1221 : FFFA;
  1222 : FFC8;
  1223 : 0042;
  1224 : 0038;
  1225 : 0020;
  1226 : FFC4;
  1227 : 002A;
  1228 : 002F;
  1229 : 0029;
  1230 : FFC5;
  1231 : 0016;
  1232 : 0033;
  1233 : 000C;
  1234 : 0016;
  1235 : FFFA;
  1236 : 0004;
  1237 : FFB8;
  1238 : 0015;
  1239 : FFC0;
  1240 : FFF6;
  1241 : FFE0;
  1242 : 0007;
  1243 : FFC8;
  1244 : 001D;
  1245 : 002D;
  1246 : FFCC;
  1247 : FFC3;
  1248 : FFCA;
  1249 : 003A;
  1250 : 0004;
  1251 : FFFB;
  1252 : FFC4;
  1253 : 0017;
  1254 : 0039;
  1255 : 0032;
  1256 : 0013;
  1257 : FFBF;
  1258 : FFC4;
  1259 : FFBB;
  1260 : FFDB;
  1261 : FFC8;
  1262 : FFDB;
  1263 : FFEE;
  1264 : 0044;
  1265 : 0011;
  1266 : 0033;
  1267 : 0020;
  1268 : FFC4;
  1269 : 0024;
  1270 : FFDD;
  1271 : 0015;
  1272 : FFE8;
  1273 : 004C;
  1274 : FFDC;
  1275 : FFDE;
  1276 : 0042;
  1277 : FFB7;
  1278 : 001E;
  1279 : 0023;
  1280 : 0034;
  1281 : 0049;
  1282 : 0049;
  1283 : FFBD;
  1284 : 0031;
  1285 : 0016;
  1286 : 0017;
  1287 : FFC7;
  1288 : 0017;
  1289 : 004A;
  1290 : 003F;
  1291 : FFF7;
  1292 : FFB9;
  1293 : FFEB;
  1294 : 0032;
  1295 : 001F;
  1296 : FFFA;
  1297 : FFBC;
  1298 : FFF5;
  1299 : FFFB;
  1300 : 0042;
  1301 : 0016;
  1302 : FFE3;
  1303 : 0004;
  1304 : FFBD;
  1305 : 0049;
  1306 : FFEB;
  1307 : FFFD;
  1308 : FFEA;
  1309 : 001C;
  1310 : 0019;
  1311 : 0021;
  1312 : FFDC;
  1313 : FFE4;
  1314 : FFC6;
  1315 : 0018;
  1316 : FFB9;
  1317 : 000F;
  1318 : 0039;
  1319 : 003C;
  1320 : FFF8;
  1321 : FFFA;
  1322 : FFBF;
  1323 : 001A;
  1324 : 0031;
  1325 : FFD9;
  1326 : FFF4;
  1327 : 0034;
  1328 : 003A;
  1329 : FFD9;
  1330 : 0008;
  1331 : FFD1;
  1332 : FFC3;
  1333 : 003F;
  1334 : 0031;
  1335 : 0028;
  1336 : FFBB;
  1337 : 0035;
  1338 : FFF6;
  1339 : FFE8;
  1340 : 0007;
  1341 : FFC1;
  1342 : 0027;
  1343 : 000D;
  1344 : FFD0;
  1345 : FFD0;
  1346 : FFD0;
  1347 : FFBC;
  1348 : 000D;
  1349 : 0034;
  1350 : FFB6;
  1351 : FFBB;
  1352 : 000B;
  1353 : 0031;
  1354 : FFE5;
  1355 : FFE9;
  1356 : 000F;
  1357 : FFDD;
  1358 : FFB7;
  1359 : 0024;
  1360 : 0013;
  1361 : 000C;
  1362 : 0025;
  1363 : 001B;
  1364 : FFD3;
  1365 : FFE9;
  1366 : FFC7;
  1367 : FFC7;
  1368 : 001B;
  1369 : 0037;
  1370 : 0047;
  1371 : 0014;
  1372 : FFCF;
  1373 : FFC3;
  1374 : 0030;
  1375 : 000C;
  1376 : 0012;
  1377 : 002B;
  1378 : 001F;
  1379 : 0033;
  1380 : FFBC;
  1381 : 0026;
  1382 : 0036;
  1383 : FFDF;
  1384 : 0016;
  1385 : FFE3;
  1386 : 0046;
  1387 : FFB8;
  1388 : 000C;
  1389 : FFCD;
  1390 : 0021;
  1391 : FFCE;
  1392 : FFD7;
  1393 : FFFF;
  1394 : 0040;
  1395 : FFD4;
  1396 : FFC9;
  1397 : 0028;
  1398 : 0000;
  1399 : 003F;
  1400 : FFCA;
  1401 : 0016;
  1402 : FFD7;
  1403 : FFCB;
  1404 : 001C;
  1405 : 000E;
  1406 : 0027;
  1407 : FFE3;
  1408 : FFF8;
  1409 : FFF1;
  1410 : 004A;
  1411 : FFE0;
  1412 : FFE0;
  1413 : FFEA;
  1414 : 000A;
  1415 : FFDA;
  1416 : 0040;
  1417 : FFDC;
  1418 : 003D;
  1419 : FFC3;
  1420 : 0018;
  1421 : 003F;
  1422 : FFCD;
  1423 : 0048;
  1424 : FFF9;
  1425 : 0044;
  1426 : 001B;
  1427 : FFE2;
  1428 : FFD0;
  1429 : FFE2;
  1430 : FFC1;
  1431 : FFC9;
  1432 : FFC3;
  1433 : FFF4;
  1434 : 002D;
  1435 : FFC9;
  1436 : FFC7;
  1437 : 0016;
  1438 : FFD1;
  1439 : FFC2;
  1440 : FFCD;
  1441 : 0041;
  1442 : 0031;
  1443 : FFEA;
  1444 : 0018;
  1445 : 0006;
  1446 : 001B;
  1447 : 001C;
  1448 : 0014;
  1449 : FFDC;
  1450 : FFB9;
  1451 : FFF9;
  1452 : 003C;
  1453 : 000B;
  1454 : 0033;
  1455 : 004C;
  1456 : FFCC;
  1457 : 001D;
  1458 : 001B;
  1459 : 004A;
  1460 : 004B;
  1461 : 001D;
  1462 : FFD9;
  1463 : 002E;
  1464 : FFC4;
  1465 : 002B;
  1466 : 003F;
  1467 : FFEE;
  1468 : 0014;
  1469 : FFF5;
  1470 : FFF6;
  1471 : FFE3;
  1472 : 0028;
  1473 : 0043;
  1474 : 0044;
  1475 : FFCE;
  1476 : 003A;
  1477 : 0024;
  1478 : FFDA;
  1479 : FFBE;
  1480 : FFDC;
  1481 : 003F;
  1482 : 0014;
  1483 : 0022;
  1484 : FFDB;
  1485 : 0022;
  1486 : FFB8;
  1487 : FFED;
  1488 : 0013;
  1489 : FFCA;
  1490 : 0032;
  1491 : FFD7;
  1492 : 0017;
  1493 : FFF1;
  1494 : 000F;
  1495 : FFC4;
  1496 : FFB6;
  1497 : 003F;
  1498 : FFDD;
  1499 : 0031;
  1500 : 004D;
  1501 : FFD4;
  1502 : FFDC;
  1503 : 0019;
  1504 : 0047;
  1505 : 0040;
  1506 : 0000;
  1507 : 002D;
  1508 : FFC8;
  1509 : 0049;
  1510 : 0047;
  1511 : FFCC;
  1512 : FFE1;
  1513 : FFC3;
  1514 : FFDD;
  1515 : 0031;
  1516 : FFED;
  1517 : FFC1;
  1518 : FFE8;
  1519 : 004A;
  1520 : 0014;
  1521 : FFF3;
  1522 : FFCD;
  1523 : 004B;
  1524 : 0031;
  1525 : FFDE;
  1526 : FFBE;
  1527 : FFBC;
  1528 : FFC6;
  1529 : 000C;
  1530 : 0042;
  1531 : FFFF;
  1532 : 0035;
  1533 : FFF8;
  1534 : 0020;
  1535 : 0024;
  1536 : FFCE;
  1537 : FFEB;
  1538 : 0015;
  1539 : FFBE;
  1540 : FFEB;
  1541 : 0005;
  1542 : 004C;
  1543 : FFFC;
  1544 : 0031;
  1545 : FFF6;
  1546 : 002E;
  1547 : 000F;
  1548 : 003B;
  1549 : FFF2;
  1550 : 0010;
  1551 : 0014;
  1552 : FFF3;
  1553 : FFC9;
  1554 : FFC2;
  1555 : FFB6;
  1556 : 0039;
  1557 : FFD8;
  1558 : FFD4;
  1559 : 0024;
  1560 : FFE4;
  1561 : 0001;
  1562 : FFCC;
  1563 : 0047;
  1564 : 0036;
  1565 : 0038;
  1566 : FFF2;
  1567 : 0028;
  1568 : FFC9;
  1569 : FFB5;
  1570 : FFB6;
  1571 : 000D;
  1572 : FFF9;
  1573 : 0003;
  1574 : FFB4;
  1575 : FFF4;
  1576 : 0021;
  1577 : FFF7;
  1578 : 0024;
  1579 : FFD7;
  1580 : 0030;
  1581 : 000E;
  1582 : FFD4;
  1583 : FFD8;
  1584 : 0014;
  1585 : 0033;
  1586 : FFF3;
  1587 : FFDB;
  1588 : 0038;
  1589 : 001A;
  1590 : FFF8;
  1591 : FFFE;
  1592 : FFD3;
  1593 : 0013;
  1594 : FFEA;
  1595 : 004C;
  1596 : FFFD;
  1597 : FFFE;
  1598 : 000A;
  1599 : 0040;
  1600 : 002E;
  1601 : FFF8;
  1602 : 0022;
  1603 : 000D;
  1604 : FFFF;
  1605 : FFD1;
  1606 : FFFA;
  1607 : FFD9;
  1608 : 0040;
  1609 : FFE7;
  1610 : 0045;
  1611 : 0005;
  1612 : 0014;
  1613 : 0007;
  1614 : FFC7;
  1615 : FFED;
  1616 : FFC2;
  1617 : 0013;
  1618 : FFF8;
  1619 : 002B;
  1620 : FFD5;
  1621 : FFCC;
  1622 : FFF2;
  1623 : 0042;
  1624 : 0020;
  1625 : FFF4;
  1626 : 0003;
  1627 : FFC0;
  1628 : 004A;
  1629 : 001A;
  1630 : FFDF;
  1631 : 000D;
  1632 : FFC4;
  1633 : 0048;
  1634 : FFCE;
  1635 : 0017;
  1636 : FFD9;
  1637 : 0021;
  1638 : 002B;
  1639 : 001B;
  1640 : 0012;
  1641 : 003C;
  1642 : FFBF;
  1643 : FFE6;
  1644 : FFD9;
  1645 : 004B;
  1646 : FFEF;
  1647 : 0024;
  1648 : 001C;
  1649 : FFD4;
  1650 : FFD8;
  1651 : FFDE;
  1652 : FFF2;
  1653 : FFD7;
  1654 : FFB6;
  1655 : 003A;
  1656 : 0048;
  1657 : FFE8;
  1658 : FFE7;
  1659 : FFB4;
  1660 : 001C;
  1661 : 0032;
  1662 : FFCA;
  1663 : FFCC;
  1664 : 002D;
  1665 : 0012;
  1666 : FFBA;
  1667 : 0013;
  1668 : FFE3;
  1669 : FFEC;
  1670 : 0029;
  1671 : 0030;
  1672 : FFF1;
  1673 : 0045;
  1674 : FFF2;
  1675 : 002A;
  1676 : FFFE;
  1677 : 003D;
  1678 : 003F;
  1679 : FFC1;
  1680 : 0043;
  1681 : 0032;
  1682 : 002D;
  1683 : FFD2;
  1684 : 002F;
  1685 : 0036;
  1686 : FFE0;
  1687 : 0045;
  1688 : FFBB;
  1689 : FFCA;
  1690 : 0006;
  1691 : 000C;
  1692 : 0016;
  1693 : FFB6;
  1694 : 0047;
  1695 : FFBA;
  1696 : FFC9;
  1697 : FFB5;
  1698 : 000A;
  1699 : 0042;
  1700 : 0019;
  1701 : 0032;
  1702 : FFB5;
  1703 : 0006;
  1704 : FFFA;
  1705 : 0000;
  1706 : FFBE;
  1707 : 001C;
  1708 : 0000;
  1709 : 0029;
  1710 : FFFE;
  1711 : FFCA;
  1712 : 0017;
  1713 : FFCE;
  1714 : 0039;
  1715 : 0011;
  1716 : FFCB;
  1717 : 0047;
  1718 : 0003;
  1719 : FFBE;
  1720 : 0013;
  1721 : FFDA;
  1722 : 002F;
  1723 : 0031;
  1724 : 004A;
  1725 : 0000;
  1726 : FFF9;
  1727 : 0027;
  1728 : FFC8;
  1729 : 0007;
  1730 : 0007;
  1731 : FFC1;
  1732 : FFF3;
  1733 : 0036;
  1734 : 0037;
  1735 : FFC2;
  1736 : FFC1;
  1737 : FFDC;
  1738 : 003A;
  1739 : FFC7;
  1740 : 0022;
  1741 : FFC3;
  1742 : 0013;
  1743 : FFEA;
  1744 : 002C;
  1745 : FFD7;
  1746 : 0015;
  1747 : FFD7;
  1748 : 0021;
  1749 : 0039;
  1750 : FFC7;
  1751 : 0038;
  1752 : 000E;
  1753 : FFC7;
  1754 : FFF5;
  1755 : FFCC;
  1756 : 001F;
  1757 : 0028;
  1758 : FFC3;
  1759 : 0001;
  1760 : 0030;
  1761 : 0043;
  1762 : 0002;
  1763 : 0045;
  1764 : 0005;
  1765 : FFF0;
  1766 : 0035;
  1767 : FFFF;
  1768 : FFFC;
  1769 : FFFF;
  1770 : 0035;
  1771 : 0033;
  1772 : FFF1;
  1773 : FFE6;
  1774 : FFFF;
  1775 : 000B;
  1776 : FFD8;
  1777 : 002D;
  1778 : FFFE;
  1779 : FFE7;
  1780 : FFC4;
  1781 : FFD8;
  1782 : 0045;
  1783 : FFE2;
  1784 : FFCD;
  1785 : FFFA;
  1786 : FFE2;
  1787 : FFB9;
  1788 : FFE5;
  1789 : 0007;
  1790 : 0008;
  1791 : FFEA;
  1792 : FFF8;
  1793 : 0048;
  1794 : FFED;
  1795 : FFDB;
  1796 : FFD9;
  1797 : FFFA;
  1798 : 0028;
  1799 : FFD3;
  1800 : 0020;
  1801 : FFB6;
  1802 : FFF4;
  1803 : 002A;
  1804 : FFE7;
  1805 : 000A;
  1806 : FFD3;
  1807 : 0025;
  1808 : FFBB;
  1809 : 0036;
  1810 : FFD2;
  1811 : 003A;
  1812 : FFE9;
  1813 : 0022;
  1814 : FFE4;
  1815 : 003E;
  1816 : FFC7;
  1817 : FFCF;
  1818 : FFFF;
  1819 : FFC0;
  1820 : FFD1;
  1821 : 0044;
  1822 : 0049;
  1823 : FFED;
  1824 : 0041;
  1825 : 0007;
  1826 : FFDD;
  1827 : 001F;
  1828 : 0018;
  1829 : 004B;
  1830 : FFDC;
  1831 : 001A;
  1832 : FFBB;
  1833 : FFC5;
  1834 : FFB4;
  1835 : 004D;
  1836 : 002E;
  1837 : 002C;
  1838 : 0001;
  1839 : FFE1;
  1840 : FFCA;
  1841 : FFDF;
  1842 : FFED;
  1843 : 0027;
  1844 : 0006;
  1845 : FFBF;
  1846 : FFB6;
  1847 : FFC3;
  1848 : FFF2;
  1849 : 0043;
  1850 : 0015;
  1851 : 002E;
  1852 : FFFB;
  1853 : FFEB;
  1854 : FFC4;
  1855 : 003A;
  1856 : 002B;
  1857 : FFCD;
  1858 : 0002;
  1859 : FFFE;
  1860 : 0013;
  1861 : 0045;
  1862 : 000C;
  1863 : 0006;
  1864 : FFBB;
  1865 : FFBD;
  1866 : FFD0;
  1867 : FFB8;
  1868 : 0025;
  1869 : 0022;
  1870 : FFC8;
  1871 : 0034;
  1872 : FFCB;
  1873 : FFE1;
  1874 : FFD9;
  1875 : FFEC;
  1876 : FFDA;
  1877 : FFFE;
  1878 : FFF2;
  1879 : 004B;
  1880 : FFBC;
  1881 : FFC9;
  1882 : FFBB;
  1883 : 0013;
  1884 : FFBC;
  1885 : 0034;
  1886 : 0002;
  1887 : 0004;
  1888 : 0009;
  1889 : FFCD;
  1890 : FFD2;
  1891 : FFE4;
  1892 : 000E;
  1893 : FFD3;
  1894 : FFC5;
  1895 : 0048;
  1896 : FFB7;
  1897 : 002E;
  1898 : 002C;
  1899 : FFE1;
  1900 : FFC8;
  1901 : FFCA;
  1902 : 001E;
  1903 : 0016;
  1904 : 002B;
  1905 : 0043;
  1906 : 001D;
  1907 : FFCB;
  1908 : FFD9;
  1909 : 0035;
  1910 : FFD3;
  1911 : FFBE;
  1912 : 001F;
  1913 : FFF1;
  1914 : 0041;
  1915 : 0017;
  1916 : FFC1;
  1917 : 0045;
  1918 : FFDB;
  1919 : FFE7;
  1920 : FFF1;
  1921 : FFBB;
  1922 : FFFF;
  1923 : FFC6;
  1924 : FFF1;
  1925 : FFE9;
  1926 : 002A;
  1927 : 002F;
  1928 : FFCB;
  1929 : FFEC;
  1930 : FFED;
  1931 : FFCA;
  1932 : 002E;
  1933 : 0020;
  1934 : FFD0;
  1935 : FFEC;
  1936 : FFC3;
  1937 : 0014;
  1938 : FFC6;
  1939 : 004B;
  1940 : 002B;
  1941 : FFEF;
  1942 : 000C;
  1943 : 003F;
  1944 : 0008;
  1945 : FFCE;
  1946 : FFED;
  1947 : 0035;
  1948 : 0016;
  1949 : 0017;
  1950 : 0038;
  1951 : 003D;
  1952 : 0040;
  1953 : FFC2;
  1954 : 0007;
  1955 : 0025;
  1956 : 0027;
  1957 : 0010;
  1958 : FFCD;
  1959 : 002E;
  1960 : 0022;
  1961 : FFC0;
  1962 : FFFA;
  1963 : FFCE;
  1964 : FFE7;
  1965 : FFB6;
  1966 : FFF1;
  1967 : 0008;
  1968 : 0012;
  1969 : 0019;
  1970 : 0034;
  1971 : FFD4;
  1972 : FFC6;
  1973 : 0036;
  1974 : FFCB;
  1975 : 0049;
  1976 : 0035;
  1977 : 0000;
  1978 : 004A;
  1979 : FFC2;
  1980 : FFE2;
  1981 : 0015;
  1982 : FFE9;
  1983 : 0042;
  1984 : FFBD;
  1985 : 0008;
  1986 : 000E;
  1987 : 0017;
  1988 : FFDA;
  1989 : FFEB;
  1990 : 0035;
  1991 : FFD1;
  1992 : 0032;
  1993 : 000A;
  1994 : 0028;
  1995 : 0021;
  1996 : FFD3;
  1997 : 000B;
  1998 : 0038;
  1999 : FFF6;
  2000 : 0048;
  2001 : FFF9;
  2002 : FFC9;
  2003 : FFEF;
  2004 : 0045;
  2005 : FFE4;
  2006 : 0039;
  2007 : 003B;
  2008 : FFE9;
  2009 : FFC0;
  2010 : 0022;
  2011 : FFE3;
  2012 : 002B;
  2013 : FFF7;
  2014 : FFFE;
  2015 : 002B;
  2016 : FFEE;
  2017 : FFF7;
  2018 : FFED;
  2019 : FFEC;
  2020 : 0004;
  2021 : 002F;
  2022 : FFEB;
  2023 : 0004;
  2024 : 001A;
  2025 : FFDD;
  2026 : FFDE;
  2027 : 0043;
  2028 : 0022;
  2029 : 000C;
  2030 : 0017;
  2031 : FFB8;
  2032 : 0012;
  2033 : 0001;
  2034 : 0007;
  2035 : FFEA;
  2036 : FFC0;
  2037 : FFD1;
  2038 : 0045;
  2039 : FFF2;
  2040 : FFFB;
  2041 : FFBB;
  2042 : FFB9;
  2043 : 0021;
  2044 : 0006;
  2045 : 0001;
  2046 : FFD9;
  2047 : 0026;
  2048 : FFCD;
  2049 : FFD0;
  2050 : FFFA;
  2051 : FFDF;
  2052 : FFD9;
  2053 : 0016;
  2054 : 0017;
  2055 : 0032;
  2056 : FFF3;
  2057 : FFBE;
  2058 : FFDD;
  2059 : 004A;
  2060 : 000F;
  2061 : 0020;
  2062 : FFB4;
  2063 : 0003;
  2064 : FFB9;
  2065 : 000B;
  2066 : 0041;
  2067 : 0048;
  2068 : 0006;
  2069 : FFFA;
  2070 : 0044;
  2071 : 001B;
  2072 : FFBD;
  2073 : FFFB;
  2074 : FFD8;
  2075 : FFFB;
  2076 : FFF9;
  2077 : 000D;
  2078 : FFEA;
  2079 : FFCC;
  2080 : 0001;
  2081 : 0033;
  2082 : 0019;
  2083 : FFE7;
  2084 : 0043;
  2085 : 003F;
  2086 : FFD3;
  2087 : FFB9;
  2088 : 0025;
  2089 : 0032;
  2090 : 0048;
  2091 : 003C;
  2092 : 000F;
  2093 : 0005;
  2094 : FFB7;
  2095 : FFD9;
  2096 : FFFA;
  2097 : 0014;
  2098 : 0009;
  2099 : 0025;
  2100 : FFDE;
  2101 : 000A;
  2102 : FFC1;
  2103 : FFF3;
  2104 : 0026;
  2105 : 001E;
  2106 : 004B;
  2107 : FFDE;
  2108 : 0000;
  2109 : FFE6;
  2110 : FFF7;
  2111 : 0037;
  2112 : 001C;
  2113 : 003B;
  2114 : FFD2;
  2115 : 0039;
  2116 : FFBC;
  2117 : 003C;
  2118 : FFE6;
  2119 : FFE4;
  2120 : 0002;
  2121 : 0044;
  2122 : FFBB;
  2123 : FFE9;
  2124 : 0037;
  2125 : FFF0;
  2126 : FFD2;
  2127 : FFF4;
  2128 : FFEE;
  2129 : 0040;
  2130 : 0028;
  2131 : 0001;
  2132 : 004B;
  2133 : FFFB;
  2134 : FFBC;
  2135 : FFDB;
  2136 : FFF6;
  2137 : FFCB;
  2138 : 0045;
  2139 : 0029;
  2140 : FFDC;
  2141 : 000E;
  2142 : 0022;
  2143 : 0044;
  2144 : 003B;
  2145 : 0002;
  2146 : 002A;
  2147 : 000A;
  2148 : 0008;
  2149 : FFC5;
  2150 : FFC7;
  2151 : 0005;
  2152 : FFDC;
  2153 : FFB6;
  2154 : 0022;
  2155 : FFB8;
  2156 : 000F;
  2157 : 0006;
  2158 : 0048;
  2159 : FFFE;
  2160 : FFBD;
  2161 : 0008;
  2162 : 0034;
  2163 : 004C;
  2164 : FFF5;
  2165 : FFE4;
  2166 : 003E;
  2167 : FFD1;
  2168 : 0012;
  2169 : FFF2;
  2170 : FFBA;
  2171 : FFE9;
  2172 : FFDC;
  2173 : 001D;
  2174 : 0045;
  2175 : FFDC;
  2176 : 0030;
  2177 : FFBC;
  2178 : 0006;
  2179 : FFBE;
  2180 : 0043;
  2181 : 0029;
  2182 : 0018;
  2183 : 0032;
  2184 : 0017;
  2185 : 0048;
  2186 : 0021;
  2187 : 0041;
  2188 : 0003;
  2189 : FFC5;
  2190 : 0004;
  2191 : FFC7;
  2192 : 000E;
  2193 : FFFD;
  2194 : 0013;
  2195 : FFB5;
  2196 : FFD1;
  2197 : FFFF;
  2198 : 0045;
  2199 : FFEE;
  2200 : FFF4;
  2201 : 0021;
  2202 : 0010;
  2203 : FFE1;
  2204 : FFF2;
  2205 : FFD5;
  2206 : 0048;
  2207 : FFC7;
  2208 : FFEC;
  2209 : FFB7;
  2210 : FFD5;
  2211 : 002B;
  2212 : FFD2;
  2213 : FFBF;
  2214 : FFFC;
  2215 : FFB5;
  2216 : FFC0;
  2217 : 002F;
  2218 : 002A;
  2219 : 0040;
  2220 : 0036;
  2221 : 001C;
  2222 : FFBB;
  2223 : 002B;
  2224 : 0035;
  2225 : 002E;
  2226 : 0001;
  2227 : FFD7;
  2228 : 0035;
  2229 : 0023;
  2230 : 004A;
  2231 : FFCB;
  2232 : FFD6;
  2233 : FFD4;
  2234 : 002D;
  2235 : FFD0;
  2236 : FFBD;
  2237 : 004D;
  2238 : FFB7;
  2239 : 0033;
  2240 : FFEB;
  2241 : 0034;
  2242 : 0008;
  2243 : 003E;
  2244 : 0041;
  2245 : FFB5;
  2246 : FFBF;
  2247 : FFDA;
  2248 : 001A;
  2249 : 003C;
  2250 : FFFA;
  2251 : 0010;
  2252 : FFD0;
  2253 : 002F;
  2254 : 0048;
  2255 : FFDC;
  2256 : FFFF;
  2257 : FFC0;
  2258 : 0009;
  2259 : 0000;
  2260 : FFC9;
  2261 : FFF7;
  2262 : FFE7;
  2263 : 0003;
  2264 : 000D;
  2265 : FFB5;
  2266 : 0028;
  2267 : 0021;
  2268 : FFEB;
  2269 : FFBB;
  2270 : 0027;
  2271 : 0046;
  2272 : FFD8;
  2273 : FFE5;
  2274 : FFCF;
  2275 : 000C;
  2276 : FFCB;
  2277 : FFEA;
  2278 : 001E;
  2279 : 0009;
  2280 : FFEF;
  2281 : FFF4;
  2282 : 000A;
  2283 : FFB4;
  2284 : FFBF;
  2285 : 003B;
  2286 : FFBF;
  2287 : 0020;
  2288 : 0041;
  2289 : FFDD;
  2290 : FFEC;
  2291 : 000B;
  2292 : 003B;
  2293 : 0044;
  2294 : 0025;
  2295 : FFC1;
  2296 : 001A;
  2297 : FFF2;
  2298 : FFFB;
  2299 : FFBB;
  2300 : FFD1;
  2301 : 002D;
  2302 : FFF9;
  2303 : FFE2;
  2304 : FFEE;
  2305 : 0036;
  2306 : 0026;
  2307 : FFDD;
  2308 : FFC5;
  2309 : FFDA;
  2310 : 0041;
  2311 : 000D;
  2312 : 0005;
  2313 : 000F;
  2314 : FFEB;
  2315 : 002F;
  2316 : 0004;
  2317 : FFC5;
  2318 : FFC7;
  2319 : 0006;
  2320 : 0043;
  2321 : FFE3;
  2322 : 0039;
  2323 : 0029;
  2324 : FFD9;
  2325 : FFB9;
  2326 : FFC3;
  2327 : 0023;
  2328 : FFD2;
  2329 : FFEC;
  2330 : 0000;
  2331 : 0023;
  2332 : FFC5;
  2333 : FFF2;
  2334 : FFFE;
  2335 : 0006;
  2336 : 0031;
  2337 : FFCE;
  2338 : 002F;
  2339 : 001E;
  2340 : 0009;
  2341 : 001F;
  2342 : FFF2;
  2343 : FFC8;
  2344 : 0019;
  2345 : 0004;
  2346 : 0015;
  2347 : FFE7;
  2348 : 003E;
  2349 : 000D;
  2350 : FFC0;
  2351 : FFF8;
  2352 : 0027;
  2353 : 002D;
  2354 : FFFF;
  2355 : 003D;
  2356 : FFDC;
  2357 : FFF2;
  2358 : 003D;
  2359 : 003D;
  2360 : 001D;
  2361 : 0037;
  2362 : FFC1;
  2363 : 0038;
  2364 : FFE4;
  2365 : FFCF;
  2366 : FFD8;
  2367 : FFF3;
  2368 : FFDA;
  2369 : FFE4;
  2370 : FFC8;
  2371 : FFE1;
  2372 : 000B;
  2373 : FFF7;
  2374 : FFE8;
  2375 : 0026;
  2376 : 003C;
  2377 : 0027;
  2378 : FFE6;
  2379 : 0026;
  2380 : FFCB;
  2381 : FFC7;
  2382 : FFE8;
  2383 : 002F;
  2384 : FFD9;
  2385 : FFBD;
  2386 : FFC7;
  2387 : 0037;
  2388 : 0015;
  2389 : FFDA;
  2390 : 0008;
  2391 : 0004;
  2392 : 0018;
  2393 : FFD7;
  2394 : 0038;
  2395 : FFE3;
  2396 : 001E;
  2397 : FFB6;
  2398 : FFEC;
  2399 : FFE9;
  2400 : 0007;
  2401 : FFBE;
  2402 : 002D;
  2403 : FFD5;
  2404 : 001B;
  2405 : 002F;
  2406 : 000A;
  2407 : 0025;
  2408 : 0019;
  2409 : FFEA;
  2410 : 002F;
  2411 : FFE0;
  2412 : 000B;
  2413 : 0026;
  2414 : FFED;
  2415 : FFE2;
  2416 : FFFA;
  2417 : 0031;
  2418 : 0042;
  2419 : 0007;
  2420 : 0019;
  2421 : 003E;
  2422 : FFC2;
  2423 : FFD7;
  2424 : 0020;
  2425 : 0032;
  2426 : 0037;
  2427 : FFF3;
  2428 : FFC1;
  2429 : FFF6;
  2430 : FFD7;
  2431 : FFE0;
  2432 : 002A;
  2433 : FFBF;
  2434 : 0032;
  2435 : FFF5;
  2436 : 000F;
  2437 : FFC1;
  2438 : FFE7;
  2439 : FFC1;
  2440 : 0047;
  2441 : 002F;
  2442 : FFFA;
  2443 : FFD6;
  2444 : 0043;
  2445 : FFE8;
  2446 : FFCC;
  2447 : 000A;
  2448 : 0044;
  2449 : FFB4;
  2450 : FFD8;
  2451 : 0043;
  2452 : FFCD;
  2453 : FFC5;
  2454 : 000B;
  2455 : 0038;
  2456 : FFFC;
  2457 : 004C;
  2458 : 001C;
  2459 : FFBF;
  2460 : 004C;
  2461 : FFF2;
  2462 : FFDF;
  2463 : 0009;
  2464 : FFE2;
  2465 : FFC0;
  2466 : FFB3;
  2467 : FFF8;
  2468 : 0034;
  2469 : 000B;
  2470 : 004D;
  2471 : FFDF;
  2472 : FFDE;
  2473 : FFCC;
  2474 : FFCC;
  2475 : FFDF;
  2476 : 002D;
  2477 : 003E;
  2478 : 0049;
  2479 : FFD7;
  2480 : 003B;
  2481 : FFE6;
  2482 : FFC5;
  2483 : 0039;
  2484 : 0015;
  2485 : FFCD;
  2486 : FFF5;
  2487 : FFDF;
  2488 : 0024;
  2489 : FFF9;
  2490 : 004B;
  2491 : FFBC;
  2492 : FFEA;
  2493 : FFFD;
  2494 : 0000;
  2495 : FFE4;
  2496 : 0023;
  2497 : 003A;
  2498 : 0043;
  2499 : 002F;
  2500 : 0036;
  2501 : 0008;
  2502 : 0032;
  2503 : FFE2;
  2504 : FFF0;
  2505 : FFE4;
  2506 : FFFB;
  2507 : FFDF;
  2508 : 0047;
  2509 : FFE3;
  2510 : FFC2;
  2511 : 0004;
  2512 : FFBC;
  2513 : FFC4;
  2514 : FFD5;
  2515 : FFFB;
  2516 : FFF6;
  2517 : 002E;
  2518 : 0025;
  2519 : FFF5;
  2520 : FFE6;
  2521 : FFE4;
  2522 : 002A;
  2523 : FFBB;
  2524 : FFB5;
  2525 : 002D;
  2526 : FFFC;
  2527 : FFC7;
  2528 : FFD7;
  2529 : 0042;
  2530 : 0037;
  2531 : 0020;
  2532 : FFFD;
  2533 : 0003;
  2534 : 0049;
  2535 : 0048;
  2536 : FFD4;
  2537 : 0030;
  2538 : FFD1;
  2539 : FFD4;
  2540 : 001B;
  2541 : FFF1;
  2542 : 0042;
  2543 : FFC1;
  2544 : 0002;
  2545 : 0040;
  2546 : 003E;
  2547 : FFCB;
  2548 : FFEC;
  2549 : 0012;
  2550 : FFCC;
  2551 : 0048;
  2552 : 0040;
  2553 : FFCD;
  2554 : FFC6;
  2555 : FFC0;
  2556 : 003F;
  2557 : FFD1;
  2558 : FFF3;
  2559 : FFF8;
  2560 : 000F;
  2561 : FFBE;
  2562 : FFD6;
  2563 : 0042;
  2564 : 003F;
  2565 : 002B;
  2566 : FFB6;
  2567 : FFE5;
  2568 : 0014;
  2569 : FFDD;
  2570 : 003F;
  2571 : 0015;
  2572 : FFBE;
  2573 : 003F;
  2574 : 0046;
  2575 : FFBF;
  2576 : 0005;
  2577 : FFE2;
  2578 : FFF0;
  2579 : FFCF;
  2580 : 000C;
  2581 : 0046;
  2582 : 0000;
  2583 : FFC0;
  2584 : 0012;
  2585 : FFE7;
  2586 : 0037;
  2587 : FFF6;
  2588 : FFD1;
  2589 : FFD1;
  2590 : 0029;
  2591 : FFDC;
  2592 : 0029;
  2593 : FFD3;
  2594 : FFE5;
  2595 : FFFB;
  2596 : 0044;
  2597 : 0042;
  2598 : FFD3;
  2599 : FFEA;
  2600 : FFCA;
  2601 : 0002;
  2602 : FFFA;
  2603 : 003E;
  2604 : 0042;
  2605 : FFEE;
  2606 : FFFF;
  2607 : 003D;
  2608 : 002F;
  2609 : FFB4;
  2610 : FFE4;
  2611 : FFF4;
  2612 : FFD6;
  2613 : FFD2;
  2614 : FFB9;
  2615 : 0016;
  2616 : FFDC;
  2617 : FFBB;
  2618 : FFD7;
  2619 : 002E;
  2620 : 0036;
  2621 : FFFD;
  2622 : FFF3;
  2623 : 0049;
  2624 : FFD2;
  2625 : FFD4;
  2626 : FFE0;
  2627 : FFCE;
  2628 : FFED;
  2629 : 003F;
  2630 : 0012;
  2631 : FFF2;
  2632 : 0043;
  2633 : FFBB;
  2634 : FFD3;
  2635 : 000A;
  2636 : 0012;
  2637 : FFB9;
  2638 : FFF1;
  2639 : 0017;
  2640 : 001E;
  2641 : 0015;
  2642 : FFE4;
  2643 : FFC2;
  2644 : FFF5;
  2645 : FFC7;
  2646 : 0045;
  2647 : FFFC;
  2648 : FFE4;
  2649 : 0029;
  2650 : 0000;
  2651 : FFE3;
  2652 : 0030;
  2653 : 0038;
  2654 : 001B;
  2655 : FFBA;
  2656 : 000A;
  2657 : 0028;
  2658 : FFC8;
  2659 : FFD6;
  2660 : 003B;
  2661 : FFB6;
  2662 : 0027;
  2663 : FFFC;
  2664 : FFF8;
  2665 : FFB4;
  2666 : 0031;
  2667 : FFEA;
  2668 : 0006;
  2669 : 001B;
  2670 : 001F;
  2671 : 0046;
  2672 : 0005;
  2673 : FFF1;
  2674 : 0046;
  2675 : 0016;
  2676 : FFE1;
  2677 : FFC7;
  2678 : 0035;
  2679 : FFEB;
  2680 : 0019;
  2681 : FFFC;
  2682 : FFD2;
  2683 : 0010;
  2684 : FFBD;
  2685 : FFF3;
  2686 : 0007;
  2687 : FFF6;
  2688 : 0026;
  2689 : 0032;
  2690 : 002A;
  2691 : FFB9;
  2692 : FFD1;
  2693 : 0006;
  2694 : 0043;
  2695 : 0033;
  2696 : 0035;
  2697 : FFE2;
  2698 : FFF5;
  2699 : FFFC;
  2700 : FFCB;
  2701 : FFB8;
  2702 : 0045;
  2703 : FFD8;
  2704 : FFD8;
  2705 : FFC0;
  2706 : 0042;
  2707 : 000C;
  2708 : 001A;
  2709 : 003F;
  2710 : FFE8;
  2711 : 0013;
  2712 : FFB9;
  2713 : FFD0;
  2714 : 0033;
  2715 : 0029;
  2716 : FFE9;
  2717 : FFED;
  2718 : 0005;
  2719 : FFB3;
  2720 : FFD8;
  2721 : FFD3;
  2722 : FFDA;
  2723 : 002F;
  2724 : FFDE;
  2725 : FFD1;
  2726 : 0001;
  2727 : 0038;
  2728 : FFD8;
  2729 : FFBF;
  2730 : FFEA;
  2731 : 0026;
  2732 : 0008;
  2733 : 0031;
  2734 : 0047;
  2735 : 002D;
  2736 : 0010;
  2737 : FFFF;
  2738 : FFB9;
  2739 : 004A;
  2740 : FFEE;
  2741 : FFCB;
  2742 : 001A;
  2743 : FFDF;
  2744 : 000D;
  2745 : 000D;
  2746 : FFF8;
  2747 : 0034;
  2748 : FFDC;
  2749 : FFF8;
  2750 : 0006;
  2751 : 0019;
  2752 : 002C;
  2753 : FFF0;
  2754 : 0016;
  2755 : FFCA;
  2756 : 0042;
  2757 : FFEE;
  2758 : 0023;
  2759 : FFB6;
  2760 : FFD3;
  2761 : FFFE;
  2762 : 003A;
  2763 : 0004;
  2764 : 0042;
  2765 : FFFE;
  2766 : FFFF;
  2767 : FFC6;
  2768 : 002E;
  2769 : FFD9;
  2770 : 003D;
  2771 : 003F;
  2772 : 0044;
  2773 : 0003;
  2774 : 001B;
  2775 : 002B;
  2776 : FFC7;
  2777 : 0010;
  2778 : FFB8;
  2779 : 0000;
  2780 : FFCB;
  2781 : FFCF;
  2782 : FFEB;
  2783 : FFF6;
  2784 : 0013;
  2785 : FFBF;
  2786 : 0001;
  2787 : FFCF;
  2788 : 000B;
  2789 : 0015;
  2790 : 0009;
  2791 : 0025;
  2792 : FFE7;
  2793 : 0029;
  2794 : FFF6;
  2795 : FFFE;
  2796 : 0017;
  2797 : FFB6;
  2798 : 0018;
  2799 : 0012;
  2800 : FFE3;
  2801 : FFC0;
  2802 : FFC1;
  2803 : 0041;
  2804 : 001D;
  2805 : FFC7;
  2806 : FFEA;
  2807 : 000E;
  2808 : 0034;
  2809 : FFBA;
  2810 : FFD8;
  2811 : 003C;
  2812 : FFB5;
  2813 : FFD2;
  2814 : 0047;
  2815 : 0011;
  2816 : FFDB;
  2817 : FFBD;
  2818 : FFB8;
  2819 : FFD9;
  2820 : 003B;
  2821 : FFF3;
  2822 : 0022;
  2823 : 0040;
  2824 : FFF2;
  2825 : FFD1;
  2826 : 0003;
  2827 : 003F;
  2828 : 002F;
  2829 : FFBD;
  2830 : 001E;
  2831 : 000B;
  2832 : 003F;
  2833 : FFC6;
  2834 : 0005;
  2835 : 003A;
  2836 : FFF2;
  2837 : FFFD;
  2838 : FFBE;
  2839 : FFDE;
  2840 : FFE5;
  2841 : 0044;
  2842 : FFDF;
  2843 : FFFA;
  2844 : 001A;
  2845 : FFCC;
  2846 : FFFE;
  2847 : 0025;
  2848 : 0038;
  2849 : 0013;
  2850 : 001A;
  2851 : FFC7;
  2852 : 0044;
  2853 : FFC8;
  2854 : 002A;
  2855 : FFDC;
  2856 : 0043;
  2857 : 0022;
  2858 : 0027;
  2859 : FFD5;
  2860 : FFF7;
  2861 : 0012;
  2862 : 0029;
  2863 : FFC3;
  2864 : 0047;
  2865 : 003C;
  2866 : FFDD;
  2867 : 0032;
  2868 : 0003;
  2869 : FFFA;
  2870 : FFE3;
  2871 : 000C;
  2872 : 0023;
  2873 : FFF2;
  2874 : 0014;
  2875 : 001F;
  2876 : 0020;
  2877 : FFBB;
  2878 : 0037;
  2879 : FFFA;
  2880 : FFDC;
  2881 : FFD8;
  2882 : FFFD;
  2883 : 003B;
  2884 : FFED;
  2885 : 0026;
  2886 : FFC2;
  2887 : FFFC;
  2888 : 004C;
  2889 : 002A;
  2890 : FFD4;
  2891 : 0000;
  2892 : FFD7;
  2893 : FFF2;
  2894 : 002B;
  2895 : 002A;
  2896 : FFD6;
  2897 : 0041;
  2898 : 000E;
  2899 : FFEE;
  2900 : 0000;
  2901 : 0010;
  2902 : 0009;
  2903 : FFFE;
  2904 : 0001;
  2905 : FFCE;
  2906 : 0030;
  2907 : 0006;
  2908 : FFC7;
  2909 : 0029;
  2910 : 0042;
  2911 : 0045;
  2912 : FFEC;
  2913 : FFC8;
  2914 : 0003;
  2915 : FFC4;
  2916 : 0043;
  2917 : FFCF;
  2918 : FFDA;
  2919 : FFF2;
  2920 : FFEE;
  2921 : 002D;
  2922 : FFF9;
  2923 : FFCD;
  2924 : FFDC;
  2925 : 0001;
  2926 : FFCA;
  2927 : 0011;
  2928 : 000A;
  2929 : 0021;
  2930 : 0043;
  2931 : 003F;
  2932 : 0045;
  2933 : FFD9;
  2934 : FFC7;
  2935 : FFE2;
  2936 : 003D;
  2937 : 0049;
  2938 : 0037;
  2939 : FFC4;
  2940 : 0045;
  2941 : FFF4;
  2942 : FFB5;
  2943 : FFF7;
  2944 : FFBA;
  2945 : 0007;
  2946 : FFE7;
  2947 : FFFC;
  2948 : 0011;
  2949 : 0039;
  2950 : 0019;
  2951 : FFF6;
  2952 : 0031;
  2953 : 003E;
  2954 : FFC6;
  2955 : 0005;
  2956 : FFDF;
  2957 : FFBA;
  2958 : 001A;
  2959 : 0038;
  2960 : FFCC;
  2961 : 0030;
  2962 : 0036;
  2963 : 0040;
  2964 : FFDC;
  2965 : 003E;
  2966 : FFE4;
  2967 : 0008;
  2968 : FFBB;
  2969 : FFBA;
  2970 : 0022;
  2971 : FFF7;
  2972 : FFDB;
  2973 : FFD0;
  2974 : 001A;
  2975 : FFB3;
  2976 : 002F;
  2977 : FFBF;
  2978 : FFD1;
  2979 : FFEF;
  2980 : FFFE;
  2981 : FFEA;
  2982 : FFE4;
  2983 : 0047;
  2984 : 0016;
  2985 : FFB7;
  2986 : FFF5;
  2987 : 003A;
  2988 : FFE2;
  2989 : FFC2;
  2990 : 0028;
  2991 : 0010;
  2992 : 000B;
  2993 : FFBB;
  2994 : FFC9;
  2995 : 0013;
  2996 : FFD3;
  2997 : 0001;
  2998 : 0007;
  2999 : FFDF;
  3000 : 0045;
  3001 : 0035;
  3002 : 0022;
  3003 : FFBF;
  3004 : FFC4;
  3005 : FFFF;
  3006 : FFCC;
  3007 : 0049;
  3008 : FFCC;
  3009 : FFFE;
  3010 : FFEB;
  3011 : 0015;
  3012 : FFC7;
  3013 : FFF5;
  3014 : FFDD;
  3015 : 003C;
  3016 : FFB9;
  3017 : 0040;
  3018 : 0033;
  3019 : FFE1;
  3020 : 002C;
  3021 : FFB8;
  3022 : 0048;
  3023 : 0004;
  3024 : FFE2;
  3025 : FFEB;
  3026 : FFBD;
  3027 : 004B;
  3028 : FFB9;
  3029 : 0018;
  3030 : FFF7;
  3031 : 0045;
  3032 : FFD9;
  3033 : 0005;
  3034 : FFFD;
  3035 : 001F;
  3036 : FFBE;
  3037 : FFD1;
  3038 : FFD4;
  3039 : 0025;
  3040 : FFD0;
  3041 : 000B;
  3042 : FFD4;
  3043 : 0038;
  3044 : 0044;
  3045 : 0003;
  3046 : FFE9;
  3047 : FFD7;
  3048 : FFBB;
  3049 : FFDC;
  3050 : 0018;
  3051 : 0005;
  3052 : 0044;
  3053 : FFF0;
  3054 : 001E;
  3055 : FFFE;
  3056 : 0002;
  3057 : FFDC;
  3058 : FFF9;
  3059 : FFFC;
  3060 : 0020;
  3061 : 0044;
  3062 : FFE6;
  3063 : FFBA;
  3064 : FFFF;
  3065 : 0007;
  3066 : FFCD;
  3067 : 0028;
  3068 : 004A;
  3069 : 0044;
  3070 : FFD1;
  3071 : 003A;
  3072 : 001F;
  3073 : FFF9;
  3074 : 0006;
  3075 : 0036;
  3076 : FFFD;
  3077 : FFED;
  3078 : FFFF;
  3079 : 000C;
  3080 : FFD0;
  3081 : 003E;
  3082 : 001B;
  3083 : 0014;
  3084 : FFC2;
  3085 : 0010;
  3086 : FFC6;
  3087 : FFBF;
  3088 : 0004;
  3089 : FFF1;
  3090 : 000E;
  3091 : FFC1;
  3092 : FFF5;
  3093 : FFCE;
  3094 : 004B;
  3095 : 0009;
  3096 : 001D;
  3097 : FFE5;
  3098 : FFC2;
  3099 : 0049;
  3100 : FFDF;
  3101 : FFF4;
  3102 : 0017;
  3103 : FFB7;
  3104 : 0030;
  3105 : 0006;
  3106 : FFDE;
  3107 : FFBD;
  3108 : FFCC;
  3109 : 003D;
  3110 : 001D;
  3111 : FFDA;
  3112 : FFBD;
  3113 : 001D;
  3114 : 000B;
  3115 : FFF1;
  3116 : FFEB;
  3117 : FFD5;
  3118 : 001A;
  3119 : 0048;
  3120 : FFCE;
  3121 : 000F;
  3122 : FFF4;
  3123 : FFF8;
  3124 : FFDA;
  3125 : 0032;
  3126 : FFFE;
  3127 : 0007;
  3128 : FFE2;
  3129 : FFCF;
  3130 : FFC0;
  3131 : 0021;
  3132 : FFD1;
  3133 : 001D;
  3134 : FFEF;
  3135 : FFF3;
  3136 : FFFB;
  3137 : FFEC;
  3138 : FFC3;
  3139 : FFE3;
  3140 : 0019;
  3141 : 0019;
  3142 : FFDF;
  3143 : FFFA;
  3144 : FFD1;
  3145 : FFD4;
  3146 : FFB7;
  3147 : 003D;
  3148 : FFD4;
  3149 : FFD6;
  3150 : FFDE;
  3151 : FFC7;
  3152 : 0015;
  3153 : FFBF;
  3154 : FFC8;
  3155 : 0016;
  3156 : FFE7;
  3157 : 0020;
  3158 : 0009;
  3159 : FFDB;
  3160 : 0017;
  3161 : FFC5;
  3162 : 0006;
  3163 : FFF6;
  3164 : FFDC;
  3165 : 0010;
  3166 : 0039;
  3167 : 004D;
  3168 : 0011;
  3169 : FFF1;
  3170 : FFD6;
  3171 : FFDB;
  3172 : FFFD;
  3173 : FFEC;
  3174 : 0040;
  3175 : FFEC;
  3176 : FFED;
  3177 : FFEE;
  3178 : 0034;
  3179 : 0017;
  3180 : 0012;
  3181 : FFE7;
  3182 : 0031;
  3183 : FFB9;
  3184 : 0039;
  3185 : 0002;
  3186 : FFF0;
  3187 : 0000;
  3188 : 001A;
  3189 : FFB5;
  3190 : 0039;
  3191 : FFF8;
  3192 : FFE8;
  3193 : FFC8;
  3194 : FFF7;
  3195 : FFFF;
  3196 : FFF1;
  3197 : 001B;
  3198 : FFF4;
  3199 : 0047;
  3200 : 000F;
  3201 : 002F;
  3202 : FFC4;
  3203 : FFF0;
  3204 : FFE7;
  3205 : 000B;
  3206 : 0037;
  3207 : FFBF;
  3208 : FFBE;
  3209 : 0036;
  3210 : FFD4;
  3211 : 001A;
  3212 : 0007;
  3213 : 0033;
  3214 : FFC6;
  3215 : FFC7;
  3216 : 0009;
  3217 : 0045;
  3218 : FFF3;
  3219 : FFE5;
  3220 : 0010;
  3221 : 0042;
  3222 : 0034;
  3223 : 004C;
  3224 : FFB7;
  3225 : FFC5;
  3226 : 0011;
  3227 : 0031;
  3228 : FFDF;
  3229 : FFD8;
  3230 : 002C;
  3231 : FFBC;
  3232 : FFEC;
  3233 : 0001;
  3234 : 0009;
  3235 : 0023;
  3236 : FFEA;
  3237 : 0011;
  3238 : 000D;
  3239 : 0007;
  3240 : 0016;
  3241 : FFDB;
  3242 : FFC0;
  3243 : FFC6;
  3244 : FFD6;
  3245 : 0000;
  3246 : 0034;
  3247 : 001F;
  3248 : 002C;
  3249 : FFE9;
  3250 : FFF1;
  3251 : FFF0;
  3252 : FFD1;
  3253 : FFBD;
  3254 : 000E;
  3255 : 004B;
  3256 : FFCD;
  3257 : FFBA;
  3258 : 002B;
  3259 : FFDA;
  3260 : 0033;
  3261 : 001F;
  3262 : 0044;
  3263 : FFF2;
  3264 : 0019;
  3265 : FFFB;
  3266 : 0014;
  3267 : FFF8;
  3268 : FFD0;
  3269 : 0001;
  3270 : 0004;
  3271 : 0030;
  3272 : 0024;
  3273 : 0019;
  3274 : FFC5;
  3275 : 0022;
  3276 : 0000;
  3277 : 003D;
  3278 : 0040;
  3279 : FFBC;
  3280 : 0031;
  3281 : FFB9;
  3282 : FFEC;
  3283 : 0006;
  3284 : FFCA;
  3285 : 0026;
  3286 : FFB4;
  3287 : FFCD;
  3288 : 000C;
  3289 : 0021;
  3290 : 0040;
  3291 : 0020;
  3292 : 001A;
  3293 : FFF0;
  3294 : FFB3;
  3295 : FFC6;
  3296 : 0005;
  3297 : 001B;
  3298 : FFF3;
  3299 : 0023;
  3300 : 0003;
  3301 : FFBF;
  3302 : FFD1;
  3303 : 0034;
  3304 : 0023;
  3305 : 003D;
  3306 : FFC5;
  3307 : 004B;
  3308 : FFD3;
  3309 : FFB5;
  3310 : 004C;
  3311 : FFDE;
  3312 : 001A;
  3313 : FFCE;
  3314 : 000C;
  3315 : 003E;
  3316 : FFE4;
  3317 : 001A;
  3318 : FFD0;
  3319 : 0013;
  3320 : FFE7;
  3321 : FFD4;
  3322 : FFE3;
  3323 : FFCF;
  3324 : 003E;
  3325 : FFF0;
  3326 : FFD9;
  3327 : FFF8;
  3328 : FFE4;
  3329 : 0026;
  3330 : 0048;
  3331 : FFF6;
  3332 : 0037;
  3333 : 000A;
  3334 : FFCB;
  3335 : 001D;
  3336 : 0002;
  3337 : 0017;
  3338 : 003C;
  3339 : FFF7;
  3340 : 003E;
  3341 : 0027;
  3342 : FFFE;
  3343 : 0010;
  3344 : FFE5;
  3345 : 004A;
  3346 : 001A;
  3347 : FFBA;
  3348 : FFE5;
  3349 : 0013;
  3350 : FFBC;
  3351 : FFB7;
  3352 : FFF8;
  3353 : FFE6;
  3354 : FFF7;
  3355 : FFDC;
  3356 : FFCD;
  3357 : 001D;
  3358 : 0002;
  3359 : FFD2;
  3360 : FFE4;
  3361 : 000E;
  3362 : FFBE;
  3363 : FFCA;
  3364 : FFBE;
  3365 : 0030;
  3366 : 0027;
  3367 : 0027;
  3368 : 0021;
  3369 : 001A;
  3370 : FFFC;
  3371 : 0016;
  3372 : FFB9;
  3373 : 0013;
  3374 : 002B;
  3375 : 0000;
  3376 : FFEA;
  3377 : FFDE;
  3378 : 0016;
  3379 : 001E;
  3380 : 0039;
  3381 : FFE8;
  3382 : 0029;
  3383 : 0009;
  3384 : 003B;
  3385 : 0004;
  3386 : 0003;
  3387 : 000C;
  3388 : 0026;
  3389 : 0047;
  3390 : FFBE;
  3391 : FFBB;
  3392 : 0043;
  3393 : 0005;
  3394 : 0012;
  3395 : FFFD;
  3396 : FFC2;
  3397 : 0029;
  3398 : 0026;
  3399 : FFE3;
  3400 : FFE2;
  3401 : 0034;
  3402 : FFBE;
  3403 : 003B;
  3404 : FFDB;
  3405 : 000E;
  3406 : 0043;
  3407 : 001B;
  3408 : FFF3;
  3409 : 001D;
  3410 : FFE8;
  3411 : FFDE;
  3412 : 004C;
  3413 : 0027;
  3414 : 0016;
  3415 : FFEA;
  3416 : FFBB;
  3417 : FFB8;
  3418 : 0008;
  3419 : 0028;
  3420 : 0006;
  3421 : 0034;
  3422 : FFB8;
  3423 : FFEC;
  3424 : FFD8;
  3425 : FFF8;
  3426 : FFBE;
  3427 : 0046;
  3428 : FFD5;
  3429 : 0041;
  3430 : FFF5;
  3431 : 004B;
  3432 : 0008;
  3433 : 0042;
  3434 : FFB4;
  3435 : 0026;
  3436 : 003E;
  3437 : FFC9;
  3438 : FFC2;
  3439 : FFF4;
  3440 : 0043;
  3441 : 0007;
  3442 : 0004;
  3443 : FFC9;
  3444 : FFB3;
  3445 : 0030;
  3446 : FFC1;
  3447 : 0015;
  3448 : 0040;
  3449 : FFD3;
  3450 : 0019;
  3451 : FFBF;
  3452 : 0010;
  3453 : FFCC;
  3454 : 0024;
  3455 : FFE1;
  3456 : FFFA;
  3457 : 000F;
  3458 : FFCE;
  3459 : 0025;
  3460 : FFE2;
  3461 : 0019;
  3462 : FFCC;
  3463 : 001D;
  3464 : FFC7;
  3465 : FFF5;
  3466 : FFD9;
  3467 : 0026;
  3468 : FFDB;
  3469 : 003B;
  3470 : 003C;
  3471 : FFD1;
  3472 : 0011;
  3473 : FFC1;
  3474 : FFEF;
  3475 : 0021;
  3476 : 0018;
  3477 : 0013;
  3478 : FFDF;
  3479 : FFED;
  3480 : FFC3;
  3481 : 0022;
  3482 : 0001;
  3483 : 0020;
  3484 : FFD9;
  3485 : FFE5;
  3486 : FFE7;
  3487 : FFB7;
  3488 : FFE8;
  3489 : 002F;
  3490 : 003D;
  3491 : 0003;
  3492 : FFF9;
  3493 : FFB8;
  3494 : 003A;
  3495 : FFB5;
  3496 : 0044;
  3497 : FFFE;
  3498 : FFE8;
  3499 : 0041;
  3500 : FFB7;
  3501 : 000D;
  3502 : 0008;
  3503 : FFD5;
  3504 : FFF5;
  3505 : 0017;
  3506 : 0023;
  3507 : FFB3;
  3508 : 0043;
  3509 : FFCC;
  3510 : FFD7;
  3511 : FFDC;
  3512 : FFB9;
  3513 : FFC6;
  3514 : 004B;
  3515 : FFE4;
  3516 : FFC5;
  3517 : FFC4;
  3518 : 0022;
  3519 : 0036;
  3520 : FFDB;
  3521 : FFB6;
  3522 : FFD5;
  3523 : FFBC;
  3524 : FFC3;
  3525 : FFF5;
  3526 : FFD7;
  3527 : 0002;
  3528 : FFDA;
  3529 : 0044;
  3530 : 003E;
  3531 : 000A;
  3532 : FFEA;
  3533 : FFEE;
  3534 : FFF2;
  3535 : 0023;
  3536 : FFF9;
  3537 : 0037;
  3538 : 0044;
  3539 : FFE7;
  3540 : 0009;
  3541 : FFC2;
  3542 : FFD2;
  3543 : FFF3;
  3544 : FFD3;
  3545 : 003A;
  3546 : FFCC;
  3547 : FFF9;
  3548 : 0010;
  3549 : 001D;
  3550 : FFEE;
  3551 : 0039;
  3552 : 000A;
  3553 : FFF7;
  3554 : FFBE;
  3555 : FFFB;
  3556 : 0031;
  3557 : 0012;
  3558 : 0033;
  3559 : FFFF;
  3560 : FFC5;
  3561 : FFB5;
  3562 : FFE2;
  3563 : 001E;
  3564 : 002D;
  3565 : FFE1;
  3566 : FFFF;
  3567 : FFF4;
  3568 : FFF2;
  3569 : FFD7;
  3570 : FFC8;
  3571 : FFD1;
  3572 : FFBC;
  3573 : FFD2;
  3574 : FFB5;
  3575 : 0014;
  3576 : FFE4;
  3577 : 0049;
  3578 : FFD1;
  3579 : FFE8;
  3580 : FFEA;
  3581 : FFB4;
  3582 : 0034;
  3583 : FFB8;
  3584 : 0044;
  3585 : 003C;
  3586 : 0005;
  3587 : 0007;
  3588 : 0018;
  3589 : FFEF;
  3590 : 0017;
  3591 : FFBA;
  3592 : FFBC;
  3593 : FFF9;
  3594 : 0008;
  3595 : 003C;
  3596 : FFC3;
  3597 : 0032;
  3598 : FFD3;
  3599 : FFF0;
  3600 : FFE4;
  3601 : FFF1;
  3602 : FFCA;
  3603 : 0001;
  3604 : 002E;
  3605 : FFF7;
  3606 : FFFF;
  3607 : 0036;
  3608 : 0020;
  3609 : FFFF;
  3610 : FFDB;
  3611 : 003B;
  3612 : 000C;
  3613 : FFD5;
  3614 : FFDD;
  3615 : 002F;
  3616 : FFBA;
  3617 : 004C;
  3618 : FFC7;
  3619 : 002D;
  3620 : FFF0;
  3621 : FFFF;
  3622 : 003A;
  3623 : FFF3;
  3624 : 0006;
  3625 : FFBB;
  3626 : FFB4;
  3627 : FFD9;
  3628 : 001C;
  3629 : FFC6;
  3630 : FFC5;
  3631 : FFF2;
  3632 : 0017;
  3633 : 0021;
  3634 : FFCF;
  3635 : FFBF;
  3636 : 0044;
  3637 : FFDB;
  3638 : 0036;
  3639 : 0038;
  3640 : 002A;
  3641 : FFCD;
  3642 : 0031;
  3643 : 0029;
  3644 : 000F;
  3645 : FFE7;
  3646 : FFDC;
  3647 : FFC6;
  3648 : 0001;
  3649 : 000D;
  3650 : FFEA;
  3651 : FFFC;
  3652 : FFEB;
  3653 : 0016;
  3654 : 003E;
  3655 : FFCC;
  3656 : FFEE;
  3657 : FFC9;
  3658 : 0013;
  3659 : 0023;
  3660 : 0042;
  3661 : FFDE;
  3662 : 0045;
  3663 : FFBD;
  3664 : 0010;
  3665 : FFBC;
  3666 : 003C;
  3667 : 0005;
  3668 : 001A;
  3669 : 0033;
  3670 : FFCA;
  3671 : FFB9;
  3672 : 003A;
  3673 : FFE4;
  3674 : FFC7;
  3675 : FFFB;
  3676 : 000F;
  3677 : FFB8;
  3678 : FFDD;
  3679 : FFB8;
  3680 : FFF4;
  3681 : 003D;
  3682 : 004A;
  3683 : 0015;
  3684 : FFCC;
  3685 : 003E;
  3686 : 0002;
  3687 : FFCB;
  3688 : 0041;
  3689 : 0028;
  3690 : 0024;
  3691 : 0020;
  3692 : FFD2;
  3693 : FFD4;
  3694 : 001D;
  3695 : FFD5;
  3696 : FFF7;
  3697 : 002B;
  3698 : 002C;
  3699 : FFF9;
  3700 : 002D;
  3701 : 0034;
  3702 : 0018;
  3703 : FFD6;
  3704 : FFDD;
  3705 : FFE4;
  3706 : FFC5;
  3707 : FFDD;
  3708 : FFD3;
  3709 : FFF9;
  3710 : 003F;
  3711 : FFC3;
  3712 : 0022;
  3713 : 001D;
  3714 : FFC2;
  3715 : 0041;
  3716 : 000B;
  3717 : FFEB;
  3718 : 0027;
  3719 : FFDB;
  3720 : 001E;
  3721 : FFB9;
  3722 : 0034;
  3723 : FFF8;
  3724 : 0015;
  3725 : FFD5;
  3726 : 001B;
  3727 : 002A;
  3728 : FFFC;
  3729 : 0012;
  3730 : FFF9;
  3731 : 003D;
  3732 : 0000;
  3733 : 0035;
  3734 : 002E;
  3735 : FFF2;
  3736 : FFD7;
  3737 : FFF2;
  3738 : 0032;
  3739 : FFD6;
  3740 : 0004;
  3741 : 002F;
  3742 : FFE9;
  3743 : 0016;
  3744 : FFD9;
  3745 : FFC4;
  3746 : 002D;
  3747 : FFC2;
  3748 : FFDD;
  3749 : 0037;
  3750 : FFE8;
  3751 : 0049;
  3752 : 004A;
  3753 : FFDC;
  3754 : FFB9;
  3755 : 001F;
  3756 : FFF8;
  3757 : FFC3;
  3758 : 0020;
  3759 : FFB8;
  3760 : 0039;
  3761 : FFC8;
  3762 : FFC7;
  3763 : FFCE;
  3764 : 0047;
  3765 : 001E;
  3766 : 002E;
  3767 : FFF0;
  3768 : FFE7;
  3769 : FFD7;
  3770 : FFFD;
  3771 : 0008;
  3772 : 0014;
  3773 : FFDB;
  3774 : 0045;
  3775 : FFCD;
  3776 : 0048;
  3777 : FFB5;
  3778 : FFFD;
  3779 : FFE6;
  3780 : FFF8;
  3781 : 000B;
  3782 : FFF6;
  3783 : FFF3;
  3784 : 0024;
  3785 : 001D;
  3786 : 0033;
  3787 : FFDA;
  3788 : 0011;
  3789 : 000D;
  3790 : FFEC;
  3791 : FFFE;
  3792 : FFE3;
  3793 : FFC9;
  3794 : FFD4;
  3795 : FFC3;
  3796 : 001C;
  3797 : 0019;
  3798 : 0045;
  3799 : 0023;
  3800 : FFBB;
  3801 : 003B;
  3802 : 0038;
  3803 : FFF7;
  3804 : 000D;
  3805 : 0049;
  3806 : 0005;
  3807 : 003E;
  3808 : FFC0;
  3809 : FFD1;
  3810 : FFF7;
  3811 : 000D;
  3812 : 0031;
  3813 : 004B;
  3814 : FFEF;
  3815 : FFBA;
  3816 : 002E;
  3817 : 0010;
  3818 : FFD2;
  3819 : FFFF;
  3820 : 0025;
  3821 : 002A;
  3822 : 0000;
  3823 : FFE2;
  3824 : 0049;
  3825 : 0019;
  3826 : FFF2;
  3827 : FFDE;
  3828 : 0023;
  3829 : FFD8;
  3830 : FFCE;
  3831 : 0005;
  3832 : FFE0;
  3833 : 0014;
  3834 : FFC5;
  3835 : 0018;
  3836 : FFDF;
  3837 : FFB3;
  3838 : FFC7;
  3839 : 0043;
  3840 : 0038;
  3841 : FFD7;
  3842 : 002B;
  3843 : 0011;
  3844 : 0048;
  3845 : FFED;
  3846 : 001C;
  3847 : FFBD;
  3848 : FFF0;
  3849 : 0047;
  3850 : 0006;
  3851 : FFDF;
  3852 : FFC6;
  3853 : 001F;
  3854 : 0016;
  3855 : FFED;
  3856 : 0045;
  3857 : FFB7;
  3858 : FFE2;
  3859 : 0041;
  3860 : FFE4;
  3861 : FFDA;
  3862 : 0005;
  3863 : 0032;
  3864 : FFC3;
  3865 : 0044;
  3866 : 002D;
  3867 : FFCF;
  3868 : 0021;
  3869 : FFEE;
  3870 : FFF1;
  3871 : 002C;
  3872 : 0047;
  3873 : FFC7;
  3874 : FFF4;
  3875 : FFFD;
  3876 : FFED;
  3877 : FFEB;
  3878 : FFBB;
  3879 : 001C;
  3880 : FFF6;
  3881 : FFD1;
  3882 : 0031;
  3883 : 002E;
  3884 : FFFE;
  3885 : FFE1;
  3886 : 0015;
  3887 : FFDF;
  3888 : FFD7;
  3889 : 0023;
  3890 : FFB9;
  3891 : FFC2;
  3892 : FFB4;
  3893 : FFCB;
  3894 : FFBE;
  3895 : 004C;
  3896 : FFE0;
  3897 : FFCA;
  3898 : FFD8;
  3899 : 0043;
  3900 : 0003;
  3901 : FFEB;
  3902 : 0039;
  3903 : FFF0;
  3904 : FFE7;
  3905 : FFD3;
  3906 : FFED;
  3907 : FFE4;
  3908 : 001B;
  3909 : FFE0;
  3910 : 000C;
  3911 : FFBD;
  3912 : FFD1;
  3913 : FFF2;
  3914 : 0043;
  3915 : FFED;
  3916 : 0019;
  3917 : FFDA;
  3918 : FFC7;
  3919 : FFBC;
  3920 : FFE2;
  3921 : FFCB;
  3922 : FFCE;
  3923 : 0028;
  3924 : FFB6;
  3925 : 0009;
  3926 : FFED;
  3927 : 0001;
  3928 : 000A;
  3929 : FFE3;
  3930 : FFE1;
  3931 : 0024;
  3932 : 0039;
  3933 : FFD1;
  3934 : FFC2;
  3935 : 003D;
  3936 : FFE9;
  3937 : 0008;
  3938 : FFEA;
  3939 : FFC7;
  3940 : 000E;
  3941 : 0004;
  3942 : FFD2;
  3943 : FFF9;
  3944 : 002E;
  3945 : 000E;
  3946 : FFC2;
  3947 : 0007;
  3948 : 001F;
  3949 : 002D;
  3950 : 0014;
  3951 : FFCB;
  3952 : 0020;
  3953 : 001B;
  3954 : FFB7;
  3955 : FFF2;
  3956 : FFE6;
  3957 : 001A;
  3958 : FFD4;
  3959 : 000E;
  3960 : 003F;
  3961 : 002E;
  3962 : 0041;
  3963 : 0049;
  3964 : FFB5;
  3965 : 0013;
  3966 : FFF3;
  3967 : 0037;
  3968 : FFDA;
  3969 : 004A;
  3970 : 0011;
  3971 : 002D;
  3972 : FFC0;
  3973 : FFCF;
  3974 : 0028;
  3975 : FFB7;
  3976 : 0031;
  3977 : FFB5;
  3978 : 0018;
  3979 : FFEB;
  3980 : 0011;
  3981 : 001E;
  3982 : FFE8;
  3983 : FFC4;
  3984 : FFBE;
  3985 : 000E;
  3986 : 0003;
  3987 : 0025;
  3988 : 0001;
  3989 : FFF4;
  3990 : FFF0;
  3991 : FFB7;
  3992 : FFE7;
  3993 : 0049;
  3994 : 0039;
  3995 : FFE6;
  3996 : 000D;
  3997 : 0035;
  3998 : FFF7;
  3999 : FFB6;
  4000 : FFBF;
  4001 : 0002;
  4002 : 0048;
  4003 : 001E;
  4004 : FFBE;
  4005 : FFD0;
  4006 : 002A;
  4007 : 0034;
  4008 : 0012;
  4009 : 0016;
  4010 : FFB8;
  4011 : 0032;
  4012 : 002C;
  4013 : FFDB;
  4014 : 0020;
  4015 : FFD4;
  4016 : FFB9;
  4017 : FFD2;
  4018 : FFCF;
  4019 : FFE7;
  4020 : FFF3;
  4021 : 0001;
  4022 : FFFC;
  4023 : FFDD;
  4024 : FFB8;
  4025 : 0010;
  4026 : FFF0;
  4027 : FFE1;
  4028 : 0038;
  4029 : 0026;
  4030 : 0037;
  4031 : FFFF;
  4032 : FFC7;
  4033 : 001E;
  4034 : FFD3;
  4035 : FFF7;
  4036 : FFBD;
  4037 : 0032;
  4038 : FFC7;
  4039 : 003E;
  4040 : 0038;
  4041 : FFFB;
  4042 : 0026;
  4043 : 0012;
  4044 : 002F;
  4045 : FFF6;
  4046 : 002C;
  4047 : FFFA;
  4048 : 0044;
  4049 : FFFE;
  4050 : FFFA;
  4051 : 002C;
  4052 : 0031;
  4053 : 0008;
  4054 : FFCF;
  4055 : FFFB;
  4056 : 0048;
  4057 : 0027;
  4058 : 0030;
  4059 : FFB8;
  4060 : FFFB;
  4061 : 0017;
  4062 : 0033;
  4063 : FFBB;
  4064 : 0036;
  4065 : 0007;
  4066 : FFD2;
  4067 : FFE4;
  4068 : FFDF;
  4069 : 0005;
  4070 : FFBB;
  4071 : FFCC;
  4072 : 0030;
  4073 : FFC8;
  4074 : FFD7;
  4075 : FFF9;
  4076 : 0003;
  4077 : 0028;
  4078 : FFF8;
  4079 : 002D;
  4080 : 0012;
  4081 : FFC5;
  4082 : FFCB;
  4083 : FFF6;
  4084 : FFF0;
  4085 : 0025;
  4086 : 000C;
  4087 : FFEF;
  4088 : FFCD;
  4089 : FFD6;
  4090 : 000C;
  4091 : FFF4;
  4092 : 0002;
  4093 : FFCD;
  4094 : 0019;
  4095 : 0036;
END;
