FFE8
002F
0006
FFBF
000A
003F
FFF0
FFE1
FFC9
FFCA
FFF6
000F
FFC0
0044
0027
000D
0032
FFC0
FFFC
0014
0032
002C
FFDE
0044
FFC6
003A
0048
FFCE
0022
FFB9
FFF1
0003
000C
0043
001A
FFFD
0030
0045
FFB7
004A
FFC0
0030
FFDE
FFC8
FFF7
0016
FFEE
FFBC
000F
003E
FFEE
FFD4
FFF7
FFBB
0031
0032
000E
FFE9
002E
0008
0032
0014
002C
000F
FFF3
0046
0006
0010
FFD5
0013
000B
FFD0
FFBC
0010
0029
0004
FFD6
001A
FFC0
FFF7
FFCC
FFD0
FFD2
FFEF
FFBB
FFF0
0002
FFFD
FFEE
0034
FFCA
0001
FFBD
FFBE
000B
000A
003A
0009
0047
FFBB
FFC2
FFBA
FFD0
0006
0016
FFBA
0045
0035
FFE1
FFBF
FFCD
FFC7
FFC6
0003
FFD9
FFEA
004B
001C
0045
FFC9
FFEE
0008
FFBF
FFB4
001A
0016
FFF2
FFFE
FFF3
FFB7
FFE7
FFCE
FFC2
0046
000F
0023
FFE4
FFF0
FFD8
FFC2
FFCF
002E
001B
0007
FFFC
0041
FFBE
FFDE
FFE9
002B
004C
FFD8
0039
0033
FFD6
FFF1
FFF2
0049
FFCF
002E
FFE7
0023
FFF4
000C
0033
002F
0038
FFBC
001D
FFC9
FFF3
0007
FFF1
0003
004C
FFC8
001B
FFF0
FFC8
FFCC
0045
003A
003F
004B
FFD3
FFEA
001A
FFFE
FFF3
FFEA
000E
000C
FFCC
FFFC
0008
000B
FFD3
0025
FFB7
FFEA
002B
000A
FFDB
001E
000A
002E
0024
0011
FFFE
FFC8
FFDB
FFF4
000F
0002
FFDF
FFB4
FFFF
FFDF
0024
FFB7
000D
0044
FFCE
FFFC
FFC1
0013
0008
FFF2
0003
003D
FFD1
FFB7
0038
000C
003C
000F
0030
FFF5
0026
003F
000B
FFCF
FFDC
FFD2
FFD9
FFE2
0008
000E
FFF5
0012
FFC0
FFC1
FFCE
0003
FFD4
FFDF
FFF1
0030
FFB5
0017
001A
002E
0042
FFB6
FFCB
003B
FFFA
000A
0019
001C
0042
004C
0022
FFDF
003A
FFBB
FFD7
003D
FFDB
FFD5
FFC8
0037
0000
001B
FFD8
0028
0028
FFE3
FFF2
FFD3
0049
0016
0043
FFE2
002B
0029
001D
0048
FFF0
FFC7
001A
0023
000C
FFD3
0001
FFE3
FFF5
0016
0026
FFD7
FFF1
FFDD
FFD2
002C
003F
FFEC
0027
003D
0035
FFCF
0046
FFED
FFE7
FFBD
FFFE
FFC4
FFD9
FFE4
002F
003A
FFE2
0037
0037
0029
FFCA
001D
0044
001C
FFE6
0000
0016
0002
FFC6
FFE3
002E
0038
FFC8
0045
FFE6
0019
0027
0030
0044
FFE3
0037
FFC7
001F
0025
001B
FFDA
0039
FFCD
FFBB
0021
FFFC
0036
FFEE
FFCD
0034
0008
FFD0
0022
0002
0010
FFFA
0032
0033
0020
FFC3
0034
001A
001E
FFEB
003A
0023
FFC4
FFF2
003B
FFBA
0047
001C
0014
FFDD
FFD9
0044
FFE1
002A
FFF0
FFC9
FFB5
0007
0049
FFEC
FFEA
FFE8
0003
FFF7
003A
0001
0001
FFC8
004A
FFDA
FFBE
0019
000F
FFF3
FFF4
002C
FFD1
0031
0017
FFF4
FFFA
FFDB
0027
0002
FFE4
000F
004C
FFF6
0041
FFE8
FFBC
FFD3
FFF4
FFD5
FFB3
0040
0035
0025
FFCD
FFC6
FFBE
0022
0042
FFF5
FFC6
0002
FFE9
FFED
0013
0022
FFC4
FFB9
004C
FFD7
FFBB
FFD0
FFB9
FFEF
002E
FFE8
FFF7
001B
0001
0038
0038
FFB5
002B
FFFA
004B
FFFD
004B
0027
FFD9
0006
004C
0037
FFC2
0020
FFE8
FFB4
FFF1
FFD7
0031
FFE7
0032
FFB3
FFE2
FFD8
FFD7
FFBE
FFD0
0009
FFE0
FFF3
FFED
003A
003E
FFFF
FFE6
FFC4
0046
FFBC
FFE1
FFE1
FFE4
FFCC
002B
FFC6
0015
FFC6
FFBE
003F
FFD0
0031
0007
FFBF
0046
FFD9
0037
FFCD
0036
FFB5
0002
0029
0043
003F
0031
003C
FFD2
FFDF
FFE0
FFED
FFF0
0007
FFCC
001D
FFCD
FFE3
0001
002E
0025
0016
FFCB
0007
FFC1
FFED
FFF3
FFB9
FFDD
0046
0046
FFE9
FFBA
FFCF
FFEF
0045
FFC9
0028
FFC4
004A
FFEE
002A
FFE8
0014
FFD1
FFCA
0043
0040
003C
0013
002F
FFBE
FFE7
FFE3
0015
FFEA
FFCA
000F
0030
FFEE
FFC8
FFD1
FFD8
FFE1
0016
0010
001E
FFEB
0032
FFD3
FFFB
002E
FFCF
FFC4
003B
FFE8
001C
FFB7
001D
FFE4
FFBC
0011
FFD8
FFEF
FFC0
FFCA
FFE1
FFC1
003F
FFB4
FFFE
FFC6
FFE2
0041
FFCC
0048
FFD3
0025
0007
003B
0008
0005
FFD1
FFCD
0040
FFE6
FFEC
0028
FFE7
0045
0025
000F
003B
FFBB
FFDB
FFFB
FFD6
0025
0040
FFF4
FFE8
0047
FFF8
FFFE
FFE9
003F
000B
0028
0030
FFE8
FFF6
0036
FFEB
002D
0044
0013
0025
002F
0035
FFF0
FFBB
FFF1
001B
FFF8
0026
FFEA
0015
FFD0
0026
0007
FFD3
FFE0
0026
FFFD
FFD4
0048
0021
0046
FFF5
FFFC
003D
0004
0020
FFDA
FFF8
FFC6
FFD3
FFB3
FFB9
0049
FFD8
0019
0034
0008
FFCB
0023
000F
0024
0029
0049
000B
FFE8
0017
FFBE
003D
FFC6
FFE6
0030
000F
FFF0
FFFC
0036
FFE7
0039
FFC1
002B
0035
FFCF
FFF5
FFCD
0020
0005
0015
FFD1
FFD4
FFBA
FFE5
0009
0037
001A
FFF6
0046
0022
0042
0004
FFDB
FFBB
0023
FFC6
FFE2
0005
000A
000F
FFCD
FFEE
0012
0048
0023
0041
0028
000E
FFD1
001A
0013
0010
FFFE
0004
FFE7
0003
FFD2
002F
FFD0
FFC0
FFF6
0018
FFF6
FFDE
0009
FFE8
0042
0041
0000
FFE6
0024
FFB9
FFFC
FFE7
0041
FFB5
0008
0025
FFFE
FFC0
0049
0003
0012
FFD8
FFFD
FFF5
FFBF
FFC4
0034
FFD8
FFD1
0001
0029
FFBD
000C
FFC6
FFB9
FFBB
0033
FFC5
FFBA
FFF6
0035
FFDC
FFF4
FFB9
FFF8
000C
000B
FFE6
FFE4
FFC4
FFEC
FFC2
0029
0048
0048
0038
000F
001F
FFDF
0014
FFF9
FFFD
0028
FFDF
FFE4
0041
FFBC
FFFE
003F
0011
0007
FFDA
FFE8
0036
0009
0002
FFC2
FFB6
0047
FFED
0010
FFBF
001C
0042
000C
FFC7
000D
0029
FFF2
003A
0017
003D
0013
FFC7
FFE3
FFD2
003F
0028
001B
FFE1
FFCF
0027
FFFC
FFD6
0012
FFB9
FFE5
FFFB
FFCA
004A
FFD3
FFC7
FFD2
0029
FFF5
000A
FFB6
FFB8
FFF8
0031
003B
FFC1
0006
003F
FFEF
0033
FFC8
0043
0027
0044
001B
FFEB
0043
FFDE
FFE6
001F
0029
0042
FFD3
002E
0025
FFBD
FFEF
FFDF
FFE2
004A
0016
0021
0049
FFED
002E
FFF6
0039
FFCF
0045
FFD5
FFE5
0027
FFF0
0011
FFF7
0025
FFD6
FFBC
FFE1
FFFC
FFCD
FFEA
FFF1
FFBC
000D
003B
FFCB
000F
0019
FFF4
001F
FFF2
0001
FFB4
001D
0019
FFB9
FFEC
004A
FFF4
0000
003F
0021
000D
002E
0038
FFF9
FFFC
FFEE
0048
001E
FFC0
0038
FFFD
FFBE
0008
FFF3
003A
FFD3
0032
0009
FFBC
0048
0002
FFE0
FFFB
0037
FFE2
FFD1
FFC7
FFE1
002B
FFFC
FFD6
FFCD
FFE6
0044
FFE8
004B
FFFE
FFCF
003C
FFFA
0020
004A
FFBB
FFC2
0022
FFDE
FFD0
FFB9
FFB7
002A
FFC8
FFFB
0010
FFF5
FFB7
002C
FFB5
0028
003C
FFF6
0005
FFFC
FFEF
003C
003D
FFE7
0012
0042
0047
0001
FFF9
FFDE
0046
FFC9
000C
FFDF
FFDE
FFF1
004D
FFBC
000C
FFC0
FFCB
FFF7
0002
FFDB
FFE4
FFC1
FFE2
0048
0044
FFE7
000B
003F
FFB4
0030
0045
FFC1
FFCC
0047
0006
FFB5
FFDB
FFF8
001E
0024
004C
FFDF
0006
0005
FFF2
FFCD
0049
0036
0000
0010
FFD6
0007
001E
0002
004B
0011
FFEC
002A
FFCD
FFEE
FFE8
FFF6
002B
FFFE
002D
000C
FFE8
0030
FFD8
FFD6
0001
FFDB
FFB5
0017
0002
FFF8
0048
000B
0038
FFC9
000B
0039
000D
0021
FFEC
FFC1
FFFA
FFF0
0038
FFD9
0048
0046
FFD9
FFE9
003D
0048
FFF7
FFE5
0004
001D
FFDD
0024
FFBB
FFBB
FFEF
FFE9
FFE4
FFFF
FFE4
FFD1
FFE3
0049
FFF2
FFF8
000C
004A
FFD8
001C
0021
0010
FFC1
001B
FFBD
000F
0025
FFD4
0034
FFB8
0035
FFFA
FFD5
FFC8
0046
FFBE
FFD2
FFE9
0012
0007
FFC6
FFE0
FFD8
FFD4
FFF2
001F
FFD5
FFEC
FFEF
0049
0046
002E
FFD8
FFBE
FFE4
FFDC
0001
002B
0037
0035
FFEA
001D
FFE3
FFBD
001F
FFB5
FFF2
FFE6
001E
0029
FFE2
0030
FFE0
FFF8
0023
001E
004B
FFD6
0019
0011
0040
FFCB
0027
000A
FFDD
FFFC
FFE6
000C
003C
000B
0014
0003
FFBB
FFD7
FFFF
FFE3
FFCF
0001
FFE5
FFDB
FFFA
FFC8
0042
0038
0020
FFC4
002A
002F
0029
FFC5
0016
0033
000C
0016
FFFA
0004
FFB8
0015
FFC0
FFF6
FFE0
0007
FFC8
001D
002D
FFCC
FFC3
FFCA
003A
0004
FFFB
FFC4
0017
0039
0032
0013
FFBF
FFC4
FFBB
FFDB
FFC8
FFDB
FFEE
0044
0011
0033
0020
FFC4
0024
FFDD
0015
FFE8
004C
FFDC
FFDE
0042
FFB7
001E
0023
0034
0049
0049
FFBD
0031
0016
0017
FFC7
0017
004A
003F
FFF7
FFB9
FFEB
0032
001F
FFFA
FFBC
FFF5
FFFB
0042
0016
FFE3
0004
FFBD
0049
FFEB
FFFD
FFEA
001C
0019
0021
FFDC
FFE4
FFC6
0018
FFB9
000F
0039
003C
FFF8
FFFA
FFBF
001A
0031
FFD9
FFF4
0034
003A
FFD9
0008
FFD1
FFC3
003F
0031
0028
FFBB
0035
FFF6
FFE8
0007
FFC1
0027
000D
FFD0
FFD0
FFD0
FFBC
000D
0034
FFB6
FFBB
000B
0031
FFE5
FFE9
000F
FFDD
FFB7
0024
0013
000C
0025
001B
FFD3
FFE9
FFC7
FFC7
001B
0037
0047
0014
FFCF
FFC3
0030
000C
0012
002B
001F
0033
FFBC
0026
0036
FFDF
0016
FFE3
0046
FFB8
000C
FFCD
0021
FFCE
FFD7
FFFF
0040
FFD4
FFC9
0028
0000
003F
FFCA
0016
FFD7
FFCB
001C
000E
0027
FFE3
FFF8
FFF1
004A
FFE0
FFE0
FFEA
000A
FFDA
0040
FFDC
003D
FFC3
0018
003F
FFCD
0048
FFF9
0044
001B
FFE2
FFD0
FFE2
FFC1
FFC9
FFC3
FFF4
002D
FFC9
FFC7
0016
FFD1
FFC2
FFCD
0041
0031
FFEA
0018
0006
001B
001C
0014
FFDC
FFB9
FFF9
003C
000B
0033
004C
FFCC
001D
001B
004A
004B
001D
FFD9
002E
FFC4
002B
003F
FFEE
0014
FFF5
FFF6
FFE3
0028
0043
0044
FFCE
003A
0024
FFDA
FFBE
FFDC
003F
0014
0022
FFDB
0022
FFB8
FFED
0013
FFCA
0032
FFD7
0017
FFF1
000F
FFC4
FFB6
003F
FFDD
0031
004D
FFD4
FFDC
0019
0047
0040
0000
002D
FFC8
0049
0047
FFCC
FFE1
FFC3
FFDD
0031
FFED
FFC1
FFE8
004A
0014
FFF3
FFCD
004B
0031
FFDE
FFBE
FFBC
FFC6
000C
0042
FFFF
0035
FFF8
0020
0024
FFCE
FFEB
0015
FFBE
FFEB
0005
004C
FFFC
0031
FFF6
002E
000F
003B
FFF2
0010
0014
FFF3
FFC9
FFC2
FFB6
0039
FFD8
FFD4
0024
FFE4
0001
FFCC
0047
0036
0038
FFF2
0028
FFC9
FFB5
FFB6
000D
FFF9
0003
FFB4
FFF4
0021
FFF7
0024
FFD7
0030
000E
FFD4
FFD8
0014
0033
FFF3
FFDB
0038
001A
FFF8
FFFE
FFD3
0013
FFEA
004C
FFFD
FFFE
000A
0040
002E
FFF8
0022
000D
FFFF
FFD1
FFFA
FFD9
0040
FFE7
0045
0005
0014
0007
FFC7
FFED
FFC2
0013
FFF8
002B
FFD5
FFCC
FFF2
0042
0020
FFF4
0003
FFC0
004A
001A
FFDF
000D
FFC4
0048
FFCE
0017
FFD9
0021
002B
001B
0012
003C
FFBF
FFE6
FFD9
004B
FFEF
0024
001C
FFD4
FFD8
FFDE
FFF2
FFD7
FFB6
003A
0048
FFE8
FFE7
FFB4
001C
0032
FFCA
FFCC
002D
0012
FFBA
0013
FFE3
FFEC
0029
0030
FFF1
0045
FFF2
002A
FFFE
003D
003F
FFC1
0043
0032
002D
FFD2
002F
0036
FFE0
0045
FFBB
FFCA
0006
000C
0016
FFB6
0047
FFBA
FFC9
FFB5
000A
0042
0019
0032
FFB5
0006
FFFA
0000
FFBE
001C
0000
0029
FFFE
FFCA
0017
FFCE
0039
0011
FFCB
0047
0003
FFBE
0013
FFDA
002F
0031
004A
0000
FFF9
0027
FFC8
0007
0007
FFC1
FFF3
0036
0037
FFC2
FFC1
FFDC
003A
FFC7
0022
FFC3
0013
FFEA
002C
FFD7
0015
FFD7
0021
0039
FFC7
0038
000E
FFC7
FFF5
FFCC
001F
0028
FFC3
0001
0030
0043
0002
0045
0005
FFF0
0035
FFFF
FFFC
FFFF
0035
0033
FFF1
FFE6
FFFF
000B
FFD8
002D
FFFE
FFE7
FFC4
FFD8
0045
FFE2
FFCD
FFFA
FFE2
FFB9
FFE5
0007
0008
FFEA
FFF8
0048
FFED
FFDB
FFD9
FFFA
0028
FFD3
0020
FFB6
FFF4
002A
FFE7
000A
FFD3
0025
FFBB
0036
FFD2
003A
FFE9
0022
FFE4
003E
FFC7
FFCF
FFFF
FFC0
FFD1
0044
0049
FFED
0041
0007
FFDD
001F
0018
004B
FFDC
001A
FFBB
FFC5
FFB4
004D
002E
002C
0001
FFE1
FFCA
FFDF
FFED
0027
0006
FFBF
FFB6
FFC3
FFF2
0043
0015
002E
FFFB
FFEB
FFC4
003A
002B
FFCD
0002
FFFE
0013
0045
000C
0006
FFBB
FFBD
FFD0
FFB8
0025
0022
FFC8
0034
FFCB
FFE1
FFD9
FFEC
FFDA
FFFE
FFF2
004B
FFBC
FFC9
FFBB
0013
FFBC
0034
0002
0004
0009
FFCD
FFD2
FFE4
000E
FFD3
FFC5
0048
FFB7
002E
002C
FFE1
FFC8
FFCA
001E
0016
002B
0043
001D
FFCB
FFD9
0035
FFD3
FFBE
001F
FFF1
0041
0017
FFC1
0045
FFDB
FFE7
FFF1
FFBB
FFFF
FFC6
FFF1
FFE9
002A
002F
FFCB
FFEC
FFED
FFCA
002E
0020
FFD0
FFEC
FFC3
0014
FFC6
004B
002B
FFEF
000C
003F
0008
FFCE
FFED
0035
0016
0017
0038
003D
0040
FFC2
0007
0025
0027
0010
FFCD
002E
0022
FFC0
FFFA
FFCE
FFE7
FFB6
FFF1
0008
0012
0019
0034
FFD4
FFC6
0036
FFCB
0049
0035
0000
004A
FFC2
FFE2
0015
FFE9
0042
FFBD
0008
000E
0017
FFDA
FFEB
0035
FFD1
0032
000A
0028
0021
FFD3
000B
0038
FFF6
0048
FFF9
FFC9
FFEF
0045
FFE4
0039
003B
FFE9
FFC0
0022
FFE3
002B
FFF7
FFFE
002B
FFEE
FFF7
FFED
FFEC
0004
002F
FFEB
0004
001A
FFDD
FFDE
0043
0022
000C
0017
FFB8
0012
0001
0007
FFEA
FFC0
FFD1
0045
FFF2
FFFB
FFBB
FFB9
0021
0006
0001
FFD9
0026
FFCD
FFD0
FFFA
FFDF
FFD9
0016
0017
0032
FFF3
FFBE
FFDD
004A
000F
0020
FFB4
0003
FFB9
000B
0041
0048
0006
FFFA
0044
001B
FFBD
FFFB
FFD8
FFFB
FFF9
000D
FFEA
FFCC
0001
0033
0019
FFE7
0043
003F
FFD3
FFB9
0025
0032
0048
003C
000F
0005
FFB7
FFD9
FFFA
0014
0009
0025
FFDE
000A
FFC1
FFF3
0026
001E
004B
FFDE
0000
FFE6
FFF7
0037
001C
003B
FFD2
0039
FFBC
003C
FFE6
FFE4
0002
0044
FFBB
FFE9
0037
FFF0
FFD2
FFF4
FFEE
0040
0028
0001
004B
FFFB
FFBC
FFDB
FFF6
FFCB
0045
0029
FFDC
000E
0022
0044
003B
0002
002A
000A
0008
FFC5
FFC7
0005
FFDC
FFB6
0022
FFB8
000F
0006
0048
FFFE
FFBD
0008
0034
004C
FFF5
FFE4
003E
FFD1
0012
FFF2
FFBA
FFE9
FFDC
001D
0045
FFDC
0030
FFBC
0006
FFBE
0043
0029
0018
0032
0017
0048
0021
0041
0003
FFC5
0004
FFC7
000E
FFFD
0013
FFB5
FFD1
FFFF
0045
FFEE
FFF4
0021
0010
FFE1
FFF2
FFD5
0048
FFC7
FFEC
FFB7
FFD5
002B
FFD2
FFBF
FFFC
FFB5
FFC0
002F
002A
0040
0036
001C
FFBB
002B
0035
002E
0001
FFD7
0035
0023
004A
FFCB
FFD6
FFD4
002D
FFD0
FFBD
004D
FFB7
0033
FFEB
0034
0008
003E
0041
FFB5
FFBF
FFDA
001A
003C
FFFA
0010
FFD0
002F
0048
FFDC
FFFF
FFC0
0009
0000
FFC9
FFF7
FFE7
0003
000D
FFB5
0028
0021
FFEB
FFBB
0027
0046
FFD8
FFE5
FFCF
000C
FFCB
FFEA
001E
0009
FFEF
FFF4
000A
FFB4
FFBF
003B
FFBF
0020
0041
FFDD
FFEC
000B
003B
0044
0025
FFC1
001A
FFF2
FFFB
FFBB
FFD1
002D
FFF9
FFE2
FFEE
0036
0026
FFDD
FFC5
FFDA
0041
000D
0005
000F
FFEB
002F
0004
FFC5
FFC7
0006
0043
FFE3
0039
0029
FFD9
FFB9
FFC3
0023
FFD2
FFEC
0000
0023
FFC5
FFF2
FFFE
0006
0031
FFCE
002F
001E
0009
001F
FFF2
FFC8
0019
0004
0015
FFE7
003E
000D
FFC0
FFF8
0027
002D
FFFF
003D
FFDC
FFF2
003D
003D
001D
0037
FFC1
0038
FFE4
FFCF
FFD8
FFF3
FFDA
FFE4
FFC8
FFE1
000B
FFF7
FFE8
0026
003C
0027
FFE6
0026
FFCB
FFC7
FFE8
002F
FFD9
FFBD
FFC7
0037
0015
FFDA
0008
0004
0018
FFD7
0038
FFE3
001E
FFB6
FFEC
FFE9
0007
FFBE
002D
FFD5
001B
002F
000A
0025
0019
FFEA
002F
FFE0
000B
0026
FFED
FFE2
FFFA
0031
0042
0007
0019
003E
FFC2
FFD7
0020
0032
0037
FFF3
FFC1
FFF6
FFD7
FFE0
002A
FFBF
0032
FFF5
000F
FFC1
FFE7
FFC1
0047
002F
FFFA
FFD6
0043
FFE8
FFCC
000A
0044
FFB4
FFD8
0043
FFCD
FFC5
000B
0038
FFFC
004C
001C
FFBF
004C
FFF2
FFDF
0009
FFE2
FFC0
FFB3
FFF8
0034
000B
004D
FFDF
FFDE
FFCC
FFCC
FFDF
002D
003E
0049
FFD7
003B
FFE6
FFC5
0039
0015
FFCD
FFF5
FFDF
0024
FFF9
004B
FFBC
FFEA
FFFD
0000
FFE4
0023
003A
0043
002F
0036
0008
0032
FFE2
FFF0
FFE4
FFFB
FFDF
0047
FFE3
FFC2
0004
FFBC
FFC4
FFD5
FFFB
FFF6
002E
0025
FFF5
FFE6
FFE4
002A
FFBB
FFB5
002D
FFFC
FFC7
FFD7
0042
0037
0020
FFFD
0003
0049
0048
FFD4
0030
FFD1
FFD4
001B
FFF1
0042
FFC1
0002
0040
003E
FFCB
FFEC
0012
FFCC
0048
0040
FFCD
FFC6
FFC0
003F
FFD1
FFF3
FFF8
000F
FFBE
FFD6
0042
003F
002B
FFB6
FFE5
0014
FFDD
003F
0015
FFBE
003F
0046
FFBF
0005
FFE2
FFF0
FFCF
000C
0046
0000
FFC0
0012
FFE7
0037
FFF6
FFD1
FFD1
0029
FFDC
0029
FFD3
FFE5
FFFB
0044
0042
FFD3
FFEA
FFCA
0002
FFFA
003E
0042
FFEE
FFFF
003D
002F
FFB4
FFE4
FFF4
FFD6
FFD2
FFB9
0016
FFDC
FFBB
FFD7
002E
0036
FFFD
FFF3
0049
FFD2
FFD4
FFE0
FFCE
FFED
003F
0012
FFF2
0043
FFBB
FFD3
000A
0012
FFB9
FFF1
0017
001E
0015
FFE4
FFC2
FFF5
FFC7
0045
FFFC
FFE4
0029
0000
FFE3
0030
0038
001B
FFBA
000A
0028
FFC8
FFD6
003B
FFB6
0027
FFFC
FFF8
FFB4
0031
FFEA
0006
001B
001F
0046
0005
FFF1
0046
0016
FFE1
FFC7
0035
FFEB
0019
FFFC
FFD2
0010
FFBD
FFF3
0007
FFF6
0026
0032
002A
FFB9
FFD1
0006
0043
0033
0035
FFE2
FFF5
FFFC
FFCB
FFB8
0045
FFD8
FFD8
FFC0
0042
000C
001A
003F
FFE8
0013
FFB9
FFD0
0033
0029
FFE9
FFED
0005
FFB3
FFD8
FFD3
FFDA
002F
FFDE
FFD1
0001
0038
FFD8
FFBF
FFEA
0026
0008
0031
0047
002D
0010
FFFF
FFB9
004A
FFEE
FFCB
001A
FFDF
000D
000D
FFF8
0034
FFDC
FFF8
0006
0019
002C
FFF0
0016
FFCA
0042
FFEE
0023
FFB6
FFD3
FFFE
003A
0004
0042
FFFE
FFFF
FFC6
002E
FFD9
003D
003F
0044
0003
001B
002B
FFC7
0010
FFB8
0000
FFCB
FFCF
FFEB
FFF6
0013
FFBF
0001
FFCF
000B
0015
0009
0025
FFE7
0029
FFF6
FFFE
0017
FFB6
0018
0012
FFE3
FFC0
FFC1
0041
001D
FFC7
FFEA
000E
0034
FFBA
FFD8
003C
FFB5
FFD2
0047
0011
FFDB
FFBD
FFB8
FFD9
003B
FFF3
0022
0040
FFF2
FFD1
0003
003F
002F
FFBD
001E
000B
003F
FFC6
0005
003A
FFF2
FFFD
FFBE
FFDE
FFE5
0044
FFDF
FFFA
001A
FFCC
FFFE
0025
0038
0013
001A
FFC7
0044
FFC8
002A
FFDC
0043
0022
0027
FFD5
FFF7
0012
0029
FFC3
0047
003C
FFDD
0032
0003
FFFA
FFE3
000C
0023
FFF2
0014
001F
0020
FFBB
0037
FFFA
FFDC
FFD8
FFFD
003B
FFED
0026
FFC2
FFFC
004C
002A
FFD4
0000
FFD7
FFF2
002B
002A
FFD6
0041
000E
FFEE
0000
0010
0009
FFFE
0001
FFCE
0030
0006
FFC7
0029
0042
0045
FFEC
FFC8
0003
FFC4
0043
FFCF
FFDA
FFF2
FFEE
002D
FFF9
FFCD
FFDC
0001
FFCA
0011
000A
0021
0043
003F
0045
FFD9
FFC7
FFE2
003D
0049
0037
FFC4
0045
FFF4
FFB5
FFF7
FFBA
0007
FFE7
FFFC
0011
0039
0019
FFF6
0031
003E
FFC6
0005
FFDF
FFBA
001A
0038
FFCC
0030
0036
0040
FFDC
003E
FFE4
0008
FFBB
FFBA
0022
FFF7
FFDB
FFD0
001A
FFB3
002F
FFBF
FFD1
FFEF
FFFE
FFEA
FFE4
0047
0016
FFB7
FFF5
003A
FFE2
FFC2
0028
0010
000B
FFBB
FFC9
0013
FFD3
0001
0007
FFDF
0045
0035
0022
FFBF
FFC4
FFFF
FFCC
0049
FFCC
FFFE
FFEB
0015
FFC7
FFF5
FFDD
003C
FFB9
0040
0033
FFE1
002C
FFB8
0048
0004
FFE2
FFEB
FFBD
004B
FFB9
0018
FFF7
0045
FFD9
0005
FFFD
001F
FFBE
FFD1
FFD4
0025
FFD0
000B
FFD4
0038
0044
0003
FFE9
FFD7
FFBB
FFDC
0018
0005
0044
FFF0
001E
FFFE
0002
FFDC
FFF9
FFFC
0020
0044
FFE6
FFBA
FFFF
0007
FFCD
0028
004A
0044
FFD1
003A
001F
FFF9
0006
0036
FFFD
FFED
FFFF
000C
FFD0
003E
001B
0014
FFC2
0010
FFC6
FFBF
0004
FFF1
000E
FFC1
FFF5
FFCE
004B
0009
001D
FFE5
FFC2
0049
FFDF
FFF4
0017
FFB7
0030
0006
FFDE
FFBD
FFCC
003D
001D
FFDA
FFBD
001D
000B
FFF1
FFEB
FFD5
001A
0048
FFCE
000F
FFF4
FFF8
FFDA
0032
FFFE
0007
FFE2
FFCF
FFC0
0021
FFD1
001D
FFEF
FFF3
FFFB
FFEC
FFC3
FFE3
0019
0019
FFDF
FFFA
FFD1
FFD4
FFB7
003D
FFD4
FFD6
FFDE
FFC7
0015
FFBF
FFC8
0016
FFE7
0020
0009
FFDB
0017
FFC5
0006
FFF6
FFDC
0010
0039
004D
0011
FFF1
FFD6
FFDB
FFFD
FFEC
0040
FFEC
FFED
FFEE
0034
0017
0012
FFE7
0031
FFB9
0039
0002
FFF0
0000
001A
FFB5
0039
FFF8
FFE8
FFC8
FFF7
FFFF
FFF1
001B
FFF4
0047
000F
002F
FFC4
FFF0
FFE7
000B
0037
FFBF
FFBE
0036
FFD4
001A
0007
0033
FFC6
FFC7
0009
0045
FFF3
FFE5
0010
0042
0034
004C
FFB7
FFC5
0011
0031
FFDF
FFD8
002C
FFBC
FFEC
0001
0009
0023
FFEA
0011
000D
0007
0016
FFDB
FFC0
FFC6
FFD6
0000
0034
001F
002C
FFE9
FFF1
FFF0
FFD1
FFBD
000E
004B
FFCD
FFBA
002B
FFDA
0033
001F
0044
FFF2
0019
FFFB
0014
FFF8
FFD0
0001
0004
0030
0024
0019
FFC5
0022
0000
003D
0040
FFBC
0031
FFB9
FFEC
0006
FFCA
0026
FFB4
FFCD
000C
0021
0040
0020
001A
FFF0
FFB3
FFC6
0005
001B
FFF3
0023
0003
FFBF
FFD1
0034
0023
003D
FFC5
004B
FFD3
FFB5
004C
FFDE
001A
FFCE
000C
003E
FFE4
001A
FFD0
0013
FFE7
FFD4
FFE3
FFCF
003E
FFF0
FFD9
FFF8
FFE4
0026
0048
FFF6
0037
000A
FFCB
001D
0002
0017
003C
FFF7
003E
0027
FFFE
0010
FFE5
004A
001A
FFBA
FFE5
0013
FFBC
FFB7
FFF8
FFE6
FFF7
FFDC
FFCD
001D
0002
FFD2
FFE4
000E
FFBE
FFCA
FFBE
0030
0027
0027
0021
001A
FFFC
0016
FFB9
0013
002B
0000
FFEA
FFDE
0016
001E
0039
FFE8
0029
0009
003B
0004
0003
000C
0026
0047
FFBE
FFBB
0043
0005
0012
FFFD
FFC2
0029
0026
FFE3
FFE2
0034
FFBE
003B
FFDB
000E
0043
001B
FFF3
001D
FFE8
FFDE
004C
0027
0016
FFEA
FFBB
FFB8
0008
0028
0006
0034
FFB8
FFEC
FFD8
FFF8
FFBE
0046
FFD5
0041
FFF5
004B
0008
0042
FFB4
0026
003E
FFC9
FFC2
FFF4
0043
0007
0004
FFC9
FFB3
0030
FFC1
0015
0040
FFD3
0019
FFBF
0010
FFCC
0024
FFE1
FFFA
000F
FFCE
0025
FFE2
0019
FFCC
001D
FFC7
FFF5
FFD9
0026
FFDB
003B
003C
FFD1
0011
FFC1
FFEF
0021
0018
0013
FFDF
FFED
FFC3
0022
0001
0020
FFD9
FFE5
FFE7
FFB7
FFE8
002F
003D
0003
FFF9
FFB8
003A
FFB5
0044
FFFE
FFE8
0041
FFB7
000D
0008
FFD5
FFF5
0017
0023
FFB3
0043
FFCC
FFD7
FFDC
FFB9
FFC6
004B
FFE4
FFC5
FFC4
0022
0036
FFDB
FFB6
FFD5
FFBC
FFC3
FFF5
FFD7
0002
FFDA
0044
003E
000A
FFEA
FFEE
FFF2
0023
FFF9
0037
0044
FFE7
0009
FFC2
FFD2
FFF3
FFD3
003A
FFCC
FFF9
0010
001D
FFEE
0039
000A
FFF7
FFBE
FFFB
0031
0012
0033
FFFF
FFC5
FFB5
FFE2
001E
002D
FFE1
FFFF
FFF4
FFF2
FFD7
FFC8
FFD1
FFBC
FFD2
FFB5
0014
FFE4
0049
FFD1
FFE8
FFEA
FFB4
0034
FFB8
0044
003C
0005
0007
0018
FFEF
0017
FFBA
FFBC
FFF9
0008
003C
FFC3
0032
FFD3
FFF0
FFE4
FFF1
FFCA
0001
002E
FFF7
FFFF
0036
0020
FFFF
FFDB
003B
000C
FFD5
FFDD
002F
FFBA
004C
FFC7
002D
FFF0
FFFF
003A
FFF3
0006
FFBB
FFB4
FFD9
001C
FFC6
FFC5
FFF2
0017
0021
FFCF
FFBF
0044
FFDB
0036
0038
002A
FFCD
0031
0029
000F
FFE7
FFDC
FFC6
0001
000D
FFEA
FFFC
FFEB
0016
003E
FFCC
FFEE
FFC9
0013
0023
0042
FFDE
0045
FFBD
0010
FFBC
003C
0005
001A
0033
FFCA
FFB9
003A
FFE4
FFC7
FFFB
000F
FFB8
FFDD
FFB8
FFF4
003D
004A
0015
FFCC
003E
0002
FFCB
0041
0028
0024
0020
FFD2
FFD4
001D
FFD5
FFF7
002B
002C
FFF9
002D
0034
0018
FFD6
FFDD
FFE4
FFC5
FFDD
FFD3
FFF9
003F
FFC3
0022
001D
FFC2
0041
000B
FFEB
0027
FFDB
001E
FFB9
0034
FFF8
0015
FFD5
001B
002A
FFFC
0012
FFF9
003D
0000
0035
002E
FFF2
FFD7
FFF2
0032
FFD6
0004
002F
FFE9
0016
FFD9
FFC4
002D
FFC2
FFDD
0037
FFE8
0049
004A
FFDC
FFB9
001F
FFF8
FFC3
0020
FFB8
0039
FFC8
FFC7
FFCE
0047
001E
002E
FFF0
FFE7
FFD7
FFFD
0008
0014
FFDB
0045
FFCD
0048
FFB5
FFFD
FFE6
FFF8
000B
FFF6
FFF3
0024
001D
0033
FFDA
0011
000D
FFEC
FFFE
FFE3
FFC9
FFD4
FFC3
001C
0019
0045
0023
FFBB
003B
0038
FFF7
000D
0049
0005
003E
FFC0
FFD1
FFF7
000D
0031
004B
FFEF
FFBA
002E
0010
FFD2
FFFF
0025
002A
0000
FFE2
0049
0019
FFF2
FFDE
0023
FFD8
FFCE
0005
FFE0
0014
FFC5
0018
FFDF
FFB3
FFC7
0043
0038
FFD7
002B
0011
0048
FFED
001C
FFBD
FFF0
0047
0006
FFDF
FFC6
001F
0016
FFED
0045
FFB7
FFE2
0041
FFE4
FFDA
0005
0032
FFC3
0044
002D
FFCF
0021
FFEE
FFF1
002C
0047
FFC7
FFF4
FFFD
FFED
FFEB
FFBB
001C
FFF6
FFD1
0031
002E
FFFE
FFE1
0015
FFDF
FFD7
0023
FFB9
FFC2
FFB4
FFCB
FFBE
004C
FFE0
FFCA
FFD8
0043
0003
FFEB
0039
FFF0
FFE7
FFD3
FFED
FFE4
001B
FFE0
000C
FFBD
FFD1
FFF2
0043
FFED
0019
FFDA
FFC7
FFBC
FFE2
FFCB
FFCE
0028
FFB6
0009
FFED
0001
000A
FFE3
FFE1
0024
0039
FFD1
FFC2
003D
FFE9
0008
FFEA
FFC7
000E
0004
FFD2
FFF9
002E
000E
FFC2
0007
001F
002D
0014
FFCB
0020
001B
FFB7
FFF2
FFE6
001A
FFD4
000E
003F
002E
0041
0049
FFB5
0013
FFF3
0037
FFDA
004A
0011
002D
FFC0
FFCF
0028
FFB7
0031
FFB5
0018
FFEB
0011
001E
FFE8
FFC4
FFBE
000E
0003
0025
0001
FFF4
FFF0
FFB7
FFE7
0049
0039
FFE6
000D
0035
FFF7
FFB6
FFBF
0002
0048
001E
FFBE
FFD0
002A
0034
0012
0016
FFB8
0032
002C
FFDB
0020
FFD4
FFB9
FFD2
FFCF
FFE7
FFF3
0001
FFFC
FFDD
FFB8
0010
FFF0
FFE1
0038
0026
0037
FFFF
FFC7
001E
FFD3
FFF7
FFBD
0032
FFC7
003E
0038
FFFB
0026
0012
002F
FFF6
002C
FFFA
0044
FFFE
FFFA
002C
0031
0008
FFCF
FFFB
0048
0027
0030
FFB8
FFFB
0017
0033
FFBB
0036
0007
FFD2
FFE4
FFDF
0005
FFBB
FFCC
0030
FFC8
FFD7
FFF9
0003
0028
FFF8
002D
0012
FFC5
FFCB
FFF6
FFF0
0025
000C
FFEF
FFCD
FFD6
000C
FFF4
0002
FFCD
0019
0036
